Ġ t
Ġ a
h e
i n
r e
Ġt he
o n
e r
Ġ s
Ġ w
a t
Ġ o
e n
Ġ c
i t
i s
a n
o r
Ġ b
e s
e d
Ġ f
in g
Ġ p
o u
Ġa n
a l
Ġt o
a r
Ġ m
Ġ in
Ġo f
Ġ h
Ġ d
â Ģ
a s
i c
Ġan d
Ġt h
l e
o m
i on
l l
en t
Ġ n
Ġ l
Ġ re
s t
v e
Ġ e
l y
r o
Ġb e
Ġ g
i d
u t
a c
o t
Ġ T
Ġ I
Ġth at
Ġ on
a y
Ġ S
Ġ is
e t
i m
a m
a d
o w
s e
i g
Ġf or
âĢ Ļ
Ġ A
v er
u r
c t
l d
Ġ C
Ġ u
Ġs t
Ġ y
Ġ it
Ġ he
i r
at ion
it h
Ġw h
Ġ M
c e
t er
o l
Ġw e
i l
Ġw ith
Ġa s
Ġ B
c h
i ll
n d
Ġ P
Ġw as
er s
Ġy ou
k e
Ġ âĢ
Ġc on
Ġd e
Ġ r
he r
i f
at e
a g
Ġa t
Ġh a
Ġ W
Ġs e
Ġ H
o re
Ġp ro
u l
p p
m ent
r i
Ġa re
Ġ D
Ġ 1
u s
es t
is t
Ġc om
an d
Ġ R
o p
a in
ĠT he
Ġ 2
ig h
r om
Ġ (
or t
o d
Ġn e
Ġ F
u m
u n
Ġe x
re s
a b
âĢ Ŀ
Ġn ot
Ġ N
Ġ v
es s
Ġha ve
it y
e m
ou ld
Ġo r
t h
Ġb y
o s
an t
Ġ G
i ve
Ġf rom
Ġa l
e l
' s
o c
ar t
Ġs u
Ġ L
Ġs h
Ġth is
n t
q u
igh t
p e
u st
Ġ le
i es
Ġ E
en d
Ġc h
Ġs a
ou t
Ġa b
T he
al l
i e
ac k
re d
0 0
ĠâĢ ľ
Ġh as
al ly
Ġ J
Ġp l
Ġg o
ar d
i v
Ġh is
om e
a p
o st
g h
e ar
Ġ O
Ġt r
ou r
as t
Ġ j
a k
u d
Ġd o
Ġthe y
Ġb ut
Ġw or
r ou
Ġc an
g e
Ġw ill
Ġsa id
Ġw he
Ġ U
Ġ k
ic h
Ġa ll
o k
Ġ "
id e
Ġwh o
Ġin t
am e
an s
t her
i al
Ġo ut
f f
Ġthe ir
on g
e ct
p l
ic e
u re
p t
on e
Ġm ore
ag e
ion s
ac t
i ke
Ġm e
Ġu p
ou s
in e
Ġa d
Ġab out
at ed
r a
b er
Ġon e
Ġwe re
Ġs o
Ġu s
im e
o g
Ġ K
e p
i a
Ġh ad
a re
u b
c c
Ġw ould
Ġc l
Ġ2 0
Ġ im
Ġwh ich
in d
u e
a ke
Ġcon t
i z
ver y
Ġa g
Ġt e
Ġof f
Ġcom p
Ġu n
Ġbe en
ĠS t
s o
Ġ en
p er
ig n
a u
ĠT h
ar y
ac e
Ġy ear
i p
e w
Ġl ike
e re
v en
o ok
Ġin c
ay s
Ġm an
Ġp e
r y
o se
Ġre s
ab le
it e
Ġp er
as s
or d
Ġs p
i re
ĠI n
Ġo ther
m er
Ġs ome
i le
i b
en ce
op le
Ġ20 1
k s
ation s
Ġo ver
ic al
Ġthe re
res s
Ġd is
ul t
in t
Ġne w
ow n
Ġal so
Ġth an
Ġa r
Ġbe c
r u
Ġthe m
an ce
ou nt
ou gh
Ġa pp
p ort
a il
Ġp art
Ġyou r
Ġwhe n
re e
Ġwh at
or m
on d
Ġpe ople
f ter
Ġs c
ĠC h
a v
as e
Ġ qu
Ġan y
Ġj ust
Ġit s
Ġ Y
ac h
Ġt ime
ĠI t
Ġk n
Ġhe r
Ġ 3
en s
l ic
Ġre c
re at
Ġm y
Ġg et
Ġ if
Ġ V
i an
. âĢĿ
Ġint o
ou nd
Ġwor k
Ġt w
ir st
ve l
ct ion
Ġn o
d u
ing s
or y
ic k
or s
Ġo ur
it ion
id ent
o b
Ġ -
Ġp re
o ve
Ġpl ay
an g
in k
au se
w n
am p
t e
ad e
h ing
at es
ar k
Ġ ro
Ġp ol
Ġs he
ver s
Ġc o
, âĢĿ
Ġa fter
Ġf irst
Ġc ould
Ġh ow
ĠH e
n e
Ġ1 9
i ous
nd er
i ld
Ġa cc
Ġh im
a w
' t
on s
Ġp o
Ġon ly
Ġf e
Ġat t
ic t
he d
Ġp r
Ġtw o
r it
o v
is h
Ġcom m
âĢ ľ
f orm
Ġs pe
Ġa ct
w e
er v
Ġb l
f t
Ġbe t
Ġde c
. "
n ing
Ġb ack
Ġm ost
c es
o od
c k
ĠâĢ ĵ
Ġa m
o y
Ġd id
rou gh
if f
at er
rou nd
Ġag ain
Ġ 4
u al
d ay
is e
Ġu nder
Ġd es
Ġw ant
u ll
se l
Ġcon s
ĠâĢ Ķ
. .
Ġbec ause
Ġn ow
l ud
ent s
Ġyear s
m an
ter n
ub lic
e c
Ġne ed
Ġe ven
Ġ $
is s
Ġin v
Ġkn ow
ĠW e
Ġse e
ment s
c ed
Ġad d
, "
t ing
o ld
Ġin d
Ġse c
f ore
u ch
Ġe very
ur n
Ġ 5
Ġsu pp
Ġm ake
pe ct
ĠU n
Ġe m
Ġthe se
oc k
o ll
Ġwhe re
j ect
I n
ation al
ver n
x t
Ġb u
Ġl ook
T h
ĠA nd
os s
Ġd on
Ġe v
um p
at ing
Ġw ay
Ġbe ing
Ġre m
Ġr ight
i ly
Ġm ay
n g
ro w
le ct
ie w
Ġthe n
Ġman y
Ġ [
Ġd iff
Ġde f
as on
Ġre l
Ġc all
ĠB ut
ĠT r
on t
i ed
l es
as ed
Ġinc lud
Ġth ink
ak ing
Ġre g
) .
mer ic
Ġim p
Ġth rough
at h
it ed
ri b
Ġs y
Ġsh ould
Ġp res
Ġs ay
e ll
Ġf l
ur ing
Ġl ast
Ġth ose
ow er
Ġ very
t y
ot her
Ġm uch
00 0
it ies
if ic
Ġst ate
ĠTh is
at ive
Ġsh ow
t le
he n
Ġb r
s s
ar g
Ġwe ll
ot h
Ġp h
ĠW h
Ġc ount
al s
u nd
Ġdo es
Ġd own
Ġo wn
ar ly
Ġ end
Ġas s
Ġbe l
Ġu se
ic s
an ge
- -
t s
Ġl ong
ĠA meric
ter s
in ce
Ġbe fore
om et
g r
Ġm on
w ard
Ġgo vern
Ġst art
Ġre port
ib le
Ġ ke
u p
u es
ĠN ew
Ġf in
Ġte am
b le
Ġm ade
if e
ol og
en er
) ,
Ġsu ch
re n
c om
Ġ2 00
ou n
ers on
e k
i x
Ġs m
âĢ Ķ
l p
il ity
Ġgo ing
is m
f ul
Ġwor ld
u ally
Ġst ud
ist s
Ġgo od
Ġa c
t ain
I t
Ġsu b
Ġe ff
in i
Ġs ur
Ġagain st
it s
Ġg ame
Ġs et
or k
Ġ 6
Ġg u
Ġpo int
Ġ ent
y s
g an
ar s
l i
st em
Ġpro v
Ġst ill
rou p
Ġwh ile
ill ion
Ġhe lp
Ġle ad
we en
e f
a x
an k
al k
im es
Ġs ays
Ġo b
m s
c y
Ġpro du
Ġg r
Ġin ter
Ġin st
Ġst r
c ess
Ġs im
sel f
Ġcon f
i o
Ġc ol
Ġt ake
Ġm in
u res
ar ch
Ġs ame
Ġth ough
Ġbet ween
oll ow
Ġoff ic
e ver
Ġc r
Ġdiff ere
o ol
us s
ut ion
l and
Ġdis c
a ir
Ġo p
a h
Ġ ed
Ġh igh
re ad
Ġn um
Ġl aw
Ġs ign
w ay
Ġgovern ment
g g
ĠR e
l ed
n er
h ip
at ch
he s
am es
an y
Ġt er
Ġs omet
c ent
vel op
t ed
W e
Ġre f
Ġtr ans
t en
Ġin s
Ġr un
Ġs er
Ġf ound
Ġth ree
iv es
a ve
Ġm em
Ġa round
Ġhe re
at her
Ġm ed
Ġre al
Ġus ed
ou se
Ġ1 0
v ed
Ġex p
a z
ĠA r
ce pt
o ot
Ġsy stem
ĠY ou
c i
Ġre ally
Ġm od
v ing
c on
c er
Ġg roup
Ġsupp ort
Ġ 7
Ġc our
et s
al e
n in
in s
Ġre t
Ġh and
Ġp ublic
Ġspe c
p r
ĠL e
y ing
Ġg reat
Ġc ar
en se
Ġex t
. [
t on
ire ct
Ġc ur
Ġf am
ĠC om
al th
Ġha pp
Ġf act
p h
Ġex per
ĠThe y
ĠTr ump
Ġf r
Ġw om
ĠI s
Ġc ap
Ġb oth
Ġd ay
Ġf ind
ĠA l
ul ar
Ġre ad
in es
o h
ic es
Ġd et
Ġl it
Ġs l
Ġre p
ut h
e red
Ġd uring
ĠS h
ĠA s
Ġ 0
Ġs erv
Ġmon th
t he
is ion
Ġc re
Ġde velop
Ġb ig
m in
Ġ 8
Ġp erson
ak es
Ġf ollow
ĠC l
Ġis s
e x
Ġto ld
Ġs ince
a red
m ed
ic ally
Ġwe ek
ag es
i vers
Ġw ar
Ġf ew
ort h
ord ing
Ġc ent
Ġle g
a j
g et
Ġpol it
v es
as h
Ġex pl
Ġl ot
r ic
ĠS e
Ġbel ie
at a
Ġg ener
Ġto o
Ġ 9
d er
re nt
Ġo pp
W h
Ġre qu
Ġcont in
Ġpro t
i et
b ers
an c
Ġf il
ent ion
n ess
Ġc le
Ġres p
Ġp ut
iz ed
ĠI f
Ġan other
2 0
ch ool
Ġin f
Ġsomet hing
ĠD e
Ġdiffere nt
Ġc or
Ġl oc
ut e
Ġinv est
Ġs oc
Ġp ower
Ġc he
u c
Ġ '
Ġp ass
Ġcomm un
Ġl ife
ĠF r
Ġpl an
od y
Ġre le
Ġhe ad
i ence
Ġth ings
n ed
Ġf ar
Ġar t
Ġp oss
Ġm et
th ing
o x
ere st
Ġc amp
ro ss
ar ge
Ġv ot
Th is
v iew
i er
Ġch ild
ant s
Ġas k
Ġ .
Ġm ight
Ġe ach
iz e
in ess
Ġde p
Ġne ver
Ġne xt
ie ld
Ġsec ond
Ġm ark
t t
Ġqu est
Ġb us
Ġad v
i k
ĠA n
.. .
Ġde m
ĠF or
Ġcom e
Ġg ot
ĠâĢ ĺ
Ġop en
Ġb est
i ent
it al
Ġall ow
ĠTh at
r at
Ġse em
Ġp ost
p le
n ce
Ġfe el
ĠP ro
ĠU S
u g
Ġp ri
gr am
Ġper cent
c l
Ġh ome
Ġd ist
Ġd irect
i red
Ġinc re
Ġcont ro
ĠR ep
s on
or n
l ess
os ed
Ġres ult
Ġh ard
Ġc are
ate ly
Ġm illion
ch n
Ġcomp le
Ġpl ace
Ġwith out
Ġin form
Ġinclud ing
Ġim port
Ġa v
con om
Ġh um
am a
Ġ ide
Ġpro ble
Ġbu ild
Ġto p
Ġnum ber
Ġcount ry
g y
one y
a im
ĠB l
re t
r al
ab ly
u ro
Ġst and
Ġg l
Ġe l
ri end
Ġf our
is hed
w ays
Ġpart ic
Ġbet ter
Ġt ri
B ut
Ġrec ent
Ġint erest
Ġm ov
Ġle t
c o
r ation
Ġse ason
Ġl ess
e ad
Ġt urn
Ġlit tle
Ġbe h
Ġm il
Ġapp ro
r act
l ine
Ġb ro
l ing
is ed
Ġcall ed
a pp
1 0
Ġc ase
Ġd r
ĠI nd
Ġre st
Ġle ft
Ġp op
Ġan n
Ġ Z
en cy
od e
Ġm ove
Ġatt ack
in a
ĠThe re
Ġke ep
Ġf ull
er ing
Ġdid n
b e
Ġf un
Ġm ain
aj or
_ _
Ġeff ect
in al
le g
Ġpre v
Ġpro gram
Ġus ing
Ġt est
re m
Ġp ay
at ure
Ġe ar
t o
Ġv al
Ġpol ice
Ġw rit
Ġfor m
Ġe conom
Ġd ata
Ġnew s
Ġp os
Ġw in
ĠAmeric an
Ġle vel
Ġs it
Ġch ar
ain s
iv ing
u ck
Ġsm all
in ed
read y
H e
Ġs chool
Ġl ist
olog y
r ap
id ed
m it
pl oy
' re
g er
Ġe as
Ġpro cess
ir d
Ġch ange
Ġwom en
Ġcur rent
Ġre ce
Ġp rom
Ġh ist
Ġd ri
Ġ =
re en
Ġpres ident
Ġcomp any
ĠS o
us ed
Ġm at
ru ct
Ġal ready
oh n
ĠUn ited
w it
Ġt y
Ġwh y
Ġb re
Ġu nt
Ġm oney
Ġs ol
Ġal ways
Ġl ater
Ġex pect
Ġte chn
Ġbus iness
ĠH ow
Ġoffic ial
r on
Ġ Q
ĠO b
st and
ivers ity
Ġb o
Ġb ook
ĠP h
a ign
Ġth ing
Ġcl ass
Ġpro ject
as es
Ġcl aim
Ġj ob
Ġinform ation
Ġor gan
a ff
ĠS he
ard s
Ġt alk
ĠB e
Ġdes ign
Ġst ory
Ġch ang
Ġm ajor
Ġab le
Ġpro f
Ġ- -
le ction
iv en
er tain
Ġre se
Ġhe alth
Ġv is
Ġp ast
ur s
Ġf ree
ou th
he re
ĠA d
Ġo per
pt ion
Ġa way
i or
ĠC an
Ġm ust
Ġc ity
amp le
i ans
r ist
s c
ur al
Ġhapp en
uth or
Ġ1 8
Ġimport ant
ac y
ur ity
Ġk ill
Ġs k
Ġ est
u red
Ġo ld
Ġp at
ur y
end ing
Ġdoes n
iss ion
Ġle ast
-- -
Ġg row
Ġed it
Ġv ar
ain ed
S t
Ġc ost
ĠG o
ne y
id er
id es
el s
Ġd ays
Ġte ll
Ġh op
Ġst re
Ġcamp aign
s ide
Ġ1 2
Ġm en
Ġc ame
Ġa ff
Ġcon st
res ident
Ġen ough
Ġv iew
cc ess
Ġk ind
ĠM ar
o ad
ĠS p
er n
Ġm aking
Ġl arge
Ġrec ord
5 0
us h
Ġf riend
Ġm ar
Ġfam ily
âĢ ¦
le y
Ġe lect
d ed
er al
Ġpol ic
Ġt ax
is ing
r or
b y
pp ed
al ity
at or
if ied
A s
iv ed
are nt
Ġunt il
e e
ion al
Ġpolit ical
Ġv ide
Ġde al
ri es
al f
au gh
Ġ ve
Ġwork ing
u ed
ĠRep ublic
Ġto ok
Ġde b
b s
I f
is ter
Ġl ine
ĠJ ohn
ain ing
Ġa ir
- --
Ġ es
Ġin tern
Ġf ore
i ol
an e
oc rat
Ġbec ome
Ġact ually
ap s
on y
Ġme an
w ork
Ġf und
ĠS c
w are
1 9
em ber
ĠP l
Ġfor mer
Ġof ten
ĠE uro
ot t
Ġw on
Ġg ive
an n
o int
Ġacc ording
Ġe ver
m ost
en g
y ear
w h
ar ing
Ġg ames
is on
Ġhum an
Ġb as
iz ation
Ġret urn
Ġt imes
Ġor der
ĠR uss
Ġwor d
Ġb it
ĠD em
Ġn ame
1 1
Ġse ver
ĠA ll
Ġde v
ic le
ut ure
f or
it her
Ġp ar
Ġ19 9
ĠM c
Ġw r
ĠC on
ra ft
Ġs ing
Ġper form
ĠS y
Ġmark et
Ġf ac
Ġchar ac
The re
i qu
ĠO r
id d
ĠA t
ĠM ay
Ġr a
Ġdo ing
Ġapp ear
E R
c hed
Ġplay ers
Ġl a
Ġn ight
en e
Ġle ar
ak en
ro p
at s
m ber
Ġto day
Ġe arly
Ġ1 5
Ġse en
/ /
Ġha ving
Ġ ,
Ġp ot
Ġchild ren
Ġev ent
Ġmed ia
Ġsoc ial
Ġc rit
ĠP resident
Ġwhe ther
Ġsever al
Ġcontro l
id ence
Ġme et
s h
Ġmil it
Ġp ress
Ġw ent
art ment
Ġf ive
Ġyou ng
or ies
Ġsu re
Ġpro p
ious ly
Ġe qu
Ġbe g
Ġquest ion
Ġo cc
Ġlike ly
ver t
un e
Ġmem bers
b r
and s
Ġc ertain
Ġen g
Ġw ater
ĠY ork
Ġex ample
ot s
ĠC ol
Ġar g
Ġs ide
Ġan t
Ġd one
Ġ vers
en n
Ġinv ol
ĠM r
ĠSt ates
ĠEuro pe
end ed
le t
Ġal ong
Ġsh ort
Ġsu ccess
ent ial
Ġmonth s
b all
Ġh our
Ġ1 1
i um
Ġse x
i ver
i ally
A nd
l f
em pt
Ġwith in
Ġdes c
im ate
Ġcour se
Ġf ight
st er
ur ch
ub l
Ġam ong
Ġact iv
u ff
âĢ ĵ
ag ue
Ġon ce
Ġf uture
Ġinvest ig
ul ation
re w
Ġposs ible
ĠOb ama
Ġch o
n ect
Ġunder stand
it ing
Ġcon cer
ĠO n
Ġ ]
on es
ort un
Ġproble m
ĠB r
Ġpri v
Ġme ans
Ġv iol
ĠC ar
Ġa uthor
it ive
ĠN o
gg est
Ġav ail
oc i
our n
m y
Ġkn own
Ġprodu ct
Ġn on
iv id
Ġthough t
Ġy et
g ress
Ġac ross
Ġprot ect
Ġloc al
l er
Ġh old
ĠT e
Ġf ail
in c
ĠW hen
ĠSt ate
Ġcommun ity
Ġre ason
Ġor ig
ed e
Ġsu ggest
Ġ &
1 2
Ġm akes
ver age
al d
n ot
p or
b ack
Ġ201 6
Ġ i
b ook
Ġask ed
ed eral
or ld
Ġreport ed
Y ou
ag ed
ens ive
Ġg iven
Ġstr ong
Ġpro b
Ġm us
Ġother s
Ġbelie ve
Ġvide o
i ber
Ġb en
Ġget ting
ĠH ouse
an ces
Ġann oun
Ġl ight
g ing
ore d
o ber
ĠUn iversity
Ġ3 0
ĠC o
it ions
Ġ ident
ir on
Ġs ent
Ġc ut
Ġl im
Ġc a
ĠCh rist
iet y
3 0
ur ther
Ġs our
Ġc reat
Ġcon d
Ġ X
re st
am s
' ve
Ġn et
as hing
Ġb at
am ent
Ġn ational
. ,
Ġcl ose
ar m
Ġstart ed
Ġsa f
Ġde ath
as ter
Ġavail able
Ġh ig
F or
Ġb ased
Ġiss ue
o f
Ġind ust
ĠDem ocrat
Ġl ow
Ġfollow ing
res ent
Ġacc ount
Ġl and
u se
ĠC ent
Ġem ploy
Ġl ove
Ġ201 5
Ġ #
Ġhist ory
Ġag o
ort s
sel ves
Ġm om
an a
Ġpart y
ĠA m
ab ility
e b
Ġser ies
Ġcom es
Ġtr ying
u ly
ut es
Ġal most
get her
u ment
Ġto gether
in ation
A T
ĠAmeric a
Ġide a
p ro
ie f
Ġacc ess
Ġf oc
her s
il ar
ĠF l
re ed
ail s
Ġcomm it
ition al
Ġis n
ĠS en
Ġcle ar
Ġ1 6
ĠO ne
Ġtr ad
ĠM in
th ough
r ing
ĠWh at
Ġpr act
Ġadd ed
Ġimp ro
Ġexper ience
ere nce
Ġfil m
1 5
Ġh alf
ust om
g ed
Ġh it
ĠB ro
wit ter
r ict
Ġan al
int on
og rap
un ch
Ġ201 4
Ġr ul
ivid ual
Ġlook ing
Ġs ix
Ġl ive
Ġany thing
Ġare a
Ġcomple te
er man
min ist
Ġm iss
ra el
ĠCom m
ĠE x
Ġf av
Ġr is
n es
Ġpres ent
a i
ot e
ru g
Ġsay ing
ra w
a id
ĠCan ad
Ġv ict
I N
ci ally
Ġb ad
ow s
u ge
Ġt aken
ot o
Ġent ire
ĠP r
at ors
Ġb ill
Ġcomp et
a f
Ġm or
ĠE ng
Ġbeh ind
i en
Ġa ut
ĠT o
' m
Ġcour t
pl ay
Ġtr y
e v
Ġmilit ary
Ġ z
Ġne ar
os p
Ġm ult
Wh at
Ġf ace
ward s
Ġ er
Ġ1 4
Ġsec urity
ĠP ol
s y
Ġpro per
Ġdisc uss
Ġth reat
Ġto t
er t
Ġstud y
Ġsing le
Ġr ather
Ġind ividual
ĠA f
ĠB rit
ĠW ar
Ġ Â
tt p
Ġqu ick
ĠD on
Ġm ind
ĠS ec
le ment
al es
at ic
A n
ĠN orth
am ed
ap er
Ġp ubl
Ġpolic y
Ġm ess
r is
p ar
Ġbl ack
Ġwant ed
Ġf all
ir c
* *
o ff
Ġf ood
Ġs um
Ġsome one
ll ing
id s
O n
Ġ |
Ġ /
Ġc ult
Ġspec ial
Ġcom b
Ġke y
Ġplay er
Ġre du
ĠG r
Ġbr ing
Ġ1 3
Ġcomp an
Ġ1 7
p ly
ĠD ep
Ġatt empt
ĠN ational
Ġt aking
ĠB ar
W hen
O N
if y
ol ution
Ġ :
v iron
Ġf oot
ĠC al
: //
Ġel se
Ġpre t
Ġb ody
Ġsp ace
el t
ro te
o ver
Ġprob ably
1 6
ic ult
. )
Ġfr ont
Ġc ou
Ġnot hing
ĠI m
Ġs w
ashing ton
Ġcon nect
c hes
ĠW orld
Ġrese arch
1 4
ĠCl inton
ĠC ity
m ing
Ġcom ing
Ġpoint s
ĠIs rael
Ġhow ever
R E
Ġdesc rib
Ġj o
g o
Ġsign ific
Ġsim ilar
y n
rem e
c ing
Ġben ef
li er
ĠM an
ĠA ust
Ġim m
Ġdec ision
Ġe ither
ac es
A d
Ġc oun
a ult
S o
Ġm ass
ĠH ar
Ġs us
Ġt arg
ull y
Ġfe at
Th at
Ġcon v
Ġex ist
ir l
Ġen c
Ġ201 3
Ġright s
Ġserv ice
ĠS u
as ing
s w
I S
Ġf ire
Ġd oc
Ġw rote
Ġf urther
Ġh ouse
ro du
Ġf ig
Ġch all
Ġb an
w w
Ġth ird
m b
Ġw a
Ġcre ate
Ġst op
Ġf ield
n ow
Ġp ick
A N
a pe
ive ly
Ġme as
Ġre pl
Ġcom pl
un g
ĠW ith
Ġiss ues
pp ing
Ġbeg in
Ġsu per
am er
Ġst ep
e al
ri ed
ent ly
Ġwho le
Ġrel ations
Ġseem s
Ġ )
Ġcompan ies
pe cially
Ġd ue
Ġex ec
Ġc and
Ġevery thing
Ġf ederal
ĠE d
ĠG u
Ġst ates
Ġe y
Ġro om
a ul
Ġtr a
Ġw atch
o on
ĠG e
Ġc ustom
Ġlead ers
1 3
u ation
ĠHow ever
p ite
ĠJ an
ĠW ashington
C h
l am
Ġse lf
Ġro le
r an
il t
Ġs ound
Ġl ab
at t
he ad
Ġd am
iv il
Ġofficial s
Ġst ri
Ġ201 2
Ġt re
id ay
ib ility
Ġrele ased
l u
ĠIn st
Ġbe gan
ĠD av
ĠA pp
ĠS outh
Ġo pt
ob al
Ġstud ents
Ġt reat
Ġfin al
Ġcharac ter
Ġpos ition
Ġmat ter
Ã ©
end er
Ġen er
l im
Ġout side
er y
se c
ad es
Ġd ou
viron ment
Ġdevelop ment
Ġstate ment
Ġhim self
Ġ201 7
Ġab ove
l ike
Ġst at
Ġin it
Ġbre ak
Ġ1 00
Ġam ount
Ġprov ide
Ġhour s
Ġit self
Ġthem selves
Ġoff ice
Ġrep resent
Ġa ction
ĠP art
Ġd i
Ġbec ame
Ġ19 8
Ġgener al
Ġcontin ue
Ġcount ries
ĠIn tern
Ġne g
Ġadd ress
i od
Ġ2 5
Ġg un
ac ed
as k
Ġtr ue
Ġspec ific
ograp h
um b
ar ter
re g
Ġl arg
Ġsignific ant
l ish
Ġsim ply
ĠA ss
ĠR es
Ġwas n
' ll
il i
Ġinter view
ace book
Ġg round
Ġr ad
o id
og n
Ġdiff icult
Ġrun ning
ĠJ ust
Ġev idence
Ġad minist
B C
Ġc op
1 7
re am
Ġd rug
Ġvers ion
og le
Ġb ar
Ġag ree
idd le
e ks
Ġbuild ing
ĠCh ina
Ġneed s
Ġprof ess
ang u
Ġgroup s
r ight
Ġty p
Ġresp ons
Ġcomm on
Ġshow s
Ġevery one
Ġd om
Ġd est
Ġre d
Ġneed ed
Ġb all
Ġwom an
__ _
ĠG erman
Ġl at
Ġbel ow
Ġt em
l ight
ourn al
Ġmus ic
Ġex c
Ġrele ase
if t
Ġin j
Ġpret ty
ĠA b
A R
rib ut
ĠM ed
Ġinclud e
Ġsa w
Ġde ep
Ġa p
b ody
1 8
Ġplay ed
Ġqu ite
Ġindust ry
Ġch arg
Ġm ag
Ġener gy
Ġplay ing
Ġm ot
Ġ5 0
Ġcand id
Ġs ense
Ġph ys
Ġl ate
Ġal leg
Ġwh ite
ĠH is
e g
iv al
Ġfriend s
Ġg en
Ġleg al
at ur
b o
Ġan im
is c
y le
ĠA fter
om m
H ow
A S
w here
Ġab s
le v
Ġinst ead
Ġb illion
Ġl ost
Ġes pecially
Ġval ue
ĠM us
ĠW est
Ġh ost
os ing
or ing
Ġh om
ĠNew s
t ime
ag er
Ġp le
ist ic
Ġwe eks
ep end
ĠN ot
cc ording
Ġfor ward
Ġdet er
Ġe lection
Ġrecent ly
Ġj ud
Ġtr ack
Ġsu ff
Ġvot e
ĠT witter
Ġob ject
ir t
l t
med i
Ġper iod
Ġchang es
Ġopp ortun
ĠWh ite
ĠO ct
Ġl o
Ġlong er
ar c
e ed
o ke
Ġe p
Ġp ain
iqu e
Ġso on
Ġs ite
Ġ {
h od
ri pt
ac hed
Ġac cept
ĠC ong
_ __
ir m
Ġsh oot
Ġeconom ic
Ġhop e
Ġmom ent
Ġdec l
le ge
Ġcons um
ĠW ill
Ġp ie
Ġt it
Ġche ck
op h
o e
Ġpot ential
Ġbl ock
ĠM arch
o le
Ġwr ong
du ct
n ers
i j
ĠSe pt
d en
ĠDep artment
Ġhig her
on se
Ġc red
Ġon line
Ġfoc us
Ġ2 4
Ġcons ider
ke y
Ġed uc
anc ial
ĠM y
n s
id ing
Ġc irc
Ġwor ks
Ġrel ig
Ġsh are
Ġp arent
c ial
Ġhe ld
2 5
Ġp red
ĠD r
Ġw alk
Ġwe bs
ul arly
= =
Ġre ve
Ġl ed
le ar
Ġst ay
ĠThe se
ove red
Ġst ru
al t
ĠRepublic an
Ġris k
Ġword s
ĠA ug
Ġre v
Ġso ld
Ġre view
ic ro
Ġcont ract
Ġresult s
Ġserv ices
Ġlaw s
The y
Ġc ode
c il
ĠM ich
Ġw ind
Ġfun ction
Ġa ud
Ġc e
ĠSy ri
p ut
a ut
Ġtot al
f ect
Ġart icle
Ġa ge
Ġapp lic
Ġmin utes
Ġperson al
il ities
Ġany one
u ary
i ents
it ution
as ons
ĠJ une
ate g
Ġpr im
ang er
Ġtarg et
f er
Ġd en
Ġear lier
u le
Ġfav or
Ġexp ress
h aps
Ġde ad
Ġan sw
Ġup d
e ch
Ġpop ular
c he
Ġcomp ut
ĠSt e
Ġv ol
pr il
Ġne cess
h am
Ġh y
Ġr ate
E S
ag ing
Ġtechn ology
ap an
Ġres pect
v al
Ġen vironment
Ġ201 1
P h
Ġrece ived
Ġexpect ed
ĠS m
end s
ud e
Ġgo al
Ġcre ated
Ġb ase
Ġsur pr
Ġant i
ĠP ar
ĠJ uly
et er
te e
Ġproble ms
u el
Ġw ays
Ġp ort
ip le
act ion
Ġpriv ate
ĠD o
Ġsc ient
Ġincre ase
r ay
re et
Ġannoun ced
Ġcom ment
is l
Ġcan not
Ġeas y
A l
Ġsh ot
ĠCong ress
Ġquest ions
b it
Ġfor ce
ĠP e
ater ial
Ġimp act
her n
Ġe t
ĠM ond
pl es
Ġp ack
Ġ +
Ġp ur
ĠF acebook
Ġl angu
at ives
ĠG od
ĠE n
Ġinvol ved
om b
av ing
ill s
6 0
le x
h ood
on st
ĠAust ral
Ġd iv
ues day
Ġexec ut
ct or
Ġmod el
it iz
Ġs en
Ġspe ak
Ġst aff
Ġex act
Ġc ivil
e es
i res
Ġne arly
Ġty pe
our t
ok es
Ġorig inal
Ġc ases
Ġcont ent
Ġ19 7
Ġrelations hip
Ġter ror
ĠGo ogle
T o
Ġle ave
ĠFr iday
Ġresp onse
Ġcap t
Ġins ide
Ġ <
Ġph ot
ll ed
Ġf ans
ĠA pril
Ġintern ational
Ġco ll
c ast
Ġhe art
Ġa verage
Ġbro ad
Ġar rest
Ġus ers
ĠC ount
Ġc al
A t
re l
Ġc ell
Ġw orth
ĠE m
Ġso ft
Ġ ur
Ġl iving
b or
ĠR ed
Ġn ation
ip s
k y
Ġkill ed
Ġreport s
Ġ201 0
ã ģ
Ġbec om
Ġsour ce
ĠMond ay
ĠT uesday
Ġsub ject
Ġwork ed
at ural
est s
Ġest ab
Ġim medi
E N
Ġresp ond
Ġgl obal
Ġass oci
j oy
ell ig
Ġcl ub
op s
ĠAmeric ans
a el
Ġob s
it es
ĠP er
ĠP al
Ġch ance
Ġo il
ĠA ct
Ġab ility
Ġt akes
rough t
Ġwe ap
he l
Ġpr ice
ĠJ apan
olog ical
Ġdirect or
iz ing
Ġwork ers
Ġter ms
Ġro ad
m on
Ġpubl ished
Ġde l
e xt
ĠWh ile
Ġt ou
Ġph one
r ain
Ġcol lect
Ġfin ancial
Ġm id
os ition
Ġdec ided
is es
O R
ĠRuss ia
ĠS ome
Ġm other
Ġs qu
ĠW ed
Ġl ack
Ġdef in
ove mber
Ġ4 0
Ġg irl
Ġst ore
Ġg ave
Ġbu y
Ġinf lu
ĠCal if
Ġl og
Ġhappen ed
Ġrequ ire
ĠN ow
Ġe mer
in o
Ġf em
" .
es e
Ġcap ital
cl us
Ġfore ign
Ġcurrent ly
ĠO ff
b ased
ĠS an
Ġgo es
ĠB y
ov ed
ĠGe or
vert ise
Ġsit uation
Ġind ic
Ġoff er
Ġwho se
Ġ @
Ġt al
Ġm aterial
Ġl ives
un t
Ġaff ect
ro wn
ough t
he m
Ġpl ans
nes day
Ġar ri
Ġb ur
Ġmem ber
Ġp ict
urs day
ĠF eb
Ġpartic ip
ru ction
Ġrec ogn
Ġturn ed
Ġmet hod
Ġev ents
ĠJan uary
ĠH ill
Ġnet work
O ne
Ġteam s
ĠS und
Ġb ank
Ġmeet ing
4 0
re ct
Ġn orm
Ġint rodu
Ġsim ple
f ully
ĠA g
ĠIs lam
Ġ ill
Ġh uge
ĠSept ember
Ġreg ard
Ġare as
Ġc y
ord er
ĠC or
ĠT V
ĠM e
b l
Ġcou ple
Ġappro ach
a ur
Ġcare er
ĠAf ric
ĠG l
l oad
" ,
Ġde li
ou d
Ġr ace
Ġperform ance
Ġp age
et y
ap t
ĠN ovember
Ġto ol
ĠDav id
Ġf elt
Ġquick ly
Ġm is
Ġnum bers
o or
Ġem ail
ĠE l
Ġ2 1
a ily
Ġor d
ist an
Ġadminist ration
Ġh on
ĠWed nesday
Ġvict im
ĠP aul
Ġv ia
Ġimpro ve
Ġeng ine
ch ie
Ġf re
Ġp ull
ĠA ng
Ġr ound
Ġbu ilt
Ġ2 2
Ġp ers
ĠEurope an
Ġd ig
ĠTh ursday
Ġf ather
orn ia
Ġl oss
av y
Ġth ous
Â Ń
Ġh ttp
ruct ure
Ġprodu ction
Ġb oy
um e
l in
Ġhe ard
d own
S h
Ġeconom y
âĢĿ .
Ġen joy
ĠAug ust
Ġtr ade
ĠS ch
f ace
Ġwebs ite
im ent
Ġsec ret
Ġco ver
Ġreve al
Ġw ide
Ġbo ard
Ġm atch
ĠC ourt
A L
Ġallow ed
Ġhand s
Ġsp ent
Ġtra vel
Ġl ower
Ġre pe
at ory
Ġpo ll
Ġinclud ed
ce mber
Ġst e
ĠOct ober
Ġne igh
Ġleg isl
or ters
us es
Ġbeh av
ict ion
Ġkn ew
Ġte xt
Ġwant s
Ġto wn
ight s
ĠBrit ish
Ġse par
en ces
es tern
Ġvis it
ĠCanad a
an ks
ct ions
W ith
Ġper fect
Ġget s
ess ion
Ġmove ment
Ġare n
is hing
ra z
g round
age ment
Ġtri ed
Ġc ause
? âĢĿ
g est
Ġ }
Ġfor ces
ĠSund ay
Ġen s
A fter
for ce
ce ed
Ġatt ention
Ġpartic ular
Ġb i
ur d
] [
Ġve h
Ġb ud
Ġf ear
Ġpop ulation
en ed
Ġvar ious
ĠU K
Ġre ach
Ġlook s
Ġ2 3
ĠCalif ornia
Ġb rought
Ġv o
ĠK ore
Ġl ink
ib ly
) ;
ar ily
ĠI S
2 00
Ġprev ious
E D
Ġm ention
ĠRuss ian
Ġmor ning
ĠQ u
c le
ide red
' d
Ġf air
Ġgrow th
ak er
ĠS w
und red
9 9
se qu
y ond
Ġpro gress
Ġfe ll
all ed
Ġs ong
i am
en ing
ĠC ont
A C
Ġtr aining
f ield
h old
u k
Ġs ize
ĠBl ack
c ies
ĠDe cember
ident s
Ġcont act
led ge
Ġh or
ĠH er
Ġdem and
Wh ile
Ġim age
Ġr ac
Ġh ot
ific ation
O S
Ġlead er
s et
ec ause
Ġrul es
Ġpre p
Ġl iber
z e
Ġse arch
Ġ ess
ĠP ost
Ġc itiz
Ġup on
Ġstru gg
ĠSt reet
Ġlat est
c ome
ond on
Ġind epend
U S
u ments
in ks
ar th
Ġfeat ures
Ġco ach
ĠP ark
i ant
Ġf ast
T r
o o
sy ch
Ġtalk ing
ĠJ ew
om p
Ġadd ition
g es
Ġst ar
Ġw ond
ĠSen ate
I T
ĠP at
Ġspe ed
Ġex am
Ġcons idered
ra q
ic les
ar ies
Ġre b
Ġlevel s
et h
ĠT imes
ĠCount y
ellig ence
Ġsl ow
Ġinvestig ation
b ed
p s
il le
Ġcon duct
ap h
ĠPart y
2 2
ĠK ing
Ġmed ical
Ġm ach
Ġs n
im ately
v ent
Ġa chie
Ġlangu age
atur day
Ġc ard
un k
Ġs ort
Ġcrit ic
op e
ĠT ex
ĠCent er
Ġp en
Ġu nd
ĠInd ia
Ġp aper
w o
ys is
I C
Ġ200 8
p ir
Ġcons erv
Ġparent s
Ġsex ual
m a
Ġsystem s
Ġpri or
u it
as c
im in
Ġdo ll
Ġwrit ten
u f
Ġb ox
Ġsp okes
ig r
Ġsee k
Ġs ens
e ared
he t
Ġdoc ument
id ge
Ġincre asing
Ġhe ar
an i
at form
Ġd raw
Ġse ven
Ġs on
ĠMus lim
Ġeff ort
ru ary
Ġjob s
ĠI ran
Ġext reme
Ġprev ent
Ġlear n
in ing
Ġser ious
Ġreg ul
r ast
Ġin n
Ġr ange
Ġ ...
ro om
Ġviol ence
Ġe ight
ĠM ark
8 0
our ces
ĠI raq
it ch
O P
Ġsur ve
Ġcomplete ly
Ġcon c
Ġ200 9
e ff
Ġmess age
ic o
t r
h a
Ġ â
Ġob v
Ġinterest ing
reed om
S he
Ġsc reen
ab or
Ġopportun ity
Ġcl imate
2 4
Ġmajor ity
ĠK e
an ced
Ġpartic ularly
Ġdou b
Ġj ournal
Ġdes pite
ĠR om
Ġclaim s
f ort
Ġansw er
ĠCh ar
Ġsoc iety
ĠL ondon
Ġdef ense
Ġcar ry
ent ially
am ing
Ġgu y
Ġext ra
ens ion
ĠDon ald
is ions
Ġattack s
Ġrequ ired
er ve
ren ch
ill ed
Ġbig gest
vertise ment
ĠE ast
Ġexact ly
Ġp aid
m p
ĠM ore
i ers
ib r
. ..
Ġexper ien
ly ing
uc lear
ines e
is i
Ġmod ern
Ġrem ain
Ġqu arter
Ġoffic ers
et t
Ġh undred
Ġc ross
Ġex cept
ut ions
ar i
Ġt able
Ġpract ice
in ally
Ġn atural
Ġm iddle
er c
Ġ2 7
Ġcertain ly
n a
Ġd ro
os es
ĠS aturday
Ġst ories
ĠN et
Ġhist or
Ġg as
Ġproduct s
Ġsur v
Ġlook ed
Ġsomet imes
n ces
Ġst uff
Ġr out
Ġsc ience
Ġfin ally
Ġus er
ĠT ur
A M
Ġsum mer
Ġmov ie
Ġbl ood
osp ital
av es
Ġcommun ic
Ġa w
ous ly
Ġl ay
Ġchang ed
Ġter m
Ġon es
Ġlead ing
Ġdescrib ed
ĠS and
Ġim ag
ĠFeb ruary
f l
Ġpr ison
Ġcon vers
n y
Ġdet ails
ic ks
Ġstart ing
ĠS pe
Ġqu ality
Ġocc ur
Ġp an
h ib
Ġshow ed
Ġn amed
Ġg iving
Ġu lt
Ġrem ains
ĠMc C
u ing
Ġreg ion
pp er
Ġprov ided
Ġcost s
ak ers
ĠS oc
ar r
Ġdam age
Ġm ob
Ġd anger
Ġf it
augh t
ĠT H
Ġch ief
Ġpo or
Ġp ath
ĠM or
id a
Ġeduc ation
Ġmult iple
Ġcontin ued
en ge
ĠI nt
Ġgrow ing
N o
Ġdem onst
Ġ *
Ġpart s
Ġ2 6
Ġwrit ing
Ġcom ments
Ġ2 8
Ġm ent
y l
Ġmain tain
Ġsaf e
Ġass ist
Ġthink ing
ĠD es
in ary
ĠRepublic ans
ĠE ven
Ġpur p
Ġrequ est
Ġwr ite
Ġf ix
Ġit em
Ġp urch
ab les
Ġd ied
ĠDemocrat ic
ĠC oun
F L
ar a
ag o
Ġread y
co in
Ġwould n
Ġimp lement
2 3
Ġincre ased
Ġcult ure
Ġeff orts
Ġvot ers
u x
p re
Ġc amer
Ġm ill
al y
op er
Ġread ing
mit ted
im inal
Ġf ile
Ġus ually
Ġcall s
Ġsp ot
I m
Ġeffect s
ĠG ener
z z
Ġper haps
b an
Ġal one
ar ian
il es
ĠF irst
Ġal though
Ġto wards
he st
ĠLe ague
Ġcons ist
ĠB ill
ĠTex as
Ġse lect
Ġgu ys
Ġstand ard
ĠMich ael
Ġsub st
Ġce le
Ġbe yond
Ġdirect ly
Ġpl atform
ĠCh inese
Ġ( @
Ġh ous
us ing
it ute
Ġspe ech
Ġreal ity
e gr
ic ated
Ġk ids
ĠJ ames
Ġav oid
Ġthrough out
Ġfoot ball
Ġstud ent
Ġt ur
Ġcould n
B I
f ord
Ġun f
Ġimmedi ately
ou l
Ġro b
ĠN e
Ġinclud es
Ġc at
Ġcon cept
Ġcent er
Ġcho ice
Ġsc ene
Ġcomple x
an ch
Ġadd itional
s p
ĠM on
Ġchall eng
ĠC ons
Ġw ife
Ġcl os
Ġt ro
Ġrec omm
Ġrese arc
R e
Ġep is
it or
A ll
Ġ ver
ĠMin ister
Ġs le
Ġcor por
ĠâĢ ¦
Ġdesign ed
ĠS er
ag on
Ġrem ember
Ġsoft ware
Ġsaf ety
ĠInd ian
w ise
Ġg one
Ġ il
ast ic
port s
Ġc ast
Ġse ll
Ġto ward
Ġag ency
Ġt en
Ġoffic er
ac hes
b ur
Ġfig ure
Ġpie ce
Ġbr ain
om en
Ġbat tle
ĠJ ack
Ġcoun ter
m en
Ġdeb ate
air s
ress ion
st on
Ġthous ands
ad em
Ġs we
ru pt
Ġa head
Ġop in
ing in
ic ient
N ow
im um
Ġrel ative
ir th
Ġlet ter
Ġrece ive
Ġpress ure
ĠB o
Ġ Ð
Ġbl og
il ies
amp ions
Ġ >
Ġs il
Ġmov ed
Ġla unch
Ġappear s
Ġo ption
ĠPl ay
Ġpass ed
Ġ ut
Ġpre c
Ġst age
ro y
o es
Ġ6 0
Ġcle an
ĠS erv
ol ute
ĠI I
ate ver
ber g
O T
Ġproper ty
2 7
Ġhelp ed
Ġdri ve
ĠApp le
j ust
Ġalleg ed
ĠG reen
Ġtw e
n ew
Ġdis app
Ġt our
Ġmean ing
Ġro ck
Ġdo g
Ġ x
ur t
it ation
Ġcr is
ĠAss oci
Ġsus pect
Ġd ate
ĠR ich
augh ter
Ġmov ing
Ġsc ore
ĠDemocrat s
Ġorgan ization
Ġs at
Ġcond itions
Ġtou ch
Ġd ark
Ġcomm and
ĠThe n
Ġ ign
? "
Ġre asons
Ġbud get
Ġc row
Ġp ark
m ore
Ġn uclear
Ġmy self
Ġn om
Ġde g
Ġhapp y
Ġdev ice
Ġdiffere nce
ri ef
ĠS im
Ġmay be
Ġbegin ning
A D
Ġcop y
Ġn ature
Ġfail ed
w ood
Ġf an
Ġcharac ters
y an
Ġcomput er
Ġenc our
s is
Ġa im
ĠM art
Ġtit le
Ġw all
Ġcomp ared
Ġle ague
ock ed
ĠSu per
e an
iv ity
Ġest im
ad d
ĠV al
ĠSt ar
Ġcol lege
Ġey es
Ġsh own
ĠEng lish
Ġcent ury
Ġpower ful
ĠD ay
le ase
our ce
Ġb al
ain t
Ġlim ited
Ġy es
Ġb and
Ġcont ribut
Ġpos itive
Ġfor ced
Ġnecess ary
ĠC he
Ġref er
Ġcandid ate
Ġst ra
Ġdis p
3 5
ci ent
Ġbook s
Ġtr ust
A P
ĠF rench
Ġlarg est
2 6
Ġar ch
ent y
Ġs al
ĠH ere
a ud
Ġconf erence
ĠR ober
Ġnot e
Ġanal ysis
uf act
Ġsp ending
Ġpresident ial
4 5
ĠO f
Ġcitiz ens
or ks
Ġschool s
ig ration
ĠSyri a
Ġth row
ĠB en
ven ue
Ġa ware
Ġme ant
Ġexecut ive
Ġevent ually
M y
Ġphys ical
Ġfollow ed
Ġfe ature
a res
Ġf irm
Ġtreat ment
ĠT or
ĠW ind
Ġstre ng
Ġm ix
Ġconf ir
Ġb ott
er o
Ġcor rect
or ney
Ġ2 9
ĠD is
Ġgr ad
Ġrelig ious
Ġeas ily
b and
Ġaut om
Ġes c
Ġp us
bo ard
Ġco ol
et ro
Ġ19 6
Ġfam ilies
Ġil leg
ress ed
c raft
c ul
r ated
Ġact ions
Ġover all
ĠA ir
ĠM ex
Ġallow s
Ġg ives
Ġfe ed
ĠÂ £
) :
Ġsus p
ub e
Ġyour self
B y
I s
Ġd raft
k en
b um
Ġsm art
Ġapp eared
r am
Ġdet ail
Ġinc ome
ir ing
Ġanal y
ĠB el
Ġsign ed
N ew
en cies
ĠH am
Ġcent ral
Ġide as
Ġan g
ĠGo vern
Ġsen ior
Ad vertisement
Ġfre qu
Ġweap ons
I D
Ġdis play
Ġh ar
Ġprom ot
Ġn ice
in n
Ġcred it
Ġdec ades
Ġp sych
Ġpolit ics
D on
ĠB re
Ġcr ime
O M
E C
ch an
Ġus es
Ġdo or
Ġdis e
ut y
ĠIntern ational
Ġun ique
2 8
Ġal tern
Ġl if
A ccording
Ġd rop
Ġs ales
m ar
Ġdevelop ed
** *
res h
Ġcustom ers
E T
Ġbenef its
Ġconf lic
ur ance
A r
Ġrel ated
Ġcris is
ĠS chool
Ġm ist
er ry
i able
Ġpred ict
Ġnot ed
ĠC ap
2 9
ĠAustral ia
ĠE U
b ox
Ġtr uth
p art
Ġgo als
in y
Ġindividual s
Ġch arge
ĠE arth
Ġbe aut
Ġcontin ues
on ents
ĠUn ion
ĠAr ab
Ġobs erv
Ġr ap
Ġchall enge
qu e
Ġst o
n own
Ġapp arent
ĠAng el
ite ly
ĠSm ith
B e
Ġl ic
Ġproject s
Ġpe ace
Ġmeas ure
ĠPol ice
ot i
Ġint elligence
ĠChrist ian
Ġprev iously
ĠGerman y
Ġfull y
Ġr ule
Ġman ager
Ġbro ther
Ġr ates
Ġadv ant
ch ange
Ġexp and
Ġcle arly
Ġre form
n et
Ġl ines
Ġsuccess ful
ri age
Ġhigh ly
Ġlarg er
ound s
U n
Ġtr aff
Ġsp read
i ance
Ġseem ed
ĠCoun cil
Ġstra ight
S ome
Ġcr iminal
ĠCom p
Ġmin or
Ġem b
ĠGeor ge
Ġprogram s
ic ed
at tle
ow ers
ĠFr anc
Ġinc ident
Ġres ources
2 1
ĠT om
Ġgreat er
Ġprim ary
I A
in ated
ant ly
Ġknow ledge
P ro
Ġstud ies
wh ile
d om
Ġsa ve
or ter
Ġwe b
ate gy
Ġke pt
Ġatt ract
k i
ĠFl or
ol ic
Ġsp ir
Ġem ot
Ġcol or
Ġfe et
se y
Ġr are
Ġre ached
Ġar m
ĠA nt
sec ut
ĠH igh
lev ision
ĠIntern et
ĠBro wn
od ay
id ers
os h
Ġfavor ite
ĠC r
Ġpl aces
ĠR ec
r s
Ġreg ular
w ide
ot a
ve re
b on
Ġman ufact
Ġla un
ĠD ef
1 00
Ġs end
ter m
Ġpre m
ro ll
lic k
ic it
ing ly
Ġknow s
Ġshoot ing
Ġactiv ity
Ġp un
Ġsour ces
Ġnorm al
ic ago
on ent
s er
Ġstat us
Ġfight ing
v ille
Ġvo ice
Ġr ise
oc ks
Ġf ine
Ġown ers
Ġca used
Ġclaim ed
ĠM ac
Ġen em
Ġlit er
ĠR ob
ĠU p
ĠGener al
a ith
E O
Ġopt ions
Ġ200 7
Ġint egr
eng th
us ion
Ġsp end
ĠG old
ad o
Ġc ities
m iss
Ġorgan iz
IN G
Ġend ed
ww w
Ġresearc hers
il ed
Ġcall ing
Ġsh ut
Ġref lect
ĠL a
or g
m ission
m ark
âĢĿ ,
ol es
7 0
ro id
Ġpr ices
ĠE very
Ġal bum
ĠF rom
if ying
Ġemploy ees
Ġfem ale
ĠEng land
y a
Ġv irt
Ġcrow d
Ġha ven
Ġra ised
mit tee
Ġe le
u ana
Ġj ump
3 3
Ġsupp osed
it ness
Ġhapp ens
Ġadd ing
Ġpolic ies
Ġn ames
Ġcharg es
Ġpro s
Ġtr ou
ic a
rib ution
Ġbas ic
um an
N ot
iver se
ing er
ĠM ag
Ġconcer ns
Ġtrad itional
Ġwa it
Ġpl ant
Ġabs olute
Ġac qu
Ġh ospital
Ġfund ing
ĠB ay
Ġpr int
Ġsl ight
ro l
Ġcom mer
Ġpat ients
Ġauthor ities
Ġmin ister
S c
Ġcreat ing
Ġf reedom
ĠA P
Ġme chan
Ġsc en
ĠM o
Ġst yle
Ġsee ing
Ġgr and
. âĢĻ
Ġbe at
Ġl ik
d d
on a
ri an
Ġst ation
ĠSc ott
se e
Ġp ush
ij uana
Ġbehav ior
Ġle aving
Ġc ry
Ġim pl
Ġb irth
Ġ ir
Ġact ual
E L
p en
Ġens ure
Ġoff ered
Ġagree ment
ĠFlor ida
Ġe th
so ft
ĠHill ary
Ġpost ed
ĠRe g
Ġgo ld
ĠS un
ĠB er
Ġweek end
Ġg reen
ĠM ost
Ġad ult
al se
Ġwe ight
O U
. '
ac ing
Ġdeter min
Ġv ac
H ere
Ġreveal ed
ĠWe ll
Ġapplic ation
Ġmost ly
Ġval ues
Ġprop os
it ude
ĠA lex
ab y
Ġwill ing
ear ch
Ġr ank
Ġad op
ĠA ccording
Ġestab l
Ġey e
Ġrecord s
am b
ect ion
âĢ ¢
5 00
Ġen force
h ttp
Ġpict ure
Ġbelie ved
p ri
Ġm er
u ild
Ġb rief
ĠL et
Ġlear ned
ĠL aw
Ġinst all
Ġstr ategy
Ġapp l
ign ed
Ġcho ose
ist ry
g en
S A
Ġd ire
Ġwond er
Ġqu al
Ġmass ive
Ġdev ices
Ġbenef it
Ġw ild
Ġpart ies
ĠCh icago
Ġlaw y
ĠPe ople
Ġun s
c her
Ġc ars
ĠTr ans
ĠP ort
c ont
ĠPh il
Ġarrest ed
Ġm ount
Ġwh atever
Ġw at
ĠO h
ĠFr ance
Ġstre et
Ġ ;
Ġprov ides
Ġwh om
Ġass ault
9 0
li ament
Ġask ing
Ġinflu ence
t ies
Ġjud ge
Ġl ose
Ġf at
Ġfeel ing
Ġoper ations
Ġprodu ced
Ġtem per
st e
Ġcrit ical
ĠL ou
ĠSec ret
Ġneg oti
p oint
Ġm ission
Ġent er
ĠB ush
E x
Ġim ages
Ð ¾
ĠSt ud
Ġconfir med
Ġshow ing
I L
Ġdist rict
ri ption
Ġrun s
Ġpat tern
Ġt end
ĠM at
== =
Ġb order
Ġres idents
or ial
ra v
Ġdeb t
How ever
Ġ Ã
ak ed
Ġc ru
Ġte ac
ĠCom mittee
m ine
C l
Ġopp osition
Ġcele br
ĠW all
ĠHe alth
Ġse ction
Ġdef end
Ġet c
est ic
Ġprodu ce
ic ial
ĠComm ission
Ġdr ink
Ġindepend ent
ĠM od
r ont
ce ll
ĠWh y
Ġbr and
ent ed
u gg
ag s
Ġc ore
ĠP ress
Ġt ick
Ġdig ital
ĠB it
Ġhe ro
Ġadv oc
Ġdoll ars
a e
ĠS am
oc r
ri al
Ġeffect ive
Ġsol ution
ĠM al
Ġv ill
Ġinterest ed
ĠKore a
Ġhig hest
B A
ir g
ord s
Ġmem ory
Ġopen ing
Ġwor se
Ġlear ning
Ġrespons ible
Ġtri al
Ġd aily
Ġk ick
Ġthe ory
ĠO ther
Ġoff ers
ĠPal est
m e
Ġrepl ace
Ġrest rict
Ġm ur
ĠG et
ĠOff ice
Ġag reed
Ġte levision
ĠFranc is
ci ence
ĠM icro
ĠB ecause
Ġocc as
S T
ill ing
C C
Ġtr ain
Ġinvest ment
Ġv s
Ġtyp es
i ation
ĠW estern
ic ians
Ġch air
ak s
Ġmil es
Ġmill ions
n o
g ency
Ġche m
ĠJust ice
ĠD el
Ġgener ally
Ġbas is
Ġprop osed
Ġ8 0
ĠM ike
ĠM il
ĠC up
The se
i pe
Ġhe avy
Ġexpl ained
ĠO ur
Ġm ap
ur ies
A A
r ad
Ġd er
o ly
Ġpart ners
and er
Ġopin ion
Ġdef e
Ġon to
Ġprot est
C on
G et
Ġassoci ated
Ġl oad
r ig
az ing
ĠN FL
r ate
o om
4 4
w in
ĠF ound
Ġm ale
Ġbecom es
Ġre ject
out hern
= ==
ĠSec urity
v est
Ġco al
Ġob tain
Ġdest roy
Ġadvant age
Ġass um
ĠL iber
Ġcond ition
Ġannoun ce
Ġhundred s
Ġachie ve
Ġopen ed
el ine
Ġunderstand ing
od es
ĠJohn son
com ing
ic ip
Ġsur round
ad ing
ber t
ort hern
we ll
u pp
Ġinit ial
ĠA tt
ĠB ig
Ġsle ep
3 6
Ġsh ip
Ġmar riage
Ġman agement
ĠWind ows
Ġth us
Ġlim it
Ġb orn
Ġbecom ing
k nown
Ġph oto
Ġeas ier
F C
ĠG reat
Ġr at
Ġlegisl ation
Ġcontro vers
Ġun like
Ġelect ric
ĠM any
3 2
Ġcamer a
ĠM ad
wit ch
Ġacc used
Ġs pl
Ġneigh bor
Ġdou ble
Ġ ice
Ġspec ies
Ġsh ared
l ant
Ġjo in
Ġilleg al
Ġ3 1
ĠL ab
Ġ200 6
M r
Ġh arm
Ġmach ine
Ġserv ed
ĠJ er
G B
Ġextreme ly
ol f
Ġact ive
Ġ3 5
Ġser ve
Ġdoc uments
ĠIslam ic
Ġfr ame
Ġstri k
le vel
z a
ĠD ist
Ġaud ience
B S
Ġloc ation
ĠA M
Ġscient ists
Ġbott om
or row
Ġvictim s
ĠAr t
Ġwe alth
Ġprofess ional
Ġres ist
Ġredu ce
Ġbelie f
Ġn ine
Ġsol id
Ġwin ning
Ġmar ijuana
ear s
ĠU k
Ġneg ative
7 5
if ul
i h
Ġcommun ities
Ġreturn ed
ortun ately
Ġinc red
ĠP M
ĠInst itute
m et
te red
Ġch urch
P S
Ġdep artment
ĠSand ers
Ġr an
Ġvict ory
re y
Ġpurp ose
Ġ9 0
ĠComm un
Ġam b
land s
Ġveh icle
Ġintern et
Ġleaders hip
ĠH all
ist ics
Ġb omb
i os
Ġmob ile
gh an
Ġinst ance
i pped
3 8
Ġsepar ate
Ġexist ing
Ġnot ice
Ġhe aring
Ġd ie
Ġexpl ain
Ġdoub t
Ġf aith
Ġte ach
h ouse
ĠY our
at ically
Ġepis ode
Ġb ed
Ġwatch ing
Ġcom fort
ĠCanad ian
ĠB ank
Ġnot es
Ġrad io
irg in
ĠE v
Ġf resh
Ġun c
Ġview s
ĠIn c
Ġput ting
as y
ĠS l
ĠF in
Ġsupp orters
Ġconserv ative
Ġp urs
Ġarg ument
om as
Ġm icro
ar io
ac ity
Ġlaun ched
sc rib
w orks
O L
Ġapp eal
ili ar
Ġitem s
Ġcommit tee
res p
wh ich
Ġdefin itely
ad a
Ġdanger ous
ill er
z en
Ġco verage
Ġdire ction
ĠO ver
Ġcharg ed
Ġfl oor
Ġs un
P A
Ġm ax
ograph y
3 4
E M
ĠCar ol
ĠCh urch
ĠF ox
Ġiss ued
Ġdrug s
Im age
Ġt ask
i pp
Ġback ground
Ġcompet ition
Ġtre nd
Ġst ated
v ention
and om
Ġtraff ic
ĠF BI
Ġcommer cial
ĠD irect
it t
Ġsp oke
Ġset t
in ct
Ġtrans fer
Ġsuggest ed
Ġst ructure
Ġsit es
Ġh us
Ġn orth
ĠS ince
ĠL ike
Ġrest aur
ampions hip
Ġlab or
Ġdec ade
ĠB ur
Ġrepe ated
ĠG ame
Ġre act
om an
Ġc ards
Ġanim als
go ing
Ġno vel
ct ors
b ing
b ut
N A
rib ute
Ġd aughter
ant ed
Ġdri ving
Ġcl osed
Ġwor st
Ġcont ain
Ġentire ly
Ġd ed
ĠBrit ain
ic i
B l
ad y
Ġdri ver
ĠW il
Ġdise ase
Ġtell ing
il ing
Ġsmall er
Ġdisc overed
Ġn or
ak istan
Ġref ere
ĠP ri
A meric
ĠL os
Ġh ack
e qu
! âĢĿ
f erence
ĠQ ue
s pe
Ġf alse
Ġc ash
Ġconcer ned
ul f
Ġpl ays
Ġsur face
se mb
ud d
Ġsupport ed
ann el
ul ated
Ġtool s
oy al
Ġcomp ar
Ġtrans port
ĠCh ris
Ġexper iment
Ġfind ing
n ight
Ġc ateg
ã Ĥ
a it
Ġas pect
# #
Ġbusiness es
Ġ7 0
ĠU N
Ġfar m
Ġple ase
Ġold er
az on
h ow
Ġactiv ities
Ġrequ ires
ph one
C H
Ġg ay
ĠJ ones
ibr ary
Ġstreng th
4 8
Ġwe l
d o
and on
Ġins urance
Ġcon sequ
3 7
Ġlarge ly
Ġmur der
N N
5 5
Ġex erc
Ġc aught
Ġcandid ates
k ins
ĠIsrael i
Ġallow ing
ic y
Ġbl ue
ĠA re
Ġann ual
ĠK en
Ġtest ing
i us
oss ible
Ġstr ateg
ĠS up
Ġra ise
Ġst ock
ar ant
o very
ĠRober t
iz es
g ers
Ġdec isions
Ġacc ur
r ick
Ġcont ext
Ġf uel
ĠA c
S P
os ure
l or
ĠUk rain
Ġconcer n
Ġaff ord
Ġbelie ves
Ġconst ruction
Ġtr uly
* **
ĠT y
ĠM iss
Ġg e
Ġjust ice
igr ants
Ġgener ation
Ġhigh light
r im
ĠT re
Ġun it
Ġpres ence
ĠJew ish
ang ing
! !
ĠS il
Ð °
ter y
Ð µ
cept ion
ĠAfric a
Ġgu ess
an cy
Ġw itness
it able
Ġhold ing
e y
ĠG ree
Ġestab lish
Ġl ength
Ġplan ning
b re
av a
ĠAfric an
Ġse qu
ck now
Ġref uge
Ġpl aced
Ġc atch
ĠAf ghan
Ġs an
ĠAssoci ation
Ġtell s
âĢ ĺ
in ter
Ġsc ale
Ġspokes man
Ġt im
n el
Ġr ough
Ġatt end
oll y
ĠV er
Ġcell s
Ġjo ined
ĠAd d
Ġmention ed
Ġinterest s
Ġab use
âĢĶ âĢ
pect ive
ĠJ im
ĠP re
M ore
Ġhas n
ĠP C
L e
Ġinit i
Ġk id
Ġenforce ment
ĠG OP
Ġintrodu ced
Ġdeli ver
Ġconflic t
ĠM er
ĠMicro soft
Ķ âĢĶ
Ġph il
Ġupd ate
Ġmiss ing
Ġprov iding
Ġwa iting
Ġcan cer
l a
3 9
Ġrecomm end
ocr acy
Ġestabl ished
b our
is ation
Ġe at
ĠY es
Ġocc up
ĠFr ank
ĠJ eff
ĠAngel es
Ġrem oved
Ġ200 5
ul a
Ġoff ensive
ĠF ore
ĠInst ead
ic on
Ġinj ury
Ġsp orts
4 7
Ġf ant
Ġdiscuss ion
v ant
Ġoper ation
Ġdown load
Ġuse ful
Ġnews p
Ġconvers ation
Ġhom es
ron ic
Ġs outh
Ġc ook
ĠC EO
Ġass ess
it z
ĠG roup
form ation
l ig
Ġban ks
ont o
Ġsto pped
ĠSt ep
ĠCon st
Ġobv ious
ic ations
Ġmeas ures
Ġmod els
ĠK h
Ġfour th
ĠM P
O ur
se ason
wh at
Ġb ul
D A
Ġ201 8
and a
Ġfil es
Ġgirl s
ĠLou is
Ġst ick
c ks
az ine
m ail
um n
Ġman aged
it er
app ed
ot ed
Ġfig ures
om s
ĠT im
ĠLe g
Ġident ified
Ġgr aph
0 00
ĠJ ud
ĠS al
Ġfin ished
P l
Ġfund s
ĠP akistan
re al
Ġset ting
Ġconc lud
Ġpre fer
Ġha ir
Ġcommit ted
ĠMex ico
4 9
Ġsk ills
Ġappro pri
Ġspir it
ĠR ock
Ġve ter
Ġfoc used
Ġarri ved
ĠTH E
Ġhous ing
Ġkeep ing
Ġthere fore
ro s
Ġa cknow
Ġdet ect
ul ate
D es
Ġpart ner
Ġex clus
ig an
ĠAnd roid
ens es
r d
up s
Ġear th
Ġtrans l
pl ace
Ġt ough
k in
out s
ĠJapan ese
Ġ2 000
Ġrelative ly
Ã ¡
ĠSup reme
ow l
w ing
Ġident ity
Ġfeel s
g l
ĠM et
Ġother wise
Ġsurve y
ĠR yan
oc al
R A
ic ation
itution al
Ġprotect ion
Ġex change
Ġown er
ĠV irgin
is f
Tr ump
Ġtri p
Ġstep s
Ġhus band
ĠIn ter
ag n
ĠM ont
Ġtwe et
Ġconnect ion
ĠAr my
Ġslight ly
ĠPro f
e ah
ĠS ur
Ġwe ak
ĠGovern ment
ver se
" :
Ġcirc um
Ġele ments
Ġcl ick
ĠRich ard
Ġstri ke
Ġphot os
Ġme re
Ġdef ensive
d den
Ġg ain
Ġf le
Ġdep end
uck y
Ġcol lection
g ar
ony m
Ġkill ing
Ġro ll
igh ter
hen s
G o
Ġcor ner
k a
anc ing
od ies
Ġsuggest s
u ct
Ġag gress
w ith
pro f
Ġgu ard
Ph oto
Ġg ender
m akers
ĠCol lege
Ġcomm ission
ĠAl though
r ange
Ġd at
4 6
ĠI r
ĠD ec
Ġment al
ic ide
re es
Ġam azing
ĠS ub
h i
Ġplan et
ĠTe am
ren cy
ĠO ut
Ġbig ger
y m
Ġfail ure
ĠJ ose
Ġsupp ly
Wh y
an ia
ĠN or
Ġstart s
Ġs ides
hed ul
is er
Ġfam iliar
Ġrem ind
Ġsu st
Ġspe ct
il s
u ate
Ġspe aking
an o
Ġtal ks
Ġhappen ing
gy pt
Ġorganiz ations
Ġh ate
Ġwind ow
Ġar my
ĠG ood
ĠJ oe
Ġn one
u ke
Ġtax es
Ġplan ned
ĠMart in
ĠP et
Ġthan ks
ĠM ary
Ġst ruct
Ġp it
Ġdec ide
Ġsu dden
Ġw ish
Ġcre w
Ġcar ried
Ġapp oint
ost on
Ġp et
m as
a wn
el ess
ag ues
yn am
Ġreg ist
T C
Ġmult i
id ering
Ġhelp ing
L ast
Ġa ward
Ġstand ards
Ġ3 2
ĠF ire
Ġrev olution
Ġenvironment al
] .
ĠWe b
ars h
ĠTh omas
ol it
Ġsc ript
p m
ol a
Ġsecond s
r un
ĠRes earch
g n
Ġscient ific
Ġimm igration
ĠB ern
Ġstand ing
ĠThe ir
Ġ4 5
st ream
oc ol
Ġqu e
Ġbe er
Ġdom estic
im al
ad ium
Ġp air
ut ers
ĠAl so
ĠSecret ary
ĠU s
Ġac adem
Ġco ld
Ġvar iety
Ġmark ets
a ven
Ġs ch
H L
Ġter rit
Ġdro pped
f e
Ġaccount s
! "
ĠAt lant
Ġfil ed
er ous
ack s
ill a
Ġbal ance
l o
Ġimp ossible
ĠT er
Ġinter act
Ġneighbor hood
Ġdeg ree
R ead
Ġturn s
it ect
Ġposs ibly
Ġapp re
Ġoper ating
Ġpr inc
Ġaltern ative
Ġun ion
Ġvot es
Ġv ul
ad er
Ġprofess or
Ġt ack
ĠServ ice
Ġincreasing ly
ay er
ru it
Ġapp ly
Ġfell ow
Ġcut s
ore s
Ġhon est
ĠPr ime
Ġun ivers
Ġser ver
Ġdevelop ers
ar ks
ĠSyri an
Ġapparent ly
v is
ste in
Ġl ived
Ġchang ing
Ġwor ry
rast ructure
ĠCarol ina
Ġtest s
Ġun its
Ġr ich
ĠT wo
are n
c ious
ict ed
F rom
ad ed
Ġhum ans
I M
ĠFound ation
ĠM os
Ġag encies
Ġsound s
as hed
Ġtw ice
Ġult imately
ob by
Ġl osing
Ġphil os
Ġauthor ity
Ġsold iers
ã ĥ
Ġanim al
ĠIm ages
Ġset tle
Ġat h
Ġsc hedul
Ġm ut
Ġcol le
Ġcorpor ate
Ġabsolute ly
Ġhealth y
Ġpay ing
o ch
Ġequ ip
i ams
g u
Ġdevelop ing
Ġse a
ĠT ime
ĠD en
Ġclos er
Ġinn ov
rel ated
Ġseek ing
Ġregard ing
c oh
Ġsk in
Ġexp ensive
ans ion
Ġposs ibility
Ġbeaut iful
Ġrelig ion
Ġap art
ĠCent ral
Ġfund ament
Ġexper ts
Ġsol ar
6 5
Ġy ards
Ġv ast
Ġwrit er
Ġfl ight
ĠDist rict
ĠL ast
Ġde ploy
Ġad just
O f
Ġintern al
Ġt ast
ĠU nder
ĠL at
ĠP eter
ap ers
Ġimag ine
ĠJ on
I V
Ġapplic ations
olog ies
3 1
Ġv ision
l ook
st ate
os en
ĠFrancis co
i ot
ĠTor onto
Ġsit ting
ĠPl an
Ġtr ail
Ġun less
ĠUS A
ĠJ es
ist ed
Ġhe at
Ġ200 4
I P
E ven
Ġrespons ibility
Ġcap acity
at ures
ĠM iddle
Ġer ror
ain e
Ġsy mb
Ġf ol
p ire
Ġar ms
Ġp il
Ġg ar
Ġc overed
idd en
i as
Ġfam ous
ĠC amp
Ġfor ms
u zz
N D
Ġun iversity
Ġgu arant
Ġt ight
Ġpresent ed
ort ion
ov ing
en ced
ĠS T
Ġcl im
ĠE gypt
Ġear n
ĠP ut
Ġconv ention
u nder
J ust
ĠP ublic
Ġsurpr ise
Ġatt orney
Ġelect ions
Ġestim ated
Ġf if
ĠM ur
ĠA ri
Ġte en
Ġinst it
Ġveh icles
rib le
ĠAm azon
ro ad
Ġint ended
Ġr id
Ġo dd
Ġhelp s
Ġoccur red
p erson
al a
Ġstre ets
ust er
h and
ĠB oston
ĠS ol
Ġ= >
rou d
Ġsp ort
= "
s en
Ġdeter mine
ress ive
ĠBit coin
Ġexper t
Ġsc hem
all s
Ġcons ult
ur ation
Ġbro ken
L et
le ts
Ġf ired
Ġt on
Ġfl ow
Ġdom in
por ary
ed er
L E
Ġsh all
Ġres erv
U p
Ġtro ops
I ON
ĠTh ose
Ġhy p
Ġn ar
ter day
Ġpie ces
ĠCh ief
Ġprep ared
ĠM ass
ĠC ath
Ġrap id
or age
ĠJ o
Ġloc ated
ĠSoc ial
Ġb aby
Ġcon clus
Ġbring ing
anc he
ĠPro t
Ġpro ve
Ġspecific ally
ĠAn y
Ġpot entially
Ġse ctor
Ġr andom
Ġj ail
O W
Ġse lling
Ġgovern ments
ĠO nce
Ġequ al
A b
cl ass
w ar
Ġf aster
Ġhe av
ĠS pr
Ġbo ost
use um
ve y
Ġpropos al
ot y
Ġfact ors
Ġcl in
ĠG al
Ġpl enty
T H
Ġequip ment
Ġcoun cil
Ġer a
Ġinf rastructure
D o
Ġst ress
ph as
Ġst ars
ĠJ ournal
ĠR ub
end ment
ĠVirgin ia
Ġb reat
Ġpro secut
Ġvot ed
Ġoff ering
Ġcar bon
in ent
Ġexpress ed
Ġvul ner
Ġcomb at
Ġbro ke
( )
ure au
Ġcl ot
ĠC ur
our s
ĠF ederal
Ġrul ing
Ġret ail
ĠGu ard
Ġref used
Ġdr am
Ġelect ed
an ish
ĠO pen
ĠR iver
E very
Ġsec ure
ce an
Ġse asons
Ġconduct ed
, '
ĠPar is
h t
Ġchalleng es
Ġrem ove
is her
ĠS ant
ro g
Ġmethod s
Ġweap on
n oon
Ġpoint ed
ĠIs land
Ġm aster
Ġrem ained
ĠAustral ian
Ġpr ime
EN T
Ġtr ig
Ġpos itions
ĠC ru
Ġd in
ĠM el
Ġcritic ism
i pping
F irst
ock ing
ĠMed ic
ĠP lease
on om
I G
Ġs ale
ol ved
ĠF e
Ġcult ural
th at
Ġwere n
Ġsignificant ly
Ġb row
et ic
Ġorig inally
ri e
ĠD uring
Ġaffect ed
Ġappear ance
Ġc as
Ġt ourn
Ġfac ing
Ġgreat est
Ġfin ish
ĠLe e
Ġst ret
Ġyou th
y r
Ġte le
ĠWh o
Ġpercent age
ĠPh oto
c ol
Ġdetermin ed
Ġsign s
Ġinvol ve
9 5
ce l
Ð ¸
Ġthan k
Ġb ought
Ġ5 00
ly n
stand ing
Ġchem ical
ash ion
6 4
Ġsh ape
ĠS ing
Ġreg ime
Ġg rew
p ired
Ġrem aining
ĠSte ve
ly mp
Ġmin imum
ĠS aud
re ens
Ġind eed
Ġd ream
ri er
S ince
Ġm arg
S p
ĠB oth
> >
Ġmod e
Ġher self
Ġvot ing
ĠCol or
Ġobv iously
ĠFor ce
ĠR o
Ġredu ced
ĠN ov
Ġw ood
ĠR em
ord in
Ġrecord ed
Ġarg ued
Ġ199 0
Ġre venue
Ġt act
Ġwe aring
al ing
igh ters
Ġlead s
ed ia
Ġh un
Ġpolit icians
Ġpl us
Ġcont rast
Ġs witch
Ġhand le
Ġpurch ase
Ġth r
Ġsub s
Ġcon cent
Ġpro ced
Ñ Ĥ
Ġag ent
h ab
ar p
m m
ĠWill iams
Ġappre ci
Ġexperien ced
Ġh urt
t op
Ġexc ited
Ġvide os
Ġhttp s
coh ol
Ġsupport ing
D P
ĠH aw
ow nt
Ġv ir
ĠF ree
Ġsurpr ising
Ġmin ute
Ġexpl os
Ġbel ong
Ġconsum ers
Ġident ify
Ġcons idering
ĠP ac
ĠCons erv
ll er
ap ter
Ġair craft
Ġre nt
Ġa id
C L
Ġpull ed
g ment
Ġbas ically
Ġdiffere nces
og ue
ĠB ook
Ġgl ass
ĠR ad
Ġafter noon
Ġsh ift
Ġdis s
Ġdep art
Ġend s
ess ions
Ġtur ning
Ġb ound
Ġfil ms
Ġsp ring
Ġpros pect
ru ption
k et
ĠChar l
Ġm ort
l ife
Ġtre ated
Ġacc ident
, [
Ġmot iv
Ġlist en
Ġse at
ĠP ower
Ġcomb ined
Ġconst ruct
I nd
Ġser iously
Ġpriv acy
app ing
Ġeven ing
he red
h y
Ġopportun ities
as p
Ġstrugg le
Ġ19 5
Ġpan el
Ġenem y
Ġlot s
Ġcomple ted
ĠD aily
Ġvis ual
H is
Ph one
p et
Ġtalk ed
Ġc art
Ġhop es
ut s
Ġpass ing
or al
Ġ id
Ġapp s
os ite
0 5
g ent
P D
Ġcal cul
An other
Ġwide ly
ens ions
Ġemer gency
ĠH ol
am m
ĠSh ow
Ġsu it
Ġe lement
Ġa st
ang ed
S S
uc ks
al ed
Ġp owers
at o
ĠR el
ĠB BC
ĠO lymp
Ġb urn
T V
Ġdisc l
P e
Ġpl ants
Ġfl at
ĠSp ace
Ġliber al
ra ud
ob e
Ġopp osed
Ġs ad
W ell
Ġpro ceed
om pl
Ġcopy right
ĠPro ject
ok ing
Ġadv ance
Ġfact or
Ġdist ance
Ġ200 3
ive red
Ġdis miss
pl om
Ġattempt s
Ġt un
ĠM att
A m
ĠR oad
ab ilities
st s
ĠI N
ribut ed
Ġtrou ble
un ction
Ġh ol
Ġcoll abor
Ġdef ault
id el
ĠB et
Ġz one
ĠJack son
Ġup gr
it a
ra wn
C ont
Ġre action
Ġst orm
Ġrep orters
ĠM em
Ġfr ust
P R
ne ll
Ġwrit es
ad ow
m osp
m ond
ain ts
Ġtyp ically
ĠT oday
l ines
resp ond
U T
Ġp ages
Ġinst ruct
in ian
tern al
ed s
Ġref erence
Ġgr ab
z er
Ġpack age
Ġb odies
Ġmat ters
f ree
0 1
Ġden ied
c are
A pp
Ġqu ant
Ġdisapp oint
Ġse m
Ġexpl o
ĠN AS
Ġopt im
ac he
Ġqu iet
Ġent ertain
Ġrespond ed
Ġappro ved
ĠTur key
Ġsat isf
ap ed
Ġbroad cast
es ters
Ġinstit utions
Ġad vert
4 2
Ġstand s
ĠDirect or
Ġset s
est ival
Ġel imin
raz y
g a
Ã ¤
R ep
h ost
Ġval id
Ġre new
ĠOh io
ell y
Ġspl it
Ġse vere
ĠWill iam
Ġs ac
Ġcap able
ĠP enn
Ġ200 1
Ġ //
Ġp itch
ani el
Ġcapt ion
Ġl oved
Ġtechn ical
Ġg iant
p ass
Ġtrad ition
is ters
Ġcan n
r ant
Ġprom pt
Ġb ull
Ġconf ident
u ous
Ġconf idence
r um
ab in
Ġnum erous
Ġreported ly
ĠM a
Ġfac es
] ,
w rit
Ġwe ather
Ġf ly
r id
Ġtrans ition
Ġ3 6
ĠSy stem
ĠAfghan istan
ĠS qu
Ġcre ation
D e
Ġpers pective
Ġun able
Ġfor get
ĠLab our
ĠY et
as tern
em ploy
ok en
ĠMed ia
ang ers
I I
un te
Ġc raft
Ġsubst ant
Ġco oper
Ġviol ent
Ġsuff ered
il it
Ġco ast
Ġm and
amp ion
4 3
Ġpict ures
Ġexperien ces
Ġappro x
ab led
Ġrout e
8 8
se x
Ġfl ag
Ġadv ice
ĠAnd rew
us iness
Ġdecl ared
Ġord ered
ĠH uman
raz il
Ġcr imes
Ġco ff
S e
Ġp roud
is hes
Ġreport ing
Ġmess ages
Ġcircum st
Ġfind ings
R es
ul ations
Ġev al
Ġex cell
O ver
Ġdecl ined
Ġexpl ains
ĠL in
ĠW al
Ġdel ay
Ġ \
ĠF ollow
Ġnewsp aper
ound ed
Ġconnect ed
il ty
Ġshould n
Ġm al
ev in
ov es
Ġon going
c an
Ġcl oud
du le
Ġmov ies
Ġpick ed
ion ally
res ents
7 7
Ġad mitted
Ġg ra
Ġdel ivered
D uring
Ġgun s
ĠM L
ĠSc ot
Ġwalk ing
Ġag ents
c alled
t ion
Ġpr in
Ġedit or
Ġthough ts
Ġmar ried
ĠT ra
Ġa uth
Ġem ails
Ġappropri ate
ed d
Ġem phas
ĠR od
u ations
Ġed ge
Ġarch itect
ĠGr and
Ġle aves
Ġupd ates
Ġacc ompl
O D
Ġg ather
Ġfor g
ĠMuslim s
ans as
ĠW ood
Ġquarter back
Ġs ession
o oth
Ġpo ol
ĠTe chn
ĠS cience
c os
Ġinj ured
Ġpublic ly
ell ow
ĠS ov
Ġstate ments
ar n
Ġper man
ar l
Ġleg it
Ġconf irm
ner gy
ĠL ake
Ġour selves
O ther
Ġreal ize
Ġro t
Ġdri vers
M A
ĠA v
ĠD ou
m ates
, âĢĻ
Ġar med
ess or
Ġd ial
c ons
T A
Ġlawy er
our ney
Ġr ail
Ġread ers
re land
Ġcont ains
Ġarg ue
ĠRe v
Ġtal ent
Ġf illed
ĠS um
Ġalleg ations
Ġactiv ists
ĠChrist mas
Ġd ynam
Ġ198 0
ĠMich igan
d ate
ĠB ack
ĠR on
Ġcr ack
Ġtrans form
T ube
ĠRe ad
ĠI ll
Ġbuild ings
l ong
Ġwe ar
M any
Ġs am
Ġterror ist
Ġt ree
Ġexerc ise
end a
Ġlab el
Ġeffect ively
O h
Ġpract ices
Ġg od
Ġsub sequ
ĠJ ul
ĠS her
Ġfl o
ul s
Ġf ish
T S
et te
ent ure
Ġsh op
Ġexam ples
4 1
ĠH y
Ġpat ient
ĠG en
ĠSe attle
Ġobject s
Ġte ch
ĠSe e
Ġsecret ary
g ia
as ure
Ġr ain
ur ning
Ġmiss ed
Ġca uses
ill y
Ġdeb ut
Ġess entially
6 6
Ġmor al
ord ers
ad or
w ord
ac ter
ĠW ork
d ef
ar ters
ĠUkrain e
Ġcent re
am in
he dule
F ollow
ĠV ict
ĠI D
Ġinj uries
ic ing
ĠPh ot
ĠSt an
Ġmot or
Ġi Phone
Ġart ist
Ġcl ient
Ġb ond
Ġth inks
i at
az a
or se
ou ston
Ġp ure
Ġhe ll
Al though
ĠSaud i
Ġfact s
Ĥ ¬
Ġdes ire
ag ers
Ġs ke
or ry
Ġlink ed
Ã Ń
Ġgovern or
Ġmaterial s
Ġperform ed
S pe
Ġfr anch
es ome
n an
Ġsu c
Ġphilos oph
Ġinit ially
ĠS ign
Ġnecess arily
ĠK im
ĠB at
ĠF er
Ġexp ansion
Ġschedul ed
w ater
ER S
Ġwar ned
i est
Ġdi plom
Ġadv anced
Ġexpl an
Ġ ing
Ġvar i
Ġevery body
Ġj oint
Ġdec re
Ġres olution
Ġincre ases
en ger
Y es
Ġaccept ed
Ġinc or
Ġmy ster
Ġfac ed
Ġv an
Ġb are
ill ance
ĠM ount
Ġannounce ment
Ġfollow s
Ġn ations
Ġplay off
ĠL ife
Ġab andon
ĠSec ond
ĠI d
Ġrad ical
Ġath let
Ġne ither
Ġyes terday
Ġdat ab
Ġnear by
Ġdist ribution
ot ic
Ġappl ied
ir ty
Ġmag azine
M ost
ath an
r ich
Ġm ir
Ġconsequ ences
Ġdo ctor
u y
Ġlist ed
Ġfor t
ĠCol umb
Ġat mosp
Americ an
Ġsurpr ised
Ġoff ense
Q u
it ors
ĠC NN
ĠR E
Ġsp ons
Ġbeg ins
ĠWe ek
Ġthreat s
semb ly
Ġrep resents
ĠJew s
ĠG M
ĠA ff
Ġen h
Ġmov es
Ġrem ark
ĠT O
Ġsong s
Ġp ra
k ay
Ġch art
Ġbehav i
ĠD an
Ġr ide
Ġadd s
Ġwith d
C an
Ã Ĥ
Ġimpro ved
Ġp hen
ĠBl ue
Ġb ot
Ġwar m
Ġa f
Ġal cohol
ri p
ĠA T
Ġout put
l aw
Ġfl ood
ĠDe velop
ĠH en
w hel
ed y
Ġsh ots
Ġf ill
ĠV ol
Ġal t
Ġst ood
Ġbr ings
Ġpus hed
Ġgu ilty
ĠRom ney
Ġsub scrib
8 5
Ġent ry
ocrat ic
ĠB razil
Ġdem ocracy
Ġboy s
bur g
Ġ3 3
Ġro w
Ġconf ig
Ġrestaur ant
ĠN BA
Ġlaws uit
ĠDe v
ĠI reland
ac le
Ġmanufact ure
Ġrece iving
Ġre in
ĠBar ack
The n
Ġt rib
Ġtot ally
ĠOn ly
Ġdiscuss ed
Ġs ought
Ġr ising
Ġent ered
ĠIS IS
ĠBo ard
Ġ3 00
Ġconsist ent
Ġhistor ical
t witter
ide o
Ġst orage
Ġcor respond
Ġplan e
Ġcomb ination
Ġsc ored
Ġin put
Ġsymb ol
Ġbr ight
Ġbut ton
ird s
Ġsuc ceed
st ood
Ġcreat ive
Ġinvest ors
Ġsqu are
Ġart icles
Ġ200 2
Ġis land
Ġdeath s
Ġsc r
Ġfun ctions
Ġnet works
Ġclass es
Ġunlike ly
al ty
ĠP rem
Ġhead s
Ġb oss
ic ian
Ġn ative
ic ious
Ġl ie
Ġsa v
ĠL ib
Ġrough ly
Ġconsum er
ĠSt r
ĠW he
ĠW alk
f ortunately
ĠM s
Ġstr ing
ĠMay be
Ġheav ily
ĠAn other
Ġfair ly
Ġtemper ature
ard en
Ġk it
Ġexist ence
ĠIt s
ĠAs ia
Ġcont est
Ġpl ot
iss ions
ĠC ub
Ġres ident
us al
Ġtarg ets
ĠB ob
Ġres c
ĠKore an
ic an
du c
Ġl ock
Ġyoung er
Ġcolle agues
' ,
ĠSw ed
P U
ab b
Ġl ibrary
Ã ¶
Ġr ally
Ġpar liament
Ġprot ests
Ġany where
ok ed
ĠS ports
ĠS ky
Ġb ike
z ona
Ġbre aking
Ġsy m
Ġstore s
Ġexpress ion
Ġwas te
Ġch ain
Ġbl ow
Ġwar ning
Ġimport ance
Ġdef ined
Ġbu ying
Ġman age
Ġpro hib
i i
Ġclass ic
Ġc ere
Ġs now
Ġadult s
Ġill ust
ĠE ach
S ee
O b
Ġmarket ing
Ġl inks
Ã ³
b orn
Ġsh if
iqu es
and al
ĠCl ub
Ġto w
ĠH ist
Ġf raud
O C
d is
Ġfac ility
olly wood
ere nces
Ġhard ware
Ġsch ol
Ġalleged ly
Ġ3 7
Ġregul ations
p ret
Ġdo ctors
Ġb on
ĠColor ado
Ġcur rency
Ġhouse hold
Ġrepl aced
Ġess ential
ĠR am
ag an
M an
Ġem pt
op y
on na
Ġsome what
ĠD iv
p ress
8 6
Ġn av
p ower
Ġfav our
Ġprom ise
ĠD C
ĠB oy
Ġl augh
P ol
ĠR ights
en a
Ġhold s
Ġopp osite
ock et
Ġto m
Ñ ģ
Ġmom ents
w est
Ġh at
ter ing
Ġopp onent
Ġbu g
ĠF ar
ch o
Ġcamp us
Ġact s
Ġr um
etro it
Ġvers ions
Ġmot ion
Ġmet al
hip s
Ġev olution
omet imes
Ġv ice
Ġrele vant
Ġse es
ĠIm age
Ġb ag
Ġindust rial
Ġz ero
I R
Ġs ick
Ġd ownt
om a
Ġclose ly
het ic
Ġemot ional
c hen
g ame
I F
ĠYou Tube
ĠY ear
Ġfew er
Ġdiv ision
ol ve
Ġad m
v a
Ġhard er
Ġcustom er
Ġhop ing
olog ist
ĠBro ok
Don ald
ĠVal ley
E n
Ġh ur
Ġmechan ism
it tle
in em
ĠG ra
ĠH ouston
m l
ĠE lect
Ġreturn s
N C
ate ll
Ġvol unte
Ġparticip ants
Ġext ent
Ġint ention
es c
al ian
el lect
Ġexcell ent
ĠSov iet
Ġacknow led
Ġsy n
ul ous
om ing
ĠM ot
Ġbat t
ĠG ames
Ġsqu ad
Ġcircumst ances
p an
Ġf ashion
Ġis ol
Ã ¼
ot al
g reg
Ġimmedi ate
ĠE ric
Ġsuff ering
ĠW atch
st r
Ġl ies
Ġt iny
Ġauth ors
Ġ3 8
Ġg rown
ig er
ĠG ar
or a
p o
ef ully
Ġimm igrants
Ã ĥ
pr int
Ġkind s
ut ch
Ġ4 9
ĠD ie
Ġche ap
Ġm ine
Ġdetail ed
ĠH el
ord an
n ame
Ġfeat ured
ik i
ay ers
Ġme at
ĠS ar
Ġun us
ĠA ut
ĠI P
Ġcompet itive
Ġdescrib e
Ġfor med
ĠH ome
n ic
f riend
cer tain
Ġcarry ing
Ġtourn ament
Ġtr ick
n am
Ġrelationship s
Ġfundament al
ke l
Ġw ave
Ġcy cle
Ġc razy
ĠC y
Ġsign ing
ĠW ay
Ġter min
Ġgu ide
Ġw ins
ĠCath olic
Ġear ned
Ġdec line
Ġreg ional
ens us
st yle
Ġem br
Ġstr ange
ĠPalest inian
ĠJes us
ĠAn n
b ar
ĠL ong
Ġan cient
Ġfrequ ently
Ġact ing
ĠPut in
Ġman ner
Ġeff icient
rom e
Ġpus hing
ĠC IA
Ġcomfort able
ĠC ard
Ġp ip
ĠE r
O RE
P er
Ġsh aring
Ġw ire
Ġsk ill
ĠE conom
oc key
c hers
Ġinst ru
ĠE ll
Ġown ed
aw a
Ġcommit ment
Ġalong side
ĠO F
u ated
ĠL ord
an es
ĠDav is
r ison
Ġcontrovers ial
Ġart ists
Ġrefer red
we ight
Ġe gg
Ġm outh
Ġrepeated ly
0 6
Ġ4 8
ĠT op
ï ¿
Ġ3 4
F P
Ġattempt ed
Ġfem in
Ð¾ Ð
um ber
Ġupd ated
f oot
Ġc ert
u a
Ġpre gn
ĠO ld
Ġsc hedule
x y
ĠP S
am ily
ad el
Ġded icated
ĠA L
Ġsent ence
v in
Ġup coming
ĠR ight
ĠN Y
b el
ĠD own
ĠD i
Ġcol umn
h us
Ġdep th
0 9
Ġpl ed
Ġvirt ual
u able
Ġj ourney
Ġstru ck
Ñ Ģ
Ġdes k
Ġstud io
Ġreal ized
ĠE nergy
Des pite
ce ived
% )
ograph ic
u gh
Ġmed ic
D S
iam i
Ġserv ing
Ġwalk ed
ri ve
iven ess
Ġk ing
Ġr ing
k o
Ġrep ut
y ou
Ġur ban
ph y
ĠC le
ĠChar les
ĠW ild
Ġtarget ed
Ġch annel
Ġass ets
lud ing
Ġt ort
Ġins pired
Ġhot el
ĠAri zona
0 8
Ġpost s
Ġnews let
L ike
T wo
ĠSu pp
Ġun iverse
0 7
Ġag enda
Ġca using
Ġwat ched
Ġsu icide
Ġstre am
Ġover whel
ĠP y
ĠM en
Ġus ual
Ġsurve illance
m em
Ġint ent
so le
Pe ople
Ġl iqu
Ġs ister
Ġopp onents
Ġchair man
Ġd u
ĠW ars
ĠCru z
Ġmain stream
Ġlat ter
Ġh all
Ġsurround ing
Ġfol ks
Ġknow ing
Ġord ers
ĠIn f
om in
ig g
Ġrem ote
Ġ7 5
Ġs and
Ġliter ally
ĠJ ava
Ġobserv ed
ĠAg ain
Ġsubs id
g or
F r
ĠDef ense
Ġinf l
ob b
ĠV an
Ġappro val
ac c
im ents
Ġbas ket
ren ce
Ġteac hers
az i
av or
iz z
Ġwin ter
ici ency
al le
Ġexc iting
az e
ay lor
ĠT al
Ġform at
b oy
Ġcon gress
Ġprotect ed
i ro
at i
Ġnot iced
Ġsim pl
Ġdeal ing
ĠYou ng
r ations
ĠCh ild
Ġprec ise
6 7
x ual
Ġdeep ly
Ġcommunic ation
Ġg ang
Ġs ending
i pl
Ġfor th
ĠJ r
Ġf asc
Ġbat tery
Ġw al
m un
Ġsk y
Ġn arr
Ġfix ed
p ost
Ġas ide
Ġrequire ments
ab is
um s
I nt
Ġproper ties
r ors
Ġal ive
Ġnar row
Ġw ake
all as
Ġpass ion
ĠAr ch
onym ous
Ġe ating
O r
ens ity
Ġmist ake
w oman
Ġexpl ore
Ġcoff ee
Ġ197 0
ĠP an
Ġra pe
Ġvol ume
Ġprom ised
Ġd iet
ack ing
Ġris ks
Ġex hib
ĠPol it
ĠF ort
Ġswe et
M ay
âĢĻ .
ĠEn ter
ĠW at
Ġne ut
Ġinvol ving
Ġw age
Ġse lection
ĠM ax
Ġtest ed
et her
Ġfl u
ult ure
Ġdefe at
Ġn orthern
Ġre ward
Ġwel come
ĠC ast
Ġext ended
Ġput s
Ġterrit ory
Ġphen omen
Ġun employ
Ġrefuge es
Ġs ample
Ġhe ight
Ġapprox imately
ĠK evin
Ġbl ame
ĠBr ad
Ġany way
5 9
ĠD etroit
Ġdestroy ed
ob ile
Ġsh o
Ġimp ressive
ĠStep hen
as ks
Ġpro of
Ġg ap
Ġd ry
ï¿ ½
Ġcr ash
Ġun known
Ġloc ations
Ġselect ed
ap se
Ġw est
ang es
ger y
st one
ĠF il
Ġattack ed
a ire
Ġmax imum
ĠM iller
ĠWil son
ĠT it
Ġprom ote
Ġshe l
as er
Ġmere ly
Ġfranch ise
ar ry
0 4
l v
Ġrequ ests
Ġret ire
Ġsudden ly
Ġslow ly
Ġprot esters
Ġdis ag
Ġteac her
i xt
Ġtyp ical
og an
d ro
ĠW omen
ĠIn s
ing u
Ġcon ver
l ist
Ġch ose
a o
ĠC amer
ĠCl ass
ĠL u
Ġmat ches
Ġpro te
Ġlic ense
Ġproper ly
Ġass ume
or ation
Ġdisc over
Ġw id
ĠP R
R el
ĠM ic
Ġwor ried
Ġmod er
f ire
Ġab ortion
ow ered
Ġall ies
Ġob lig
Ġterror ism
Ġsupport s
Ġ Î
uild ing
Ãĥ ÃĤ
ins on
ver ty
Ġarg uments
Ġad apt
Ġthem e
Ġconf ront
Ġfac ilities
Ġsust ain
g ender
Ġe ast
Ġp al
Ġrecogn ize
ig ure
Ġf uck
ÃĤ ÃĥÃĤ
ÃĥÃĤ Ãĥ
l ies
Ġequ ival
Ġobtain ed
Ġpo verty
Ġr ub
ĠIt aly
Ġnom ine
0 3
Ġde als
Ġfe es
al o
it arian
os is
ĠH ollywood
Ġunder stood
Ġcontro lled
V ER
ĠB est
Ġtop ic
ĠD am
Ġcrit ics
ĠSoc iety
ĠAg ency
ax y
ĠF ord
Ġso le
ĠJer sey
ar ity
Ġvill age
h an
Ġdi agn
ĠAd minist
ra id
Ġlik es
ce ler
ĠF our
st ers
6 8
Ġev il
T e
Ġpun ish
Ġd ress
c ript
ĠGeor gia
Ġb unch
ĠComp any
Ġjournal ists
J ohn
Ġexp osed
Ġp ed
Ġreg ions
red it
oc ation
Ġcommunic ations
Ġschem e
Ġtrans p
Ġst im
Ġlim its
Ġsome how
Ġstrong ly
Ġhon or
Ġdr ag
au g
Ġresist ance
ll s
Ġch ampion
ĠCar l
ĠL abor
Ġconst ant
Ġph ase
ĠNAS A
ast s
p ool
Ġprof it
Ġtr uck
Ġcond em
Ġesc ape
Ġperson ally
ĠN ight
ĠD un
rim ination
ĠL and
Ġb id
ĠN HL
ĠSt and
Ġvac c
Ġdec k
Ð ½
nes ota
if orm
Ġfall ing
m o
GB T
ĠNet work
Ġsome where
c ers
Ġemploy ee
Ġhar ass
em s
ad s
C A
Ġbe ar
ĠC D
in er
Ġcompar ison
ort ed
ci ples
Ġpoll s
ow a
Ġin qu
ĠL ove
pect ed
Ġs outhern
Ġdec ent
or ic
c ow
ĠSp anish
Ġencour age
Ġem issions
Ġ3 9
ĠV iew
ĠC am
end ers
Ġempt y
ĠM iami
Ġh its
ost er
Ġdefin ition
ĠK n
Ġp ic
w an
Ġdirect ed
p es
Ġf lex
z ens
ĠO k
5 7
Ġmeet ings
ĠE nd
ĠB ell
Ġcomp rom
Ġwin ner
int end
a un
ick en
Ġgot ten
ĠD aniel
ĠTur k
Ġelectric ity
Ġch osen
Ġoffic ially
Ġben ch
Ġstret ch
Ġdatab ase
ĠDes pite
Ġsp in
Ġint ellect
ig ation
Ġstrong er
Ġde leg
Ġpurp oses
ĠD NA
C om
Ġcut ting
ĠT urn
Ġf old
r ary
Ġext ensive
Ġamount s
Ġdes per
Ġtre es
Ġan x
Ġide al
ĠAs ian
Ġth read
Ġfif th
Ī Ĵ
U R
Ġgood s
Ġcol on
Ġdevelop er
Ġclaim ing
un ning
An y
Ġre tain
Ġs oul
Ġcapt ured
ĠTh ough
Ġfind s
Ġdri ven
Ġpay ments
as ters
r as
C S
Ġt ies
ĠJ ordan
Ġreason able
ol t
Ġdog s
â ĸ
Ġsome body
Ġend ing
0 2
ĠN ations
Ġcho ices
Ġb le
Ġp od
Ġse ats
ĠServ ices
ĠTh ank
Ġeng age
Ġd rawn
Ġs ight
Ġpar am
ĠD ar
C E
Ġthreat ened
Ġrul ed
ĠAtt orney
ep ing
ĠIr ish
ĠSe a
Ġtrad ing
ow ed
Ġprim arily
ur a
Ġaspect s
Ġf ighters
M L
Ġansw ers
Ġperfect ly
ir ms
Ġinc l
ĠAc adem
Ġr ival
Ġpark ing
Ġreject ed
ĠG all
Ġconst antly
Ad d
f ast
ĠH un
Ġpay ment
ĠC at
Ġdist inct
Ġf lying
ĠU t
Ġr ig
Ġtechn ologies
m od
ĠRe al
< /
Ġcomp onents
Pol ice
Ġad mit
ĠScot land
Ġelse where
ĠD ark
d it
Ġconst it
Ġany more
ld er
Ġ icon
Ġfield s
Ġestim ates
E W
se a
Ġsol utions
Ġresult ing
e z
7 8
ĠB ru
ur b
Ġaw esome
Ġenc oun
Ġprov ince
s m
Ġworld wide
Ġact or
Ġreg ularly
ĠMo ore
Ġcour ts
Ġnarr ative
O nce
Ġb oot
Ġenem ies
Ġmix ed
3 00
reg on
ĠO S
ĠDis ney
ic er
Ġhous es
Ġno body
ĠS k
in ations
Ġcontrol s
ĠW ater
Ġlet ters
ap es
ag ram
im p
ian a
Ġ4 2
Ġmay or
Ġlo an
Ġm urd
Ġout come
ĠM S
Ġcont em
se ll
S ec
v y
od d
s hip
ĠL ight
on ic
is an
Ġap artment
ĠSte ven
Ġcoal ition
Ġcontribut ed
ĠB as
Ġt ank
Ġconclud ed
ĠAd am
ĠT w
Ġex ists
Ġfound er
ĠB rian
ear ing
ĠL ew
Ġatmosp here
Ġprof ile
Ġbre w
Ġsit uations
ĠCh ampionship
ĠA uthor
r ates
Ġincred ible
ĠConst itution
Ġsign al
ot es
ĠR og
Ġaccur ate
k er
ĠVict or
ot ten
Ġun p
ĠW here
ĠS outhern
." [
Ġemploy ment
Ġcl ients
D r
Ġkeep s
in ity
Ġinform ed
Ġcontin uing
Ġbase ball
Ġgener ate
Ġtick et
Ġcon ven
Al so
ĠCon f
Ġwe ird
Ġt ied
l ock
adel ph
Ġcateg ory
Ġinf ect
il arly
ack ed
Ġang ry
ĠOr gan
Ġrout ine
ar on
Ġk il
Ġra ising
if er
Ġmach ines
Ġregist ered
the re
Ġprov ed
Ġdem ands
Ġg aming
ĠIt alian
Ġincred ibly
Ġcru cial
Ġst uck
ĠC ivil
ĠD allas
Ġter rible
M P
c r
Ġfeed back
Ġu pper
Ġpl astic
Ġim per
Ġnew ly
ĠJose ph
Ġconsum ption
Ġdo zen
Ġent hus
Ġest ate
al i
r age
5 6
Ġinn oc
Ġman ip
ĠT em
Ġcons cious
Ġbill s
ĠC ross
ĠSp ain
ific ations
T oday
Ġwrit ers
Ġex cess
ind ing
Ġaggress ive
Ġrep orter
Ġcomp ens
Ġret urning
Ġst ead
Ġprogram ming
ĠTh anks
Ġrepresent ed
Ġconclus ion
9 8
Ġr us
ĠB owl
M S
ĠA R
Ġorig in
Ġassist ant
adelph ia
Ġro ster
ĠMin nesota
Ġorgan ized
ri a
Ġpen alty
Ġdrink ing
l ers
Ġpain t
Ġs atell
Ġg ro
ĠPro gram
Ġcapt ure
Ġcons pir
Ġinter pret
Ġexplan ation
isc al
em e
Ġcount y
isc ons
ess ed
m ont
Ġ %
ann y
gor ith
em en
iscons in
Ġassist ance
ĠRom an
5 8
Ġcompl aint
im a
Ġr u
Ġn ut
Ġmag ic
Ġt all
ĠO per
Ġgr anted
B ecause
ĠCont in
st ar
L A
O ff
ĠPar liament
Ġcompl icated
Ġaud io
Ġch ances
Ġext ract
b al
ry pt
er a
ĠG i
Ġ199 9
Ġhe l
ĠE duc
Ġsh ares
Ġsuccess fully
es y
ĠI T
Ġpil ot
z y
ĠE p
ĠH ot
Ġmy th
Ġ 00
Ġrec overy
ĠT est
Ġtechn iques
Ġ iron
ĠC are
ĠZ eal
ĠS C
Ġscen es
Ġveter an
ĠF re
ĠW in
Ġ( $
Ġdeg rees
act ions
Ġsym pt
the w
Ġlaw makers
k ed
Ġw estern
Ġoper ate
Ġad s
r ating
Ġha bit
Ġaim ed
In st
anche ster
Ġph r
re p
re te
Ġtast e
id ency
Ġeng aged
Ġpriv ile
Ġ5 5
Ġr ating
Ġteach ing
Ġacadem ic
ĠO s
Ġthe rap
Ġpass es
Ġdoll ar
he nt
Ġautom atically
it ar
ĠPac ific
Ġmon it
Ġbl ocks
ab ama
Ġatt ended
Ġperman ent
Ġsurv ive
Ġant icip
Ġext rem
Ġen able
ĠL ook
ĠFore ign
ch ain
% .
Ġmark ed
it als
Ġh idden
Ġacc omp
Ġtit les
ĠSen ator
ĠN BC
Ġt aught
ĠLin ux
Ġb om
u an
Ġind ex
ever al
Ġel ite
ib ilities
f rom
Ġlawy ers
Ġdep ending
Ġval uable
Ġinst alled
Ġch ampionship
Ġro ot
Ġcomp re
ĠB ull
Ġdownt own
a ed
m al
Ġequival ent
Ġsol ve
r ific
Ġd uty
ĠSpe cial
ĠB usiness
Ġ6 4
Ġp ace
H S
Ġreput ation
Ġun certain
Ġph ones
u ine
Ġover se
ĠT aylor
Ġperson nel
Ġp in
re ams
atur ally
Ġsuff icient
Ġvis ited
Ġwar ming
ĠS n
Ġprin ciples
Ġvulner able
Ġenjoy ed
Ġf ake
ĠN ick
Ġadv is
Ġnegoti ations
ind er
Ġgener ated
Ġexp osure
Ġrec ording
b ro
Ġcollect ed
Ġregard less
Ġd ict
E A
Ġe lev
Ġbit coin
ã Ģ
act ive
ĠK elly
ĠAn th
Ġc up
Ġpattern s
Get ty
ĠT ake
) )
ĠA venue
ĠJ osh
Ġdis aster
Ġc able
Ġ6 5
Ġch at
Ġwork er
Ġmain ly
Ġrac ial
qu arters
ĠCo ast
ĠV iet
mon th
Ġp ounds
Ġ1 50
ĠC all
Ġport ion
Ġaf raid
Ġins pir
ĠA h
Ġb es
Ġdef ence
ĠE astern
ĠT ony
Ġtrack s
Ġbus y
Ġgr ant
Ġsh it
Ġint ense
ĠSer ies
ĠL GBT
or ne
ĠSt ill
man n
ath y
Ġfun ny
Ġap olog
Ġsur gery
ĠMos cow
ĠC oll
Ġposs ession
Ġprom inent
ĠM ars
Ġcom ic
ĠG er
as hes
9 7
ul es
ĠR ay
Ġth in
Ġengine ering
Ġtrou b
ĠK urd
th is
Ġprocess es
ĠN ation
f all
ĠK ent
ĠC ome
Ġent it
Ġ âĢĻ
Ġunus ual
rap h
et ary
Ġdescrib es
d a
w orld
9 6
Ġresult ed
Ġd im
Ġemer ged
Ġtax p
Ġg all
il er
Ġ4 00
Ġprop ag
ĠI owa
ĠO regon
Ġco ordin
Ġcor ruption
Ġst ations
ĠIn vest
y e
Ġf ought
ĠA D
Ġbr ut
Ġext ension
re f
Ġbl ind
Ġadop ted
pr ise
Ġcompet e
Ġrec ru
ĠZeal and
Ġhad n
P r
Ġm ail
Ġevery where
ĠB alt
Ġcry pt
R ec
C ol
M ean
he rent
ic ate
ĠA li
Ġcontract s
f ront
ĠL o
Ġne uro
ĠDe ad
ĠR ick
Ġfeel ings
Ġf irms
idel ines
âĢĻ ,
Ġminor ity
Ġsp r
c les
H A
Ġadvert ising
Ġrare ly
Ġdisc ipl
m aking
ĠN orthern
Ġsan ctions
ĠV eg
sc ape
ĠPhil adelphia
up id
Ġcamer as
Ġexpl icit
Ġstr ict
v iously
l og
Ġen orm
Ġfin ance
g un
Ġc ited
if ies
ĠBe fore
Ġshort ly
t es
U L
ĠPol icy
Ġexpect ations
Ġimplement ation
og en
Ġrec ip
cl ing
ĠGree k
Ġth ick
Ġthous and
ant ic
ĠM u
ist ent
Ġl oud
Ġaff ili
ur rent
or ough
ĠN avy
Ġin ev
re ll
c us
Ġphot ograph
Ġmed ium
az z
ĠH om
ĠW isconsin
Ġscen ario
ĠF ood
ĠL ive
Ġsu p
il ton
Ġpl ug
Ġve get
Ġh o
Ġvis ible
L C
Ġlight s
Ġcreat es
Ġprior ity
Ġv en
Ġbr idge
el and
Ġob st
ink ing
AT E
Ġag ric
Ġper mission
ĠF oot
Ġal gorith
iz on
C o
e lect
Ġparticip ate
ask a
Ġw ing
wh o
as ion
Ġbrow ser
ĠGl obal
Ġt ag
ĠO l
ĠH as
Ġm el
Ġac celer
## #
Ġdo zens
ĠKing dom
Ġhistor ic
Ġcomput ers
Ġla id
Ġbasket ball
e en
Ġloss es
te xt
ĠS af
ĠAs h
og ether
Ġun w
: :
Ġt or
ĠAm endment
M ar
Ġstrik es
Ġprinc iple
ĠDevelop ment
Ġform al
E P
ig en
Ġsc oring
7 6
ob s
at hered
Ġ4 4
Ġcoun sel
f ound
+ +
Ġsh ock
Ġwonder ful
ĠS P
Ġbeh alf
ab s
Ġun com
prof it
ent h
Ġinter face
Ġestablish ment
Ġto ler
ĠHen ry
ĠG reg
am ber
c ar
ĠM ajor
ĠTh us
j o
U s
Ġg ained
Ġfe e
le te
Ġfound ed
et ime
Ġfound ation
s he
ĠE SP
ili pp
Ġclub s
Ġcann abis
Ġj u
5 4
5 2
Ġair port
ĠKe y
a us
y stem
Ġb orrow
we et
ol is
B O
Ġmanufact uring
Ġre ly
ĠH it
ĠP ay
u er
ĠAl abama
Ġgen uine
ĠR oyal
rat ors
Be fore
Ġcomp onent
Ġrid ic
ose xual
Ġwhe el
r ative
ĠO ak
Ġjournal ist
Ġrel ief
Ġsa ved
b ell
5 1
Ġh ole
Ġy ield
Ġhead ed
Ġcy ber
ĠM oh
epend ent
Ġg ift
Ġf ault
Ġwithd raw
N e
Ġindic ate
Ġdraw ing
Ġun iform
um er
ĠR and
ar lier
Ġst able
Ġsh ips
Ġ- >
Ġban ned
ĠM id
Ġfoot age
Mean while
Ġdo ors
rou s
l an
Ġrecogn ized
Ġ19 60
Ġcont aining
p read
4 00
ĠF C
ĠV is
Ġr iver
m es
Ġstrugg ling
am i
S ub
b a
Ġsp ark
ĠAcadem y
Ġwall s
Ġachie ved
op her
oun ced
Ġneigh b
Ġpl ate
Ġed ition
ĠH T
port ion
m ate
Ġmove ments
Ġdeli ber
u ce
te en
P ost
Ġsh arp
ĠA S
ĠS now
ul ating
Ġst ab
ĠTh ree
Ġepis odes
Ġneut ral
ĠPrem ier
ĠR et
ĠF und
Ġexcept ion
et ts
Ġprodu cer
ĠF red
Ġdest ruction
Ġ199 8
ou red
Ġbelief s
Ġ4 7
ĠRe view
Ġleg end
Ġp ump
ĠMc G
Ġback ed
Ġlik ed
Ġh ired
ides pread
c ription
Ġro les
Ġlangu ages
Ġprofess ion
Ġent ering
os a
ĠV R
Ġinterview s
Ġh ang
i el
is p
Ġto x
Ġphilosoph y
em an
ĠAdminist ration
Ġar range
ĠK ir
o en
int erest
Ġfl aw
ĠN ob
Th ose
sy lv
im ore
Ġst adium
ĠAtlant a
ĠJ ac
Ġredu ction
Ġdin ner
bur gh
Ġb ath
ĠRep ort
u per
Ġmag n
ĠTurk ish
it i
Ġa ver
Ġf inger
ĠN ote
ĠCon ference
Ġtack le
Ġch a
Ġg onna
ĠDie go
ĠP oint
Ġc rop
ĠCent re
Ġfarm ers
ĠM anchester
Ġnomine e
Ġ4 1
ĠAr m
ach ing
ĠJ ason
Ġbare ly
AT O
Ġstruct ures
Ġcont ained
Ġsy nt
ĠO tt
Ġdeli very
t a
% ,
Ġprocess ing
Ġdisc rimination
Ġconv in
Ġinc ent
ri ers
ĠF air
erv ed
R S
5 3
t hen
ĠD ata
c a
j a
abin et
Ġintellect ual
E d
ĠRad io
ams ung
Ġ4 6
ĠB ry
ĠO K
ĠF ield
ĠD id
Ġup set
ĠPer haps
M e
ĠEduc ation
sylv ania
aw ay
ĠM ir
P resident
Ġchalleng ing
ri k
Ġpro ven
Ġrestrict ions
i y
Ġfore ver
http s
ol en
Ġelect ronic
Ġhit ting
ĠH ay
Ġe uro
h o
Ġun ex
Ġreview s
ĠChrist ians
Ġ4 3
ĠN C
Ġconv icted
St ar
Ġill ness
Ġsm ooth
p age
D av
ĠH or
Ġret ired
Ġindic ated
us ive
Ġh am
Ġprodu cing
ĠAb out
ĠHar ry
Ġrapid ly
Ġro se
Ġh ide
Ġcorpor ations
f r
Ġo cean
ĠR us
ay ing
ow ing
Ġlist ening
ĠRe uters
ĠU FC
ĠS at
Ġtechn ique
Ġm o
y ard
sel s
Ġl oyal
ĠN ic
ĠP en
ĠMe an
less ly
Ġrob ot
Ġnot ion
Ġbeg un
Ġut il
ĠF ed
Ġrecogn ition
ou ver
eng ers
Ġper pet
Ġassoci ation
Ġmil k
Ġas ks
8 7
Ġwebs ites
Ġre n
Ġdesc ription
ĠP ack
in f
Ġtick ets
ach us
Ġfl ash
Ġsuggest ing
enn y
ĠJud ge
Ġexclus ive
Ġreach ing
Ġb ra
Ġprep are
ĠK ansas
Wh o
ion e
Ġb ail
Ġfr ag
Ġprogress ive
im m
Ġex ceed
Ġequ ally
ĠH ard
Ġhard ly
Ġw idespread
ĠA BC
Ġcampaign s
ĠMay or
Ġcont ribute
ud es
olog ists
Ġbr anch
L ook
ĠR ose
Ġgr ass
Ġiniti ative
ĠMark et
Ġeth nic
Ġex ternal
ik es
ĠC irc
um a
ri ent
Ġsens itive
Ġpract ical
ust ed
el f
Ġunc lear
Ġnorm ally
R ef
Ġrepresent ative
p at
b ec
l s
th on
Ġwe lf
ĠF ull
Ġredu cing
app y
l ad
Ġfriend ly
Ġcare fully
ĠArab ia
ĠR ef
ĠL y
8 9
P M
ĠL uc
Ġrac ist
Ġinv ent
r ical
ou ch
P G
ĠC O
ĠN ext
Ġrespect ively
sen al
rat or
Ġt ail
ĠMcC ain
ĠBern ie
anc ouver
Ġoverwhel ming
Ġview ers
ĠBe ach
st ract
Ġwelf are
arr ass
ĠF urther
Ġconvin ced
U N
Ġsm oke
um es
Ġcoll apse
Ġinvolve ment
ĠL ind
Ġth rown
pl oad
Ġconnect ions
he ast
Ġterror ists
ĠB attle
Ġstrateg ic
Ġh ook
Ġrec over
ĠLat in
omet hing
igr ant
ĠO nt
Ġw ine
M c
ino is
ĠMus ic
ro lled
Ġmind s
Ġv ital
Ġsettle ment
Ġstat istics
Ġl ists
Ġv ary
Ġfeat uring
ĠESP N
ec ut
achus etts
ĠS ir
Ġbehavi our
Ġindepend ence
ĠD ig
w orth
Ġfant asy
Ġdev ast
es ter
ned y
c ore
ut ies
Ġinv ited
Ġcompl aints
Ġjo ining
Ġscore s
Ġf iscal
Ġdeep er
d em
ĠPenn sylvania
if est
Ġst eal
Ġan ger
Ġdep uty
Ġel ig
Ġw ars
ĠSqu are
Ġinvestig ate
ĠT enn
ĠT own
Ġsu gar
Ġconst itutional
ĠII I
Ġschol ars
ĠP it
Ġi OS
Ġany body
Ġsubject s
ĠA ND
Ġar ray
Ġal ien
b n
F A
ĠU lt
ĠG ov
Ġl obby
Ġowners hip
Ġframe work
Ġunemploy ment
ĠDiv ision
Ġtrans gender
ĠS S
Ġimprove ments
Ġmen u
Ġpe ak
B ack
Ġsc reens
ih ad
Ġin ject
Ġl uck
ivers ary
Ġdef ine
Ġt asks
ĠX box
Ġdem ocratic
Ġsc andal
ick ing
Ġj ury
ac on
ĠAnt on
ĠMin istry
C he
Ġc os
Ġcompre hens
os it
ĠK at
ĠE s
Ġdisc overy
un ior
Ġreg ister
ag g
Ġcas ual
Ġrem em
Ġcitiz en
Ġf ab
R I
S m
U nder
Ġroad s
Ġdisag ree
Ġfail ing
ĠN ever
ĠL ittle
ĠJ ay
Ġdynam ic
Ġserv es
ĠCamer on
ĠBro ther
ĠM ah
Ġtest im
Ġg athered
ĠSt one
ĠIn formation
Ġs oph
od ing
Ġimplement ed
Ġcontrovers y
Ġcollect ive
Ġtr ained
ann a
ĠN SA
Ġneigh bour
Ġfear s
level and
Ġsam ples
Ġf iction
Ġpro sec
Ġest imate
ĠCommun ity
ĠI ce
ĠMed ical
Ġ199 7
ĠPh ilipp
Ġrefer ring
Ġt ip
Ġcap tain
W ill
Ġ199 6
Ġsp aces
6 9
c ific
Ġt rem
ĠWalk er
Ġvers us
Ġleg s
ĠSant a
Ġtem porary
P C
Ġno ise
' .
ĠH D
Ġover t
Ġincor por
Ġt one
Ġvisit ors
Ġre ven
Ġcivil ians
Ġw ages
Ġhyp ot
ak a
Ġs in
Ġrem arks
Ġaware ness
ĠO N
ĠSpr ing
Ġrecomm ended
Ġst upid
ĠAll en
Ġhead ing
Ġhand ful
um in
Ġreg ulation
ick et
ĠA ction
ĠC ore
Ġplatform s
Ġacc us
ĠAnth ony
m ad
Ġaff airs
g ener
Ġtouch down
Ġr ural
Ġattack ing
Ġext end
Ġult imate
Ġatt ached
ĠVeg as
Ġdiscuss ions
ĠR en
Ġhor se
ĠB rew
Ġrep rodu
Ġgen etic
Ġexpand ed
Ġattempt ing
ph ones
ĠMat thew
Ġr aces
inc luding
ir y
ĠQue en
Ġr aw
Ġign ore
ĠColumb ia
s erv
ĠP ent
ĠGuard ian
h our
ĠC ook
Ġi P
ition ally
Ġg ear
Ġsympt oms
ĠPat rick
Ġsuff er
Ġsett ings
ĠM ake
all ing
Ġsal ary
c ase
Ġlic ens
m ary
G O
Ġtweet ed
ang el
Ġpublic ation
Ġbr ill
Ġfact ory
Ġsuspect ed
Ġpurch ased
are t
Ġinter vention
Ġeas tern
Ġhol iday
ty pe
20 14
Ġthe at
Ab out
Ġdis pl
es h
Ġrank ed
Ġne ck
ĠConserv ative
ĠAust in
ĠM useum
ect ive
ĠR oy
" )
Ġc ro
ĠB udd
S en
Ġenorm ous
# ##
intend o
Ġc ogn
Ġlog ic
ult ural
ict ions
Ġimprove ment
ĠAP I
Ġview ed
Ġing red
Ġentertain ment
A ss
Ġlegit imate
ĠProf essor
omm od
Ġpres um
ĠAl bert
ĠMass achusetts
ĠB all
Ġ201 9
Ġw ww
New s
Ġact ors
Ġsubstant ial
Ġhuman ity
Ġinvol ves
Ġres ource
ar ms
Ġbrother s
Ġliqu id
Ġr ational
Ġseem ingly
Ġs orry
Ġlay er
Ġlo ans
Ġro ok
Ġinvestig ating
Ġabs ence
Ġprov iders
Ġtom orrow
Ġfall en
Ġb ureau
Ġground s
Ġco aches
Ġst ake
Ġres ign
Ġout s
re c
Ġadvoc ates
ĠH o
Ġâ Ĥ¬
R C
Ġinvestig ators
Ġconspir acy
W here
Ġmedic ine
Ġdram atic
Ġf ulf
Ġmon itor
ĠCh air
ES T
re pre
Ġover s
Ġch apter
ĠSe ason
Ġc oc
ov al
G E
l ah
. -
Ġactiv ist
ple te
Ġbo at
ĠChe ck
ĠCont rol
Ġg am
Ġj ur
Ġsusp ended
Ġp apers
Sc ript
ĠGree ce
Ġopin ions
ĠS uch
ĠR oss
Ġmiss ile
ĠGold en
Ġcele b
ĠRev olution
p ed
20 16
ĠR a
ĠHe ad
Ġstay ed
Ġco vers
iver pool
Ġd iversity
oty pe
Ġb ars
P art
R uss
Ġemb arrass
x it
Ġoffic es
ĠA cc
re ts
our se
cl aim
ĠP ot
ĠIran ian
Ġdis rupt
co ver
ĠW W
Ġpre ced
Ġpo ly
Ġfore st
we red
Ġcare ful
repre ne
v ard
il a
Ġam id
ĠHist ory
Ġm ad
h ot
qu est
ĠH ospital
ist ing
am med
ĠA le
Ġaut hent
ĠIll inois
ĠC BS
ĠS ony
u ction
7 9
ge on
Rel ated
r ine
Ġtransport ation
ĠV ancouver
b i
ĠG aza
Ġhand ed
Ġprot ocol
Ġconsist ently
Ġmount ain
Ġ5 2
ĠA p
Ġread s
ĠSt at
Ġpre f
Ġclot hes
Ġatt itude
i ability
ĠSh are
ĠKen nedy
Ġp orn
Ġprinc ip
ĠF reedom
s es
Ġdep ends
Ġmin ing
d es
Ġpet ition
Ġnot ing
Ġwar rant
Ġcon ce
Ġcol ors
Ġlow est
ĠAnd erson
ĠT ri
Ġaddress ed
ĠF amily
7 2
un es
S te
Ġent r
ĠSt adium
x x
Ġthrow ing
Ġj e
7 4
Ġf ruit
Ġvirt ually
! )
Ġst one
Ġf oss
Ġguarant ee
Ġrefere nd
in ch
B oth
? ?
Ġspeak s
ĠBalt imore
Ġste el
Ġcl osing
it ting
Ġread er
d ri
F F
Ġbu ff
Ġperson ality
ĠC re
Ġappreci ate
ĠIraq i
Ġsur f
ĠEn vironment
Ġn erv
ien ces
m aker
ke ep
Ġhand ling
Ġprof its
ord on
Ġg rav
Ġk m
Ġmar ks
l ow
Ġtri es
ĠBro ad
Ġcontribut ions
ĠEng ine
rop ri
Ġspirit ual
Ġconvers ations
Ġfant astic
ĠT ro
z ed
Ġl ands
Ġcon sole
Ġhor ror
pp ers
" .[
ic ity
Ġg ains
Ġcover ing
Ġte a
iv als
ĠHar ris
H er
Ġh int
Ġast ron
av al
Ġshould er
sc ale
Ġw rest
Ġgu est
ĠE xt
Ġacc ommod
ut ed
u its
Ġdep ression
ĠC A
Ġ _
ĠLew is
Ġl ucky
ĠB ang
Ġencour aged
fl ix
am ac
Ġjud ges
Ġinc idents
ĠC leveland
Ġd rew
Ġsubsequ ent
Ġsp oken
ir a
ĠHow ard
ann els
ĠB ad
Ġbro wn
Ġb acter
P lease
ix ed
Ġr het
Ġr anks
ĠGet ty
Ġphot ograp
Ġinfl ation
Ġin ner
ĠInt elligence
ĠP o
m at
ĠB a
Ġm aps
ab eth
ĠPat ri
port ed
ij ing
pl ate
Ġdiv ided
Ġ199 5
ĠN ATO
Ġpar alle
Ġdr ama
ĠMex ican
Ġdist ributed
Ġg al
Ġinnov ation
un icip
Ġc ust
ĠUn fortunately
Ġprem ium
Ġvot er
Ġper mit
Ġre vel
ĠK ong
Ġd ance
pl ed
ĠL as
Ġsw ing
Ġeff iciency
Ġprom ises
ĠInd eed
N ote
ĠC H
ĠWh ich
Ġball ot
Ġ5 1
ed ing
p ie
ĠAd v
Ġtemper atures
ĠS amsung
Ġport ray
Ġspokes person
Ġl ocked
Ġl ying
Ġimpro ving
8 00
Ġth rew
Ġj oy
Ġd ump
Ar t
Ġmus ical
P P
Ġmist akes
d ated
Ġsh out
ĠSt art
Ġhom eless
con f
Ġreplace ment
er ies
Ġcom edy
Ġche cks
ĠWith out
ĠM oon
Ġinstru ment
oun ce
ĠCon nect
Ġacknowled ged
Ġbar rel
Ġrespons es
Ġprotect ing
back s
ĠD et
Â Ĵ
he im
Ġsil ver
Ġcop ies
Ġl es
ĠA C
Ġd ad
Ġbreak s
ĠPl us
ĠB uff
Ġcommon ly
Ġle ts
Ġleg acy
it age
Ġmat hem
Ġprote in
Ġjo ke
amac are
er ted
ar re
Ġpass engers
20 15
Ġy ellow
ĠMar vel
h op
Ġn aturally
Y our
ĠS cient
Ġnom ination
S ource
Ġmeas ured
ap ing
al ia
ĠU se
Ġabandon ed
od ed
ĠPr ince
Ġstud ied
ĠFoot ball
hel sea
Ġd iverse
arg o
Ġacqu ired
iet ies
ĠL yn
C ons
est y
Ġso il
ĠM arsh
Ġdemonst rated
Ġbl ast
Ġre ar
Ġfund ed
Ġhead quarters
hes is
Ġst olen
ini ans
Ġsc an
Ġcount s
Ġt ape
Ġpartners hip
Ġmid field
ĠN OT
y o
Ġ( âĢľ
Ġupgr ade
ĠC ost
ĠAtlant ic
Ġm arch
Ġgr id
Ġord inary
ĠA ud
ĠN ev
Ġr om
aw are
Ġliter ature
Ġpl ain
Ġst ages
ĠâĢ ¢
h igh
Ġass ert
Ġ199 4
ĠA I
Ġhelp ful
Ġarri ve
Ġex it
Ġsc ope
Ġfall s
d og
y er
Ġign ored
B M
Ġtw enty
et ers
ĠM aster
Ġcl ock
Ġcom pe
in ction
Ġvir us
ĠT rib
Ġreferend um
Ġin equ
Ġun ions
ĠDo es
er g
ass ador
ĠG un
Ġconserv atives
Ġr if
Ġsy mp
Ġf estival
Ġsho pping
Ġf ro
Ġwat ers
ĠP op
Ġcap abilities
ĠB ron
Ġa x
z ing
lah oma
Ġus age
ĠH ind
i ate
ĠEm pire
aed a
ĠIndian a
ile y
Ġtrans actions
Ġhop ed
V E
Ġdist ract
ĠA st
Ġgu itar
ĠE ag
ĠAb b
Ġst y
Ġr amp
Ġassess ment
ct ic
Ġunivers ities
ĠD ave
Ġm oon
Ġmonit oring
orm al
ack et
br idge
F acebook
Ġrepresent ing
Ġrat io
ĠDe ath
en cing
ugh t
ĠPro v
Ġconvention al
com es
US T
or ge
Ġtr ave
ing ton
ĠS et
Ġtrack ing
d oor
nt il
ĠS ometimes
on ly
sh ire
ĠS us
Ġh ung
Ġrel iable
Ġt ie
Ġpropos als
Ġske pt
ĠHe ll
Ġrepl ied
ĠR os
f und
Ġcritic ized
u h
Ġappear ances
6 2
ecut ive
ĠH a
Ġrac ism
el a
ĠL im
Ġins isted
or gan
r imin
Ġintrodu ction
Ġ20 20
Ġappoint ed
d ney
ĠB ureau
ol ph
ag ic
ĠP ass
c ut
K e
ĠL ine
Ġbeaut y
Ġconc rete
Ġrece iver
Ġsupp lies
Ġperform ing
m ade
Ġb ub
Ġex ch
r ite
Ġvis iting
ĠTechn ology
6 3
ĠDen ver
oc ument
E E
ĠJ am
om es
ĠC apt
the less
R L
Ġlet ting
Ġsw im
AN D
Ġdef icit
Ġclass ified
ĠGal axy
ag a
Ġaut o
Ġre nder
Ġabs or
ĠOr ig
Ġaccompl ish
Ġprogram me
Ġpres idency
H T
c rib
6 1
Ġblock ed
ĠSwed en
arch y
Ġd ust
ĠUt ah
Ġdro ve
Ġland scape
Ġcan ce
ĠPort land
pl us
Ġdismiss ed
ĠL A
Ġhy per
Ġab road
Ġbon us
ĠT our
h ar
Ġsequ ence
Ġpredict ed
Ġsen ator
Â °
ĠA ge
Ġdom ain
ĠC ode
Ġe c
Ġm useum
ĠAssoci ated
ac co
Ġwar n
Ġpers ons
N S
j i
Ġd ub
Ġrequest ed
Ġtrig ger
ĠOnt ario
Ġh ockey
ĠCor por
ian o
Ġart ific
Ġd ates
Ġtestim ony
Ġcent ers
Ð »
Ġrock et
ir ts
Ġv es
Ġtrans it
Ġcongress ional
Ġentit led
ult ane
Ġspokes woman
ĠFr ont
ĠN intendo
ĠAlex ander
Ġresc ue
ĠCo oper
m ony
Ġass ign
ĠB on
Ġequ ality
Ġp atch
Ġur ged
Ġb read
ĠOlymp ic
Ġdocument ary
Ġveter ans
Ġcl ar
f ol
ĠW ik
ĠâĢ Ŀ
k ing
pt on
Ġrec all
Ġpop ulations
ĠL ow
Ġbreat h
St ill
6 00
room s
Ġwhen ever
Ġviol ation
Ġtact ics
Ġw ider
ound ing
9 3
Ġtarget ing
Y et
th rough
Ġpurs ue
9 2
Ġs alt
" >
Ġle an
A re
iz abeth
Ġf iring
9 4
ĠK ar
ĠM ill
Ġac id
in ating
Ġm ole
is ons
Ġrestaur ants
Ġcomp are
f are
C omp
d y
or ous
enn is
Ġemploy ed
ĠRober ts
Ġcont rad
ĠB ible
Ġpolit ically
a ver
Ġphr ase
Ġsatell ite
ĠC ro
Ġsurv ival
Ġretire ment
Ġbank ing
ĠF orm
Ġbrill iant
ĠG irl
at ar
Ġch annels
7 1
Ġser vers
7 3
ĠBe ijing
Ġsoc cer
tr ans
ĠM ach
the y
Ġbur den
Ġintrodu ce
Ġexper iments
ene z
Ġprison ers
ra pped
Ġc ig
ĠW H
af e
j ud
Ġf ighter
Ġscient ist
O K
ĠY OU
usal em
ĠL ist
Ġsub mit
Ġappro ached
ĠA ward
Ġmonth ly
ĠL iverpool
Ġdesign s
Ġrepresent atives
Ġtit led
ord inary
Ġqu ote
Ġpopular ity
ol ves
Ġab ilities
oen ix
Ġc ul
ĠP D
Ġmembers hip
Ġinvestig ations
Ġfocus ing
Ġb ab
m ans
Ġh osp
ĠBr idge
Th ough
ĠMary land
Ġsa ving
b ow
Ġr ush
ĠGovern or
Ġsh adow
ou ri
ĠH ur
ĠB ase
Ġobject ive
ber ry
ĠT ed
er ts
eder ation
Ġm it
Ġpre par
Ġt ips
ĠW as
e le
em ed
Ġpip eline
Dav id
Ġchild hood
Ġrat ings
Ġth orough
Ġent reprene
ent er
a is
ĠV ill
ĠD utch
w as
bre ak
Ġact ively
ĠHar vard
Ġp ig
Ġdemand ing
Ġlo ose
ast y
Ġunex pected
Ġsm oking
Ġsm ell
Ġden y
C O
d on
Ġunivers al
ik a
Ġfore cast
Ġarg ues
Ġphenomen on
Ġoverse as
Ġsett led
old s
w alk
ĠBe ck
Ġgener ations
Ġweek ly
Ġch icken
Ġprep aring
Ġ9 5
Ġsmart phone
Ġprodu cers
Ġbut t
ĠP A
Ġlegisl ative
Ġanx iety
ĠH ave
Ġinnoc ent
min ute
ĠC lick
Ġmort g
Ġcelebr ate
ĠU r
Ġprov ision
D em
ĠD O
Ġke ys
Ġm ini
Ġsh ame
Ġarg uing
ĠJust in
ĠDes ign
he ld
Ġquestion ed
Ġfor cing
ĠC ow
ĠH op
omp son
ag h
â Ķ
Ġbroad er
Ġencoun ter
m ers
S L
Ġfl ags
Ġf ool
S im
Ġf ur
Ġm ac
Ġ5 3
Ġdead ly
Ġre verse
o z
Ġwe igh
ĠEd ward
ĠAm ong
Ġt ens
Ġ ~
Ġm os
Ġwealth y
ĠOb amacare
Ġun pre
Ġt ab
Ġmaintain ed
e als
Ġsure ly
Ġsh ield
ĠPro p
ocol ate
ore t
Ġsecond ary
Ġsav ings
is a
ir lf
av ed
Ġro of
Ġst ability
Ġcivil ian
Ä ĥ
el son
ĠCar ter
Ġreve als
m ind
Ġal arm
Ġann iversary
Ġs orts
ĠB ra
ĠA k
vern ment
E l
Ġton ight
Ġrele ases
ĠH on
Ġroom s
irlf riend
ĠG ulf
Ġout rage
Ġprosecut ors
ĠLe ft
in als
Ġdis order
8 4
Ġw edd
Ġex ha
or ious
is k
Ġsh r
Ġrel ax
Ġwind ows
Ġthreat ening
Ġdifferent ly
Ġharass ment
Ġqu oted
Ġhealth care
Ġsub mitted
Ġar bit
Ġl unch
st ep
p a
ĠR un
Ġreform s
Ġtort ure
re ction
Ġf ate
Ġst ored
ĠBel g
Ġo kay
Ġpropag anda
Ġsp ots
Ġinstruct ions
ĠViet nam
Ġse vent
Ġround s
Ġodd s
it ter
Ġ199 2
Ġa er
ht ml
ten ance
Ġer rors
ĠOk lahoma
Ġhy dro
ic ism
G A
Ġde lic
ail ed
ĠLiber al
Ġsil ence
ĠGra ham
ĠS ab
o is
act s
ĠWar ren
Ġgrad uate
Ġafford able
Ġcirc le
se ct
ĠBl oom
Ġcooper ation
Ġp icks
Ġse ar
it ary
ĠSar ah
a a
ĠF all
est ed
ors hip
ĠEx pl
Ġstrik ing
Ġp uzz
Ġpers u
Ġstre aming
Ġcomprehens ive
r ace
Ġimportant ly
Ġc ow
Ġposs ess
W atch
Ġf ing
Ġexec ution
ĠRub y
l ined
Ġint im
Ġstrugg led
ĠS om
ĠP erson
Ġass ass
ĠSil ver
ĠLe ader
ut en
ah u
Ġg ent
ĠPr ice
Re uters
T y
ish op
Ġdes erve
ĠJer usalem
Ġland ing
Ġcal m
Ġal ter
Ġcere mony
Ġassum ed
Ġdemonst rate
Ġdifficult y
Ġag es
Ġpr on
Ġd ying
Ġh al
Ġdist ingu
as ury
Ġste pped
Ġb orders
Ġche st
et he
ĠW olf
ĠL t
ĠB ud
Ġadv enture
Ġpoint ing
b ury
ov a
Ġw aves
Ġkil omet
es see
ater n
ier ce
ĠNet flix
Ġaut onom
ĠT en
Ġprecise ly
Ġarchitect ure
Ġgreat ly
Ġprom ising
Ġcons ent
Ġconsider ation
ĠDe b
Ġdri ves
Ġdial ogue
ĠM ain
Ġtrem end
as ant
Ġnewslet ter
Ġrook ie
Ġaward ed
ĠMean while
a fter
Ġrepe at
ĠSt ory
Ġcont ribution
ĠTe le
Ġbur ning
8 3
ie v
part y
Ġsim ultane
ĠScott ish
ĠV ice
Ġdon ations
ĠInd ust
ak h
Ġinter f
it ol
ĠMag ic
Ġvo ices
Ġanaly st
ĠBru ce
ĠTe ch
cept ions
Ġg if
Ġfrequ ency
ĠComm on
Ġproced ure
Ġwant ing
ĠP res
Ġexecut ives
Ġplayoff s
o ice
Ġstay ing
ap olis
Ġb irds
Ġbi as
V D
ĠH ong
ĠA z
iz er
Ġinc hes
Ġtr illion
om y
hold ers
d s
Ġhighlight s
Ġsem i
Ġremark able
Ġwhere as
E X
rib utes
ĠPalest inians
Ġkn ee
op en
ĠJon athan
ra ig
Ġimpl ications
scrib e
Ġform ation
Ġsuper ior
Ġstrateg ies
Ġan s
it ual
ĠBer lin
St ep
d iv
ĠL ink
st al
ĠSy dney
le e
ĠM ORE
Ġcateg ories
ĠAr k
Ġf et
Ġfollow ers
Ġcre am
St ory
port ation
F O
Ġcontact ed
M s
Ġjud gment
ann on
Ġsm ile
b ered
Ġinf o
Ġemer ging
ig ious
r if
j s
ond er
v ision
ĠE ff
vertise ments
iff s
h att
Ġaccess ible
y es
T P
Ġphys ically
Ġass igned
Ġ5 4
ĠAnd re
Ġgu idelines
Ġdefe ated
Ġcr imin
Ġw ounded
Ġtri als
Ġst em
Ġman aging
Ġspe ll
Ġmin istry
Ġgr ade
Ġco inc
Ġr iding
Ġindic ates
Ġcent uries
Ch rist
c est
ĠAff airs
Ġop ens
ak i
Ġph arm
ll a
Ġmeaning ful
om ed
Ġt iss
ere nt
ĠMr s
Ġe ase
ch ild
Ġmarg in
ĠSt ore
Ġclot hing
ĠT es
Ġâ ĪĴ
ĠS ix
ĠCap ital
Ġparticip ation
ced ented
M us
Ġre vers
ar ia
Ġpo ison
ĠBre xit
Ġ1 20
ĠY emen
Ġl apt
i ac
Ġcompet ing
Ġmem ories
ĠC S
Ġthe ories
Ġrec ipe
Ġg ross
um ble
a uthor
h ard
Ġpass age
Ġag ed
ĠC redit
Ġb in
Ġdr one
Ġbl ank
Ġdisp ute
v an
Ġdam aged
Ġ199 3
ĠHam ilton
ĠL am
b ase
Ġsubst ance
Ġhost ed
T ER
Go ogle
ĠC helsea
Ġpromot ing
Ġfac ilit
Ġopen ly
ĠInst agram
Ġ19 50
ĠV ik
V iew
ĠChild ren
ĠCr ime
s l
Ġclin ical
O ut
Ġn ic
b its
ere my
ĠH old
e ven
Ġinvest ments
Ġcons ensus
ig ate
ĠLe on
ĠF al
Ġ9 9
Ġeduc ational
con st
- >
Ġdis h
Ġman ifest
Ġcust ody
it o
we ek
Ġelig ible
ĠHaw ai
Ġleg ally
Ġmiss ions
Ġend orse
er ia
Ġg ate
Ġmem o
ĠG T
Ġt ables
ĠP ict
Ġn in
Ġstud ying
H z
Ġ ?
Ġchar ity
ar ation
Ġaddress es
ad i
Ġins pect
Ġdisc ount
ri x
le ft
Ġbatt les
AL L
ĠD er
Ġ2 50
ĠAs sembly
Ġathlet es
P re
ĠTr ade
Ġfoss il
Ġenthus i
ĠMan agement
Ġsuspect s
Ġt ired
Ġhe lic
A ct
Ġcounter part
Ġn a
8 2
ac hel
Ġd ating
ĠE th
Ġspect rum
ĠM etro
ater al
ĠSt ation
ĠB al
Ġpresent ation
Ġl ux
ge red
Ġbot tle
Ġt ap
art s
ri ors
Ġv ig
Ġfund ra
Ġenh ance
ass y
ĠSe an
Ġtherap y
ĠW ales
ĠEx per
Ġper ceived
mark et
ĠT ok
Ġdomin ant
D ef
m ath
Ġback ing
ĠF estival
Ġunder lying
Ġdef ending
ĠTh rough
Ġrac ing
Ġdiscuss ing
Ġexpand ing
Ġmus cle
Ġstop s
u z
Ġbe ings
ĠMar x
ĠE qu
Ġtrans action
row s
ĠU ber
C al
Ġrec ruit
it udes
ac her
ĠG ary
Ġm ood
Ġpick ing
land o
yl um
play er
Ġman agers
or able
Ġgather ing
Ġhop efully
ang le
ĠS on
al ysis
ĠV ideo
se ction
Ġcr us
ĠLib ya
Ġimp ression
Ġh ip
ol ar
Ã ¢
Ġscr ut
Ġro y
ĠT ai
igen ous
Ġinst itution
ĠBat man
} }
Ġst ere
Ġproced ures
Ã ±
Ġp ocket
Ġcreat ures
Ġcomp at
Ġarri val
pt ions
ol n
w atch
ĠB oe
Ġe ager
Ġpoll ution
it ure
Ġfood s
Ġkit chen
oc ial
Ġrec re
Ġsurv iv
ro ph
Ġorgan ic
ĠPent agon
ĠMor gan
Ġsh ipping
Ġcapital ism
Ġins ult
Ġtim ing
od ox
Ġrequire ment
s ub
Ġunf air
ad ers
Ġm ice
Ġ5 6
ĠAss ad
ĠRep resent
ĠM ess
ĠML S
M od
R em
ative ly
ĠEl izabeth
ĠO p
Ġdise ases
Ġindust ries
ĠOak land
Ġb owl
ĠMur ray
ĠC reat
Ġhelic op
Ġdiv or
ag ger
Ġbe ach
Ġpunish ment
ab et
Ġshe ll
Ġfl ed
Ġhosp itals
miss ions
Ġt ons
ĠK ick
Ġse ed
og y
A F
8 1
ĠCome y
opy right
Ġstat ist
Ġengine ers
Ġob sc
Ġh ire
Ġmod ule
R eg
A Y
Ġcoach ing
am ous
Ġs ed
oc a
Ġans wered
r ac
S C
T R
Ġgraph ics
Ġregul atory
Ġso vere
Ġst ance
alt ies
Ġb ow
ĠKe ep
C lick
Ġexpl aining
Ġrhet oric
Ġbe ating
Ġt ut
ĠF riend
ĠEm ail
ri or
ĠY eah
em ic
ĠM it
Ġacknow ledge
ĠMic hel
Ġprincip al
Ġpull ing
erv es
Ġsign ature
br id
ol ving
Ġconv ince
ĠR oll
Ġvar iable
cos ystem
Ġp ill
Ġsearch ing
ĠO x
Ġd ies
Ġover come
Ġprefer red
du ction
Ġsix th
Ġadv iser
ĠTenn essee
Ġ !
Ġtrend s
ĠRus sell
Ġ( "
ĠTh ompson
Ġmer ch
Ġreb els
Ġinter action
Ġperiod s
G e
Ġpsych ological
M ich
ĠS ure
ĠUs ing
Ġeconom ics
ĠCharl ie
ĠB i
Ġout lets
ĠG il
ĠInt el
Ġsign als
p g
Ġe cho
ĠEx ecutive
ĠKent ucky
Ġtem por
Ġbill ions
Ġline up
Ġm ath
ĠY an
ur g
20 13
Ġ199 1
Ġset up
Ġre nd
F inally
net ic
Ġegg s
C omm
Ġse gment
Ġar r
u i
m ic
Ġbad ly
ke e
ĠL i
Ġsent enced
Ġevery day
ĠDr agon
Ġcommand er
ĠH oll
ĠA N
Ġl oves
unicip al
Ġgen es
N BC
Ġb old
Ġrequ iring
Ġbul let
Ġinv asion
w ill
Ġpart ly
Ġesc al
9 1
Ġinst ant
Ġg ig
ĠJ ean
che ck
!! !
Ġar ts
Ġg ene
Ġrem oval
Ġunder t
Ġu pload
li est
ĠH art
Ġtop ics
ĠI ron
enez uel
Ġinqu iry
Ġam endment
Ġweak ness
ĠR ather
Ġconcept s
new s
ĠMc K
P L
Ġsh oes
art ed
ĠS ound
re r
Ġfab ric
iz za
ĠDel hi
E arlier
ts burgh
Ġfrequ ent
Ġse ctions
Ġocc urs
ĠZ e
ol i
Ġm igrants
Ġcompens ation
Ġengine er
en ess
Ġl ad
h as
ĠF inally
Ġf o
Ġattract ive
ĠB ox
Ġun ve
c or
Ġ ).
Ġc iting
Ġtwe ets
Ġut ility
aren cy
gr ade
Ġpost ing
Ġridic ulous
Ġblock chain
Ġcl er
ĠCl ark
Ġspeak er
âĶ Ģ
Ġdi am
Ø §
Ġcor rupt
Ġtal ented
Ġle ct
Ġcoll aps
Ġm ask
âĢ Ĳ
ne cess
sc reen
Ġnot able
ĠThere fore
Ġe lder
Ġgen re
in stein
Ġdead line
Ġro lling
Ġcar ries
ĠB M
T op
ĠF inal
v ia
ĠE T
ent al
Ġappro aches
Ġelimin ate
ĠPri v
Ġanaly sts
Ġs its
Ġc ens
St ate
Ġinst ances
ĠSim on
Ġpubl ishing
Ġunpre cedented
Ġcol our
Ġro ots
ĠPh oenix
V P
Ġc ock
Ġb ene
ĠD ur
ĠP sych
Ġtox ic
g us
Ġcollabor ation
Ġar c
Ġinequ ality
Ġneighb ors
Ġins ight
Ġdram atically
ĠHar per
Ġhom osexual
Ġtown s
Ġpri ze
Ġextra ordinary
Ġper ception
ĠG ordon
ĠWhe ther
ĠPh ill
Ġpar ad
arg et
Ġg est
Ġmain tenance
ows ki
ĠG O
ĠG ro
Ġche aper
is dom
Ġassoci ate
d ie
Ġcou p
M ark
ĠE vent
Ġshe et
ĠB ow
ĠBel ow
Ġdist ur
ĠS av
ĠCap tain
p ack
Ġcogn itive
Ġencour aging
Ġd reams
ĠP ers
Ġse ized
Ġinterview ed
Ġdeploy ed
Ġviol ations
Ġcamp s
Ġcom ics
Ġconstit u
ĠRe agan
Ġgl ad
Ġreserv ed
Ġbu ck
Ġemploy ers
at us
Ġaim s
Ġfunction al
ĠS a
Ġmyster y
Ġdisplay ed
P aul
ib an
Ġsp an
Ġlo op
ap ore
Ġde light
c re
Ġtr aged
ĠEconom ic
ixt ure
Ġ5 7
ric ane
Ġoccas ionally
Ġv end
ĠS ud
Ġex port
T ON
Ġbirth day
Ġhero es
w a
Ġfat al
est yle
og a
Ġcorrect ly
ĠSt ew
Ġprompt ed
Ġst amp
ĠCo le
el le
Ġcontem porary
ĠA ccess
ĠJ enn
Ġprospect s
ot ing
ĠV e
Ġir re
A B
Ġrecommend ations
Ġdiplom atic
th rop
Ġp a
igh th
m ir
Ġbe ll
Ġparalle l
Ġexc lud
el ing
Ġconst itution
on z
Ġdisappoint ed
Ġmanufacture rs
Ġad equ
Ġint r
ĠSt aff
Ġmoder ate
ĠE ver
ĠD og
ol s
Ġe cosystem
Ġaccomp an
T ime
Ġdemand ed
v i
Ġ8 5
ĠG DP
ĠPhot os
Ġn ose
ĠMont real
ĠD ick
ail able
Ġinter pre
end ar
Ġple ased
20 17
row ing
Ġlab our
Ġlif etime
ĠBrook lyn
ĠT ax
ĠE st
ĠRes erve
ro ck
Ġcommunic ate
Ġfight s
Ġmod ified
n on
Ġdr unk
ĠO cean
Ġs essions
Ġwedd ing
Ġkn ock
Ġexplos ion
ĠL ibrary
Ġbi ological
Ġrep air
Ġland ed
ĠE PA
Ġ5 8
ĠAuthor ity
Ġsub sc
Ġrepresent ation
ĠG iven
Ġartific ial
2 50
le ans
f it
F i
Ġrel ation
Ġown s
ix on
ĠKh an
ĠAnton io
ĠDig ital
Ġl ift
ag en
Ġdesign er
ro t
Ġrec on
Th anks
Ġem p
Ġconscious ness
Ġkick ed
ĠOr der
Ġdef ender
Ġh anging
Ġless ons
h ist
Ġimp osed
Ġgu ests
Ġadop t
Ġan onymous
1 50
Ġs li
Ġconcer ning
w ind
Ġpregn ant
ĠF ive
inc oln
ĠB ul
Ġunder ground
Ġmaintain ing
Ġass et
ac re
ĠAl an
Ġp unch
ĠR ome
bour ne
Ġsh irt
Ġingred ients
Up date
Ġche ese
Ġint ellig
is ition
ĠCh annel
ĠCon vention
Ġpod cast
Ġinter ior
gr aph
": "
Ġemot ions
ch ing
h uman
Ġab stract
ĠAr gent
Ġcou ples
Ġless on
Ġcreat ure
Ġres olve
Ġsh ocked
Ġopp ose
W he
Ġsum mit
Ġperform ances
ĠS U
Ġvolunte ers
ĠB urn
D is
ĠB ol
Ġsold ier
Ñ ĥ
s ome
Ġstim ul
Ġlog o
à ¤
app ropri
ist ant
Ġter r
b en
Ġv ocal
Ġacc um
Ġg irlfriend
ĠProt ection
ult y
Ġjump ed
Ġann oy
ĠP age
w ed
Ġj ihad
Ġm ile
Ġn urs
S E
ĠL ear
d r
Ġ6 00
Ġmilit ants
ac les
us er
Ġgu id
ĠF ant
ĠMiss ouri
Ġprofession als
G ener
( "
ĠAn na
Inst ead
ik h
ial s
Ġbut ter
Ġs wit
Ġref ers
Ġdesk top
Ġtravel ing
Ġl ibr
g ets
Ġisol ated
Ġfor um
Ġadvoc ate
Ġexist ed
Ġopp osing
ĠCo al
Ġrec alled
âĢ¦ .
N ext
St ation
ĠC ase
Is rael
Ġintegr ation
Ġdescrib ing
Ġbox es
ĠJava Script
ĠOr leans
ear ly
Ġst ro
C D
ĠM ail
Ġmin imal
ĠH al
tain ment
Ġconf used
ĠC ustom
ĠS D
ump h
Ġpeace ful
Ġin herent
od ge
Ġsurround ed
Ġ vert
c al
s a
g ate
own ed
ĠCap itol
hatt an
ĠH and
com mun
Ġh oles
Ġme al
Ġ198 9
Ġintegr ity
ĠK now
ĠPlay er
s iss
ĠBar b
Ġp m
Ġinspir ation
Ġconfig uration
Ġs ne
ĠTr ust
ĠR s
he ro
ð Ł
Ġexp ense
iss is
Ġcred its
ĠN on
ab e
ĠB an
Ġsub ur
Ġide ology
Ġelect oral
Ġy ell
Ġsil ent
Ġd ual
ĠMar ine
ĠDo ctor
Ġst ack
Ġsusp ic
Ġbur ied
T E
ĠNev ada
Ã §
im ize
Ġdesper ate
ĠO cc
st arter
I d
Ð º
Ġsc ream
Ġcl ip
Ġcho osing
Ġbom bs
at ics
Tr ans
ĠC B
Ġb ands
Ġteam mates
Ġfle et
ĠS H
i ens
Ġcon vert
Ġaccept able
t ra
ĠOr lando
ib l
Ġj er
G u
ĠW right
Ġregist ration
L ist
ĠPort ug
ĠHit ler
Ġbrut al
aw ks
S U
N et
ĠM ove
Ġsc ar
Ġan cest
ĠOn line
ĠAll iance
e lection
Ġsubscrib e
Ġstrugg les
ar o
Ġkey board
Ġmoment um
ĠLe ban
ĠAre a
Ġpromot ion
ĠAr senal
ĠV en
Ġev ident
F l
Ġqu it
h ire
f ather
N ame
Ġorgan isation
Ġwond ering
ĠInd ones
Ġclos est
m its
to o
Ġembr ace
ĠSte el
book s
is d
ĠFollow ing
Ġrefuge e
ĠH amp
Ġte eth
AR T
Ġpro be
ĠH an
Ġut ter
Spe aking
che ll
Ġat he
ĠW ord
Ġoccas ional
Ġmon ster
str ong
Ġas sembly
Ġbank rupt
Ġrefere nces
Ġjournal ism
Ġexp enses
Ġsubsequ ently
ou b
st op
ok er
Ġpr ide
Ġgu ards
ĠM un
Ġinterpret ation
ĠV enezuel
Ġy eah
ï ¼
h r
Ġrem oving
Ġor bit
ĠInd ependent
Ġl in
G l
ĠW rit
Ġprof ound
ip edia
re tt
20 12
ĠPit tsburgh
Ġcomprom ise
Ġkn ife
Ġdistrict s
Ġexclus ively
Ġsurv ived
ĠS ource
Ġconsider able
Ġst ating
Ġeng aging
ĠC ould
Ġref use
Ġb ird
Ġcharacter istics
ĠMount ain
ĠR aj
Ġjust ify
H P
Ġdom inated
Ġ7 2
Q L
Ġbrief ly
ĠN azi
b ound
ars on
ĠR est
Ġch ip
Ġmin isters
Ġpro st
gr ad
Ġelect ron
Ġtremend ous
Ġcont rary
re nd
Ġg ri
Ġsustain able
Sh are
Ġload ed
Ġfl our
Ġdisapp ear
Ġnerv ous
Ġrout es
orne ys
Ġpro portion
Ġsoph istic
at tered
Ġexecut ed
oc ated
Ġ8 00
el ve
ĠD uke
Ġas ylum
ut ter
ĠEvery one
Ġgame play
Ġsex ually
7 00
Th ank
He y
ĠB u
Ġp ir
Ġdon ors
Ġconf usion
ĠD ream
Ġrevolution ary
am ine
c ap
ĠA aron
ĠAnd y
ĠP ant
A g
Ġcur ious
ĠTre asury
Ġh arsh
lim ited
li hood
inc ome
K E
Ġatt ending
ĠAd ams
im mer
ĠI M
Ã ¨
sec urity
U C
Ġspeak ers
Ġc abinet
Ã³ n
Ġnow here
ree k
Ġfle e
Ġv oid
Ġbr ands
Ġch ronic
Ġprint ed
ĠTes la
ĠSh ort
Ġcharg ing
Ġeng ines
Ġphys ics
re ck
ĠH aving
f unction
ĠM ult
Ġconcer t
sc ar
ĠSher iff
Ġout comes
ing e
ĠA ren
ĠOff icer
M AN
ubl ished
ol id
ot te
Ġo rient
in st
Ġmir ror
ĠJ un
Ġstreng then
ĠG ib
th ood
Ġfail s
op t
Ġsp o
Ġobs er
Ġcha os
. ]
Ġpass enger
ĠiP ad
ĠCur rent
Ġcrimin als
Ġf el
ĠSp ir
Ġstead y
Ġl obb
ĠRob inson
ĠNet her
mer ce
ĠÂ ±
Ġrob ust
ĠMan hattan
ĠC ON
wh ite
I E
Ġend ors
Ġspec ulation
ĠCh ange
res hold
Ġcert ific
Ġde emed
ĠTal iban
Ġdro pping
Ġh iring
ĠN orm
ĠGi ants
ĠSing apore
ĠA lp
Ġintegr ated
ĠPer ry
Ġpres ents
Ġav o
ĠB and
ĠF A
Ġguarant eed
app er
Ġf ert
Ġep ic
Ġle aked
ĠT s
ĠK ings
Ġpack ages
m ble
Ġple asure
B N
Ġsusp ension
Ġchalleng ed
Ġpack ed
Ġcheck ing
à ¸
Ġb its
g ood
Ġv it
Ġeng agement
Ġrad iation
Ġsl ot
Ġbomb ing
ĠH u
Ġpat ri
le ep
Ġd a
Ġal ert
P al
ist le
Ġw et
r ics
Ġhun ting
ĠUS B
ĠT el
ri v
Ä ģ
Ġprodu ces
Ġwitness es
ĠC raig
oph ob
Ġedit orial
Ġdef ended
Ġrec overed
ĠH oly
ment ed
R ed
Ġdevelop ments
Ġsimultane ously
Ġbo om
ĠL og
Ġbacter ia
Ġblock ing
R ight
ĠL ater
Ġ5 9
Ġattract ed
Ġ6 6
Ġfig ured
ĠO pp
ĠH ung
Ġcor rel
Ġall iance
Ġresearc her
Ġtaxp ayers
ĠEnter tainment
ĠL es
ĠN one
Ġcap s
c ard
im b
ĠJ eremy
Ġhost s
Ġc inem
Ġpat ent
ĠRuss ians
iz arre
Ġexam ine
AT CH
ĠF uture
Ġvari ables
ast e
ER E
ĠL incoln
if ier
Ġo xy
Ġem bed
Ġj unior
lyn n
ate ful
Bl ack
ĠG h
ut er
ĠChair man
Ġpubl ish
ĠT ower
J P
Ġt ear
on ed
Ġ6 2
t est
Ġmet h
Ġbre ast
ĠV lad
D R
g ly
Ġv ent
ĠPol and
ĠUkrain ian
ĠStud ies
ades h
gg ed
d ep
Ġen act
C ar
m ay
ĠD ak
Ġfl ights
om ic
Ġaccur acy
Ġfl av
ĠW i
Ġdist ribut
Ġl os
Ġimpact s
Ġsurprising ly
Ġsol o
Ġra ises
Ġburn ed
ĠK it
Ġr ic
ĠB or
d am
ĠS ci
Ġang le
secut ive
ĠW ould
Ġev ac
Ġqual ified
Ġdecre ase
ĠC PU
o ft
n ie
Ġev olved
v as
Ġfl avor
olit ical
im ir
Ġun necess
ac o
Ġas semb
ĠT otal
Ġintim id
w ich
ĠU b
Ġcourt esy
ĠO R
C or
Ġfing ers
ĠMP s
r ition
Ġproduct ive
Ġv oc
Ġbl amed
ethe less
ĠH IV
Ġdepend ent
Ġexpect ing
Ġtransfer red
ĠR angers
Ġen abled
Ġident ical
Ġvis its
Ġexpect s
Ġl ane
d ict
ĠG ill
b ul
Ġign or
Ġacc ord
ĠGr iff
ter ror
is hers
an im
B ook
ĠStew art
Ġv enture
b in
ĠC C
Ġb arg
Ġsh ops
Ġdepart ure
ĠComm and
B r
ĠMiss iss
Ġkill er
Ġrepe al
Ġmotiv ated
Ġrest ore
Ġagree ments
ĠD u
Ġconflic ts
th odox
Ġorgan is
Ġsc ared
Ġforg otten
d f
ĠTh ink
id en
ick ed
ul se
Ġin her
Ġnation wide
ĠEd ition
b ian
Ġcy cl
Ġinflu enced
Ġcrit eria
ĠN i
ern and
Ġoccup ied
Ġanim ation
ĠB C
Ġtrail er
Ġrank ing
ĠP ope
ĠSh ould
ĠTh ings
Ġ `
Ġback s
ah oo
Ġtele phone
Ġoccas ion
T O
ab out
un ity
Ġanal ys
ĠRed dit
Ġfunction ality
Ġcheck ed
Ġconcent ration
ĠMod el
look ing
Ġhousehold s
l ink
Ġre ass
ond uct
Ġalgorith m
Ġcour age
ra h
ress ing
ĠSupp ort
Ġpromot ed
ĠH ug
ou p
Ġimp rison
am ents
Ġexplicit ly
Ġbat ter
Ġdes p
Ġbab ies
i ar
Ġt anks
Ġo ught
Ġst atic
ĠPro duct
Ġrele asing
Ġant ib
ĠPl ace
ri ke
Ġsub tle
For mer
IL L
Ġst ats
Ġb ases
Ġstri p
Ġdo ct
l arge
u ating
âĶĢ âĶ
Ġprivile ge
ĠJ erry
M B
ĠMore over
ag ine
ĠE nt
G r
ĠWar ner
ĠN O
Ġmet ers
Ġentr ance
ipp i
Ġn od
Ġtow er
Ġinvestig ated
Th ree
Ġsen ators
z one
ĠC old
ĠCanad ians
ie re
Ġh ub
Ġw ise
Ġover l
Ġappl ies
Ġform ula
ĠStand ard
oll ar
ĠE b
ĠEgypt ian
Ġm art
ĠChrist opher
Ġinev itable
bre aking
Ġuncertain ty
Ġprov ider
act or
Ġpain ting
Ġcontin u
Ġmod est
Ġl ens
Ġinflu ential
Ġdest ination
ĠQue ens
ĠM ap
for ward
iz ations
" ,"
Ġch ips
be ing
S upp
Ġall y
Ġinf ection
Ġd imin
le ading
ĠUn ivers
Ġj et
k es
Ġsole ly
Ġbel t
Ġsc rew
Ġin aug
Ġ6 3
Ġins ist
G ood
Y eah
ry ing
ĠT R
ĠN iger
Ġthe ft
u ccess
ĠM arg
Ġpolit ician
ĠAl aska
Ġtransp arency
ĠPlay Station
Ġinvest ed
Ġsing er
Ġimm une
ĠOtt awa
Ġprov isions
ist ance
ĠSt ock
t own
Ġhand led
o vers
Ġp y
Ġuncom fort
amp a
ĠOlymp ics
ĠLouis iana
Ġimp ressed
Ġin box
ĠO il
Ġoper ator
S D
ard o
unt u
ĠNether lands
E m
Ġball s
Ġt ent
il ation
ĠJ ane
Ġcol leg
Ġsim ilarly
Ġlif estyle
Ġhead lines
id al
off s
ol as
Ġbo ards
rif ice
? )
ĠTre k
com p
Ġdis abled
th ur
ĠK r
ant e
ix el
ĠStan ley
Ġoper ated
Ġregard ed
v ar
ĠTy pe
Ġlaunch ing
ĠS N
Ġrel uct
ĠEx p
ach ment
w all
D own
ĠM other
Ġb ol
ĠD rug
Ġvol unt
Ġphotograph s
s uch
Ġkid n
? âĢĻ
Ġsa ke
c itation
Ġke en
Ġdet ention
tr ack
Ġcon secutive
r c
Ob ama
Ġg ym
ĠUn like
in ite
m illion
). [
ĠBl ood
Ġprosecut or
Ġfil ter
ĠD a
Ġprosec ution
ke ley
Ġsu ck
angu age
Ġconv iction
ig e
ut her
Ġearth qu
Ġro lled
Ġk iss
ĠT able
on ing
eral d
ar med
ist a
Ġin ex
ĠMod i
or ate
ĠCorpor ation
ah a
ĠCapt ion
t arian
ĠCor p
bit ious
Ġbul k
f irst
ĠHamp shire
Ġm ales
ĠF O
J o
Ġun re
Ġt ears
Ġtraged y
Ġch ocolate
Ġm ouse
Ġpo et
Ġpres erve
ll or
Ġguid ance
ĠF ather
ĠT am
ĠBe ing
Ġle ak
ĠPhilipp ines
B el
ĠFore st
ur ches
Ġn u
le an
ass ion
Ġb ags
ĠS everal
Ġrec k
bl ock
Ġdest ro
Ġexam ined
Ġsy nd
Ġaccept ing
Ġel abor
Ġmiss iles
F urther
Ġabs urd
Ġbene ath
Ġne ur
Ġparticip ating
viron ments
b es
Ġ1 000
ĠH ans
Ġneighborhood s
uck er
ĠStan ford
Ġcompe lling
Ġreflect s
ĠW y
Ġcompl ained
Ģ âĶĢ
Ġad ap
Ġb other
Ġcontro ller
Ġlux ury
ĠVictor ia
ĠEd it
ĠMar c
ĠGr ant
ĠM orm
l aim
ay a
Ġthe ater
ĠMar io
Ġen for
ĠN elson
Ġshel ter
st ra
boy s
Ġf er
ĠMedic are
ĠCl oud
spe ed
r in
Ġf its
ĠMedic aid
Ġjur isd
m ons
ous es
Ġpost er
ust ing
Ġ< /
ĠK night
Ġcons ists
âĢĿ )
o pp
Ġp ose
Ġsignific ance
Ġpo lling
b at
ĠFil m
Ġsto pping
friend ly
Ġoccas ions
ne g
Ġb one
v o
ĠD E
ĠTok yo
ĠRub io
Ġwire less
Ġreal istic
Ġexc use
ĠL ocal
Am ong
Ġ ..
E ach
ĠC as
ĠIm m
ĠCh ron
Ġt ension
Ġaccompan ied
Ġsee ks
as m
ĠG ard
Ġback up
ot ion
Ġrese mb
Ġmand ate
ĠH ad
f ish
ĠS port
Ġthe oret
ĠP a
ĠContin ue
ell o
Ġass ists
Ġposs ibilities
ĠQu est
ect s
Ġbet a
Ġaccus ations
ĠW inter
ia h
Ġadv ent
Ġcook ing
ĠC R
ĠCh ampions
ĠAb u
Ġsupposed ly
Ġin hab
ĠSnow den
Ġemphas is
Ġfin ishing
ĠD al
p ing
Ġsust ained
Per haps
c at
ĠMal ays
Ġbeat en
ĠS EC
ite ment
Ġb ump
i per
ĠP ear
Ġd ressed
Ġa wards
Ġproject ed
ism s
ĠNot hing
Ġt orn
Ġinnov ative
ĠEvery thing
ĠM ind
Ġaffect s
ĠAb d
Ġpol ar
Ġprevent ing
Ġconstruct ed
ĠK a
ĠFl ash
ĠB ir
ber y
Ġlong time
AT ION
th al
Follow ing
ĠS ection
Ġfuck ing
ĠV in
Ġer u
Ġg arden
Ġ3 60
I O
ĠOrgan ization
Ġspeed s
Ġf ed
Ġoper ators
ĠSo ft
il st
Ġg ut
ĠFin ancial
Ġdr um
Ġman ual
Ġout standing
Ġpass word
Ġmortg age
ĠHam as
Ġent ity
ĠPy thon
c ott
Ġrec ession
ĠN ich
un a
Ġw isdom
ĠSte am
ĠN ature
Ġdocument ed
Ġtrad ed
Ġint rig
ĠI V
Ġg olf
ĠJim my
Ġoccup ation
ĠKurd ish
Ġold est
Ġf ut
Ġdocument ation
Ġfavour ite
io x
Ġpra ised
Ġresident ial
inc ial
Ġspot ted
Ġcop s
cent ury
B ar
eg a
ug by
Ġreven ues
ĠComm ons
ĠTh ird
Ġlay ers
Ġwal ks
olit an
ĠM A
Ġinteract ions
ĠPatri ots
Ġsur ge
ch arg
Ġb icy
Ġaw ful
Ġpan els
Ġthe r
Ġcalcul ated
ĠD om
Ġinf ant
Ġcirc uit
c ular
i ated
Ġexperiment al
Ġ6 7
â Ĥ¬
r ons
D C
Ġrenew able
qu es
Ġautom atic
ĠC L
Ġmyster ious
Ġd irty
any ahu
ĠL ad
Ġtr ains
ĠOther s
Ġth reshold
Ġt ale
ĠN ash
Ġ6 8
ĠK al
Ġdeal t
ĠR h
Ġreview ed
Ġ6 1
âĸ Ī
l ied
Ġpain ful
Ġgl obe
ĠC itiz
le ted
m n
Ġco in
Ġtri ps
ir s
ĠTr ue
ĠAir port
re qu
ĠWay ne
Ġcle ared
er r
om er
ĠF le
Ġearn ings
ard ed
~ ~
B en
Ġcross ed
Ġadminist rative
Ġconven ient
Ġgraph ic
Ġr iders
ĠE mer
ĠN ik
Ġl ady
Ġliber ty
Ġr anging
Ġb izarre
Ġp our
Ġit er
ut o
Ġor g
Ġhe s
for mer
Ġdispl ays
Ġicon ic
Ġen vironments
Ġrob ots
Ġmother s
Ch ina
Ġhost ing
Ġam bitious
M art
Ġ198 8
d ing
ow der
sel ess
Ġdes ert
be at
Ġres erve
Ġsec ular
M on
Ġsent iment
Ġpred ec
ĠMc Donald
P s
is ive
j amin
On ly
Ġconver ted
ĠCl imate
Ġtiss ue
ĠMur phy
ĠL arry
>> >
Ġt um
ĠA FP
ĠF OR
Ġdrop s
ĠDe ep
sh ore
k ind
D id
Ġexplo it
ĠDe an
w ords
ĠRed s
ĠSum mer
Ġcreat or
Ġres ort
c ount
Ġaddress ing
ĠV ar
Ġan ch
Ġs ons
Ġsafe ly
Ġh iding
Ġatt orneys
Ã ¥
Ġdevast ating
EM ENT
t wo
Ġsp ray
Ġsleep ing
u ably
Ġcross ing
ĠS in
Ġp ension
ĠS ac
Ġrestrict ed
Ġarrest s
Ġw ore
Ġscrut iny
IC E
u j
Ġunf ortunately
put er
Ġbur st
ĠP ir
Ġlibr aries
Ġdepart ments
Ġmurd ered
Ġcompet itors
ĠD rive
Ġwh is
Ġal ign
Ġcontain er
Ġavail ability
Ġnewslet ters
Ġfil ing
ĠSing h
k ward
Ġadop tion
ail ing
Ġnewsp apers
Ġm isc
b et
at ter
Ġproduct ivity
Ġto ss
p in
Ġre ign
Ġbuild s
ĠS E
Ġdisc rimin
Ġpregn ancy
ĠN S
cel ona
Ġover night
Ġindic ation
Ġappear ing
oy d
Ġpubl isher
Ġear ning
ight ing
ar ians
Ġcomb ine
Ġview ing
Ġd uties
e velop
AS H
ĠMan ning
o j
Ġm m
Ġf ishing
Ġreflect ed
is ode
ĠT an
ari os
Ġuncomfort able
ĠMag azine
Ġt u
ĠWh it
Ġreg ret
go vernment
Ġm unicipal
ĠFurther more
n amed
Che ck
d ata
g ence
ĠN ative
ag u
d ev
U D
Ġhor rible
ac cept
b ably
o op
Ġchemical s
Ġrel ie
Ġan onym
Ġc ave
Ġsepar ated
May be
u els
Ġsophistic ated
W orld
Ġr ivals
Ġre wards
ĠF ig
or ia
Ġv iable
Ġdes erves
Ġpr icing
ell er
Ġact ed
ĠPh ys
ĠW iki
Ġrel atives
Ġin du
ĠM and
Ġwin ners
Ġre cept
ĠMad rid
Ġsl ide
Ġprepar ation
Ġequ ipped
vers ion
Ġr itual
Ġlimit ations
ĠCh rome
ĠIn n
ern el
Ġ198 4
Ġcomplex ity
Ġamong st
ĠRon ald
Ġ= =
Ġmechanism s
Ġpe er
Ġcomm od
les h
Ġparam eters
ĠF ederation
Ġfire arms
Ġcar rier
Ġb ip
Ġto b
ĠN az
s ize
Ġsuggest ions
ĠHe art
i ors
g al
ĠN a
Ġdelay ed
ĠHT ML
ĠBl u
Ġexpl oring
Ġme ets
win ning
Ġtou g
Ġ198 6
Ġco ord
ĠTai wan
Ġlight ing
Ġcur ve
t it
Ġstart up
ĠColl ins
em it
Ġintellig ent
Un fortunately
Ġg host
Ġcelebr ated
ĠMississ ippi
Ġab und
Ġce ase
are r
Ġinter ven
/ .
Ġquiet ly
Ġens uring
ĠP oll
X X
AT ED
b urn
Ġreb el
ĠL uke
Ġnight s
m ap
qu er
Ġcollect ing
20 11
Ġtransl ation
Ġworld s
Ġdet ained
f i
Ġor ange
ĠMcC on
prof ile
DA Y
Ġbe ef
Ġemploy er
ĠD VD
ĠLe vel
P at
ĠB ab
ac ies
Ġrad ar
ĠS ex
Wh ite
Ġinstall ation
ĠBl ock
Ġdeliver ing
a very
Ġdesign ated
Ġco ins
Mich ael
Ġm igration
Ġdeb ates
Ġ) ;
TH E
Ġpled ge
ĠMel bourne
od a
Ġcat ast
ĠE C
Ġgr ants
Ġca ution
Ġoff season
Ġnot ably
Ġbug s
Ġtable t
em in
hy th
Ġthem es
R O
u ates
ĠEx press
Ġw rap
n atural
Ġgold en
g ov
Ġdeleg ates
Ad vertisements
A tt
Ġcour ses
âĢ ³
Ġcount less
ĠEag les
ĠD isc
Ġwitness ed
Ġgrad ually
ĠQue bec
al id
Ġcomm ands
ĠCub a
c ode
or i
ĠCoal ition
Ġt ends
Ġviol ated
Ġmean while
ect ed
Ġpsych iat
med ia
Ġdemonst ration
p ot
Ġdem o
ĠC rit
ĠP od
form ance
Ġcomment ary
wit zer
ĠSwed ish
Ġann ually
Ġfor b
Ġp ending
ond s
ĠHe at
ĠE ve
Ġobserv ations
Ġth ro
or ical
ath on
ĠS aint
op les
ers ion
arent ly
ĠT oy
âĢĻ âĢ
arm a
Ġremem bered
Ġf ires
Ġquestion ing
ren cies
Ġclim b
ĠSm art
ĠN ap
Ġlapt op
F S
Ġver ify
Ġimp ose
Ġhighlight ed
Ġrepl acing
ru p
Ġcor n
ĠL ady
Ġse eds
Ġcont ents
Ġh unt
Ġpre view
el come
M edia
Ļ âĢĻ
found er
Ġfrust ration
ĠMarsh all
Ġdiscipl ine
Ġpat rol
Ġsupp lement
Ġpoor ly
ond a
ude au
Ġcom ed
Ġgra ve
ĠPro gress
Ġpra ise
Ġt empt
ĠPe ace
ĠAr ts
Ġf urn
Ġbath room
ĠP el
ra it
pie ce
Ġact ress
Ġas pir
Ġhapp iness
ĠK y
Ġexpl oration
Ġgent le
ĠR ound
Ġcru el
ĠL ions
om ach
Ġst arter
out ing
ĠHun ter
Ġprevent ed
ĠBl ake
Ġch amber
f ile
ĠL en
ĠW ard
Ġpr ayer
Ġcult iv
ĠSt orm
Ġven ue
Ġper mitted
Ġinst antly
Ġoxy gen
ĠH uff
W ar
Ġalt ogether
ur ities
Rep ublic
Ġbond s
at al
Ġamb assador
ĠBe at
ĠMot or
. ),
Ġaren a
ug s
Ġcon ced
ĠBer keley
Ġdisapp eared
Ġplan es
Ġ7 6
Ġtechn ological
M in
st ring
ĠA y
sh ot
ier re
Ġsuggest ion
ĠRog er
Ġpart ially
Ġagric ulture
ĠO w
anc hes
Ġun l
Ġd il
Ġdr inks
oc ur
ĠCamp bell
fl ow
ĠFer gus
Ġs izes
Ġincor rect
T witter
Ġprotect ions
ĠF R
h ill
Ġfasc inating
ĠEnvironment al
ĠChristian ity
g roup
Ġvacc ine
am an
ĠHawai i
ĠAdd itionally
Ġlog ical
ĠM as
ĠH ann
Ġpar ks
ĠM uch
au cus
Ġsty les
at ical
Ġsupp orter
Ġhonest ly
Ġad j
Ġal ike
ĠL aur
appropri ate
ĠNC AA
Ġpro l
Ġtob acco
Ġmarg inal
en cer
Ġto ll
Ġsum mary
tt es
olog ically
Ġfle w
ĠG ene
ĠKick starter
Ġadv ised
ĠG ab
Ġheart s
Ġcomp r
Ġsing ing
Le aks
Ġw ound
The ir
Ġappoint ment
ĠQ ual
ĠFor ces
ĠCongress ional
Ġeth ics
ĠJ en
Ġst unning
es ides
Ġcap ability
ĠMit chell
Ġtrans mission
Ġenter prise
ĠC ry
ĠVlad imir
Ġmet aph
ch ron
ĠSpe aker
b u
Ġpros per
Ġp owered
ĠMan ager
Ġreact ions
ĠEd itor
Ġess ay
Ġelect rical
Ġc ous
pl ing
Ġst ressed
Ġha z
p y
ĠT odd
Ġfac ulty
Ġm akers
ĠG re
ĠCor ps
Ġas h
ĠAren a
Ġce iling
Ġsk et
s k
Ġder ived
ĠRe id
l ast
Ġsevent h
ĠN ame
iv an
Ġmount ains
Ġceleb ration
Ġr ice
Ġpress ing
Ġarg uably
Ġdraft ed
Ġc rown
Ġdam n
lect ed
Ġdep os
Ġra id
ĠJ ess
ĠR T
ĠOr ange
ĠU I
N T
Ġend less
F e
ĠIm p
Ġtravel ed
ut t
Ġcompl ain
ĠB enn
Ġdr ones
ĠS essions
ĠCommission er
ĠOx ford
T IS
Ġin eff
ĠBr us
ĠR ow
g ments
Ġaw kward
Ġbu nd
ore r
witzer land
Ġapp lying
ĠWat son
Ġsac rifice
Ġaccompl ished
Ġshoot er
ĠB ah
g ary
( '
Ġbub ble
Ġwe aken
ult s
T ake
ĠF lynn
Ġep id
on ia
Ġmechan ics
Ġassum ption
augh ters
Ġadvoc acy
Ġc ats
Ġhost ile
im s
Ġbre ach
Ġreveal ing
B L
Ġfr act
Ġrespect ive
hand ed
b ie
Ġscr atch
H ave
st orm
ĠMod ern
S everal
Ġexpert ise
ĠDak ota
Ġdev oted
Sec ond
h ol
at oes
ĠPark er
ĠInd ians
ĠB aker
Ġan arch
Ġcirc les
m are
Ġstrong est
at in
ĠR ap
ĠCh all
writ ten
Ġfocus es
D E
form ed
ip her
Ġsh ocking
Ġsw ord
Ġcal endar
ue z
o ard
Ġaud iences
Ġm ic
Ġ- --
Ġl one
ĠK as
Ġcitizens hip
Ġbuy ers
ag raph
Ġconfirm ation
ĠMedic ine
um ing
W S
E ng
Ġtr ucks
Ġ7 00
Ġpartic les
id th
Ġfr ank
Ġacqu isition
Ġconclus ions
Ġcomput ing
Ġsa uce
â Ħ
s ur
ĠLaw rence
uer to
Ġunnecess ary
Ġdirect ors
m id
D ata
Ġro d
Ġl yr
ĠD ate
B re
Ġline back
act ory
G M
Ġpen alties
Ġdec or
it ate
h alf
Ġsp y
Ġlong est
Ġrespond ing
ĠTem ple
ll i
li ver
v ol
v ious
n or
20 10
H ist
it ivity
and ed
ĠF ind
Ġbit ter
ĠE D
M en
b rew
by n
Ġst ir
ĠRes p
ĠH us
oc us
Ġhistor ically
Ġent ities
ĠMor ris
at re
Ġad vertisement
Ġinter rupt
ĠD or
Ġadd iction
Ġy ard
Ġbe ars
Ġpl acing
ĠY ang
Ġcontribut ing
Ġbound aries
Ġg reet
Ġqual ify
st an
ĠFergus on
Ġunderstand s
ĠSun n
Ġcomp osition
Ġd uration
? '
j an
Ġquant um
bor ne
ĠHot el
Ġconvers ion
Ġsh ake
Ġfrust rated
Ù Ħ
Ġcoordin ator
ĠLeg isl
Ġoper ates
Ġorient ation
Ġhack ing
ĠSaf ety
ĠP rom
z es
ĠBar celona
M M
Ġc am
Ġst un
G iven
ĠR oc
P I
ĠRec ords
Ġpri est
Ġfemin ist
le ments
ĠHis pan
ac ular
ĠJac ob
In ter
Ġ198 7
B ig
and y
âĢ¦ âĢ
Ġdist ant
Ġmotiv ation
Ġfast est
Ġt ar
mind ed
Ġgro cer
Ġpain ted
Ġpop ul
bo ards
ĠI an
S et
ĠNet anyahu
um m
out heast
Ġped est
ĠF CC
lim inary
Ġover d
con nect
ĠR ain
Ġn ode
¦ âĢ¦
IS T
Ġd ensity
ĠU C
PD ATE
Ġovers ight
Ġtun nel
ĠR y
Ġexperien cing
Ġcontro lling
Ġcount ies
or ph
Ġm ild
L a
Ġsaf er
ĠH end
te ch
ĠS ong
Ġt ill
f s
Ġv ague
Ġ197 9
Ġdiv ide
b les
ĠF if
pro t
ĠB E
ĠSw iss
k m
M ed
Ġtrans formation
Ġdirect ions
ĠB art
ast ed
Ġrece ives
Ġsent ences
Ġimper ial
le ton
d ec
m art
Â ·
F igure
Ġu gly
Ġsup rem
Ġilleg ally
com ed
Ġprob ability
ac er
Ġint ensity
Ġcomp osed
ab ling
E uro
Ġenjoy ing
ĠC os
og g
ĠAbb ott
w estern
Ġhe aven
Ġd ign
ĠS ide
s upp
Ġmand atory
spe cific
AC K
Ġconserv ation
Ġachieve ment
Ġg aining
ĠRem ember
ĠBloom berg
H ar
ry ption
Ġins ane
ĠAgain st
Ġagric ultural
P ar
Ġp or
Ġbal anced
Ġl ung
Ġ6 9
Ġcondem ned
Ġst omach
Ġ198 5
Ġres idence
Ġdist inction
ĠL ie
Ġprint ing
Ġp ione
Ġemer ge
Ġprot otype
ĠB eng
ĠC a
Ġw ings
he alth
Ġspace craft
Ġinvest ing
Ġaccept ance
Â Ķ
Ġ7 7
Ġtou ched
ĠR ice
Ġt une
Ġz omb
Ġto ile
ĠTe a
Ġiniti atives
ĠB uilding
Ġexch anges
oty pes
Ġsc ary
Ġp ays
ĠD J
Ġide ological
ay ed
Ġp ink
ĠBl og
m ain
or ient
Ġscen arios
idd ing
Ġf illing
Ġmanufacture r
ĠBe h
ĠSte in
ĠBen jamin
ĠT ampa
ĠEv ans
ĠE lection
ro c
Ġser ial
âĦ ¢
Ġinf ring
Ġconst rain
ock er
lam m
Ġrot ation
âĢ ĭ
Ġrespect ed
ĠMc M
w hen
ur i
ĠK u
ĠD raft
Ġpress ed
Ġnon profit
Ġpe ers
b ecause
Ġacqu ire
Ġc ake
Ġoper ational
Ġinc omp
Ġcrop s
Ġl anes
m other
abet es
ĠK l
in itely
UT ERS
Ġcomple tion
ĠLa ure
Ġhigh way
Ġtreat ing
umb led
Ġprior ities
Ġsubsid ies
Ġexplos ive
Ġanim ated
Ġres igned
ec onom
g t
Ġe ars
Ġl un
ortun ate
Ġsl avery
Ġdifficult ies
ĠAr ctic
ch i
ust ers
i ary
ĠM obile
d eg
Ġis lands
ĠCo hen
au c
ĠÂ ©
st ory
Ġfree ly
Ġch urches
ĠCh ance
w he
ock ets
Ġsh orter
Ġfr ight
ow ell
Ġform ally
Ġappro ve
Ġreserv es
Ġt el
Ġdes ired
ol o
Ī âĸĪ
Ġrif le
Ġqu otes
ĠG a
ĠR io
Ġrespond ents
Ġparticip ated
Ġex em
ĠBr andon
Ġb ones
Ġdiscl osure
th ink
Ġb io
ĠF igure
ĠR ail
z b
r idge
ble m
ĠA wards
Ġcrowd s
Ġ19 30
Ġhuman itarian
Ġworth y
Ġvolunte er
ĠTe xt
Ġs her
ic ut
Ġmechan ical
Ġtut orial
val id
ere r
ĠÃ Ĺ
Ġcle ver
Ġsec ured
Ġre hab
Ġh ier
Ġjud icial
o ons
Ġatt ributed
Ġrum ors
Ġcon j
Ġm amm
Ġcr ude
ch arge
ĠS aints
Ñ ı
Ġmon etary
Ġdeliber ately
ĠCent ury
ĠF ro
( );
ict s
Ġcult ures
pro duct
Ġro cks
b art
Ġanticip ated
Ġin hib
Ġflex ible
erv ing
Ġeconom ies
is en
ĠN eed
ud ge
K ey
ĠMcCon nell
Ġinc ons
Ġb ass
im ens
ĠR aid
r ane
at ile
ĠK yle
Ġexp ed
Ġgr ateful
Ġelder ly
Ġconsequ ence
Ġj okes
s ized
Ġher itage
Ġpan ic
Ġteen ager
Ġdis par
ab l
Ġspread ing
Ġinter rog
cont rolled
Ġdisp os
Ġflex ibility
Ġto ken
Ġaff air
ĠSm all
Ġaltern atives
Ġch ap
ĠF arm
ici ary
ĠT alk
Wh ich
Ġz ones
Ġn aked
Ġdecl are
ĠCirc uit
d rop
ĠP ok
c rat
Ġvir al
gl as
Ġfin an
Ġabs ent
ĠK erry
ell a
Ġattend ance
Ð° Ð
ĠT erry
Ġadvant ages
az y
Ġtrig gered
B est
Ġbu zz
ĠAlbert a
iz ard
Ġtechn ically
Ġre aches
ĠS witzerland
ĠM itt
ĠCh ap
Ġt ensions
Ġp osed
ĠB uck
Ġdetect ed
Ġinst inct
Ġkn ocked
VER TIS
Ġdesign ers
z o
Ġdistur bing
C urrent
Ġprev al
ĠE arly
ĠArt icle
ll ers
ĠT reat
Ġpled ged
ĠT un
or ig
s ky
ul pt
ĠBrus sels
ĠPost s
ur se
Ġinstru ments
A ust
val ue
Ġs ends
R T
Ġsatisf ied
ĠI C
Ġprocess or
Ġw rapped
il ateral
ĠM ov
Ðµ Ð
are ttes
ĠT a
st art
Ġexc itement
iv a
Ġf are
Ġgreen house
Ġshif ted
Ġflu id
Ġequ ity
Ġbreak fast
N orth
ne ver
Ġflo ating
Ġdo se
Ġremind ed
ĠKir k
ere n
Ġharm ful
ĠP uerto
inc inn
ĠPart ners
Ġtransp arent
urn ed
Ġtr apped
Ġrep ly
Ġwel comed
Ġn ull
d i
Ġapp eals
ĠCamp aign
ĠFrank lin
Ġhar vest
Ġres olved
Ġlegend ary
Ġsu itable
ation ally
ĠAnt i
ĠC row
b est
ĠI ss
Ġmag ical
Ġbr ains
Ġref using
Ġfit ness
Ġ7 3
Ġavo ided
pr ising
Ġgr asp
Ġport fol
Ġident ifying
est one
ĠGr ay
Ġdecl aration
Ġannoun cing
Ġ7 4
Ġrec y
Ġab ol
it ably
Ġinn ings
P ress
ĠAm b
on er
f ox
Ġl ib
Ġh orm
ĠLyn ch
ĠBuff alo
Ġste ep
Ġprov incial
ĠCommun ist
Ġcondem n
Ġha bits
oc ate
Ġrus hed
ĠM D
Ġimm igrant
Ġmut ual
Ġem pire
Ġhat red
ĠBar ry
st ock
ĠM aine
Ġhy brid
s ki
Ġassum ing
ra ham
Ġminor ities
Ġoptim istic
Ġhope ful
Ġindic ating
Ġedit ors
Ġexcess ive
Ġfro zen
Ġwh ites
ĠPhil ip
d ale
Ġbrow s
Ġbel oved
incinn ati
Ġtempor arily
N G
Ġconduct ing
f old
se ud
ĠV ery
ĠO d
ver ning
ank ing
Ġpresum ably
Ġtrust ed
Ġdeploy ment
Ġimag ination
Ġedit ing
ĠDou g
Ġsupp ose
Ġear liest
Ġass ured
ĠChrist ie
Ġst ocks
point s
e or
Ġtend ency
ĠPr in
Ġpen et
Ġimm ense
ĠN atural
Ġsh ar
A V
ĠRog ers
th an
N ever
Ġbar riers
ĠG PU
1 10
ĠM om
l as
Ġf est
Ġtour ists
p owered
qu ality
Ġdec iding
Ġhead line
Ġthrow s
Ġcast ing
ĠB ears
Th rough
es is
Ġwor ship
ar ound
Ġcomp os
Ġr all
Ġinfect ed
ĠTr udeau
ĠJ ets
Ġm ixture
b age
Ġve gan
Ġsocial ist
H aving
Ġspark ed
ĠA w
ĠF un
roll er
keep er
Ġbutt ons
Ġg rip
Ġwa ited
Ġdam aging
r ust
Ġstruct ural
iff erent
ĠOcc up
ĠP ed
ĠWar riors
Ġgrab bed
Ġdefend ers
ĠAl t
Ġcolle ague
ĠB und
ab a
Ġd iver
Ġcolleg es
not e
l ib
Ġcrypt ocur
ot ton
pl an
Ġun ity
Ġathlet ic
V ideo
Ġarm or
s ign
per or
Ġtr ash
ig ers
ig hed
ĠH P
Ġplan ets
ĠO scar
ors es
ol k
Ġcart oon
ne red
Ġsc rap
ĠCh uck
au kee
ous ing
ĠBr ady
Ġl ake
ĠG arden
Ġparliament ary
ll y
A nt
ĠJeff erson
Ġf ru
Ġcompl iance
S ch
Ġsoc ieties
ĠF ried
ĠB ou
w al
m aster
ĠLiber ty
Ġpurs uit
Ġdis g
L ink
Ġwh istle
per ial
Ġclick ing
Ġa uction
f il
al og
ĠGu ide
b ig
Ġtradition ally
Ġ7 8
Ġatt itudes
ĠJ e
F ree
Ġsurviv ors
Ġhum or
ĠB h
Ġapproach ing
Ġwid th
Ġn ick
ab il
Ġex ports
Ġres on
ĠColumb us
ĠTurn er
enn a
ĠWik ipedia
p ublic
V al
N EW
Cl inton
ĠH ide
Ġlegisl ature
ĠIs lands
Ġbar rier
ĠKe ith
p ace
Ġwind s
Ġch ampions
Ġdec ides
Ġpurch ases
Ġm asc
ac ent
be it
Ġh oney
B R
ĠD omin
Ġpure ly
Ġlif ted
Ġdet ain
Ġess ence
Ġsec rets
ĠCor byn
ruct ive
Ġpurs uing
Ġobserv ation
Ġtext s
t ics
ĠU ntil
ĠHar vey
ĠSh an
ĠMor ning
T om
Ġin sect
Ġthere by
Ġf ont
Ġeth ical
Ġrec ount
Ġbl ess
Ġunder mine
force ment
G ame
Ġw ishes
Ġt ang
Ġur ge
st ore
Ġgrow s
ĠD ub
p op
c s
arent s
Ġal ph
AD VERTIS
Ġregul ators
Ġoff set
ĠC rown
Ġf t
Ġag greg
T ION
IV E
Ġmeant ime
ĠY ahoo
ur red
Ġdon ated
ĠC orn
ĠCh o
Ġt ong
s chool
Ġl aser
en c
Ġeconom ists
Ġliber als
Ġmet ab
Ġtreat y
ĠS ep
Ġex empt
w aukee
Ġ7 1
Ġremind er
B et
Ġa est
Ġsucceed ed
Ġn ons
Ġp ist
Ġsqu ee
Ġrom antic
Ġbott les
Ġpassion ate
ĠNor way
Ġfl ip
Ġ vel
S er
Ġhack ers
Ġfail ures
ĠJ u
p ath
ĠWW E
ĠUn iverse
Ġemot ion
ĠW orks
Ġout er
icial s
ĠFant asy
aren thood
ĠP ap
Ġbreak down
ĠE V
ĠM oney
ĠE X
un ct
ro d
Ġident ification
d ig
Ġfr action
ple x
ĠMad ison
ĠF DA
back ed
Ġt rop
ĠCam bridge
Ġadm its
E G
Ġsac rific
Ġdivor ce
Ġsens or
Ġper mits
Ġ0 1
ĠR aven
Ġdecre ased
own ers
ãģ ®
C NN
g ian
ĠD NC
] :
Ġexec ute
r ained
Ġ( )
Ġgener ous
Ġafter math
ĠK arl
ĠE ss
Ġwal let
Ġcomp ly
Ġdraw s
Ġ8 2
sec ond
Ġcomp aring
M C
Ġunf ortunate
Ġarri ving
Ġt at
Ġret reat
Ġfin ancing
th a
vis or
is ers
Ġstr ain
Ġdis orders
ĠArk ansas
Ġvar iation
ĠP ur
af i
ĠMil itary
Ġsl ave
Ġenh anced
ĠWiki Leaks
he ll
Ġfeed ing
Ġfem ales
ĠRod rig
ĠE li
rop olitan
ĠN ort
t ail
ĠG host
Ġver dict
Ġhelicop ter
Ġaccount able
Ġconclud e
Ġun h
ĠGu y
iz able
op es
ĠDep uty
D B
Ġcre ep
ĠF isher
ĠRob in
aw s
ĠRE UTERS
Ġche er
Ġtreat ments
o a
Ġbatter ies
Ġrec onst
ad vant
Ġund ers
ĠJ ake
S outh
s ource
ĠMem orial
ĠNe il
m outh
ĠU RL
Ġpre ference
L Y
ĠConnect icut
ect or
Ġcontact s
Ġs illy
Ġlast ed
Ġmass es
ĠPol ish
Ġembed ded
ĠCommun ications
Ġcomp ound
Ġsequ el
Ġretail ers
Ġcorrespond ing
ĠM ission
Ġdestro ying
Ġlack ing
Ġenc ount
Ġd aughters
g iving
ig ma
ĠTy ler
Ġwond ered
d irect
Ġd ys
N Y
Ġcapital ist
f ive
Ġencount ered
Ġeconom ist
U E
Ñ ĭ
Ġre un
ĠR oom
Ġam pl
Ġvert ical
Ġlicens ed
S y
on i
F our
Ġwar fare
v ation
ĠI RS
ĠK rist
ĠTh under
ĠE mb
Ġfound ing
n ormal
ĠVenezuel a
ĠSc ar
Ġc ub
Ġsm ugg
Ġag ing
ĠMar ia
ir able
Ġh ill
Ġgif ts
Ġstatist ical
h ave
in ning
Ġsl ower
Ġadv ances
ĠPakistan i
are st
Ġgrav ity
Ġf ierce
ĠConserv atives
elt a
Ġcare ers
W ork
Ġstab il
ĠSpe ed
accept able
Ġ198 3
ard ing
Ġvill ages
ah l
U M
Ġintent ions
Ġorganis ations
Ġsepar ation
ĠDown load
Us ing
Ġking dom
Ġauthor ized
ĠAd vent
Ã© s
Ġcount ing
ĠLuc as
h aul
Ġtr agic
Ġgo verning
ĠP i
Ġwarn ings
Ġdis pro
g i
ĠPlay ers
Ġ Ï
ĠS alt
Ġ198 2
ĠStud ios
Ġl ip
Ġfar ms
ĠSus an
ĠMer kel
Ġdiagn osed
Ġcommission er
Ġtaxp ayer
im age
ĠSpir it
ut ical
Ġlobb ying
air y
Ġed ited
Ġdem ol
Ġtransform ed
Ġclean ing
Ġf ib
ĠH ub
Ġstre ak
it bart
Ġsuspic ion
Ġele ph
Ġaw a
F ig
ĠHoll and
Ġc odes
Ġcontin uous
it ative
Ġb oring
ĠB os
ank a
ĠC z
ĠPri ze
ĠSci ences
Ġmill enn
Ġcons iders
crib ed
Ġscreen ing
Ġgam ers
ĠSt ars
Ġcont am
ĠA th
Ġdam ages
ard less
ol er
writ er
ol ine
Ġten ure
ĠN av
ĠTh or
ear chers
Ġde ce
ĠZ h
ĠBr and
Ġincl usion
Ġfun eral
Ġcl uster
Ġf ence
her ic
Ġa ired
Ġinst ruction
m i
ank ed
u v
Ġtraff icking
Ġfe ared
â ĪĴ
ĠK le
r int
Ġdon ation
ĠP interest
uss ion
f ly
Ġwork place
Ġinv ite
ĠD anny
Ġcred ibility
Ġte ens
Ġinst itutional
Ġmon sters
ĠD est
O G
id ays
Ġcollaps ed
Ġ' '
ck er
Ġjust ified
S ign
pp y
Ġhe nce
ham mad
Ġhypot hesis
ip h
claim ed
Ġn an
Ġsusp icious
Ġden ial
Ġorgan izing
Ġisol ation
ĠThe atre
ad ows
. :
Ġgr ace
ue ller
ĠMorm on
Ġc ort
Ġsp awn
ĠWith in
A G
in ance
Ġste am
Ġboy friend
Ġnovel s
Ġcivil ization
Ġwrest ling
Ġur ging
Ġinter ference
Ġdoub led
ĠIslam ist
h ome
ĠPet ers
Ã £
Ġth irty
O s
Ġreal m
ch ar
Ġmag netic
. âĢľ
Ġr ib
Ġbelie ving
Ġexp end
Ġout right
Ġsoon er
Ġev angel
âĸĪ âĸ
ĠInt erest
O rig
Ġind ict
Ġbenef icial
Ġbr anches
Ġdec ks
Ġcry ing
Ġcomp iled
oll ah
Ġsu ed
Ġrecru iting
Ġm ock
Ġeduc ated
Ġen ables
ool s
Ġle verage
Ġinv ented
Ġr hyth
Ġrus hing
Ġelimin ated
co ins
C ap
H ill
J an
Ty pe
ur able
l ive
op ard
Ġspons ored
St ud
D ec
Ġunve iled
Ġtra its
Ġbe ers
ĠCharl otte
ĠUb untu
ĠStud io
M et
Ġtem plate
ĠC incinnati
Ġroutine ly
Ġple aded
ĠB ash
A h
ĠK am
Ġp izza
fe ld
US A
ĠB L
ADVERTIS EMENT
Ġlab els
ĠT D
Ref erences
Ġeval uate
Ġd umb
Ġsolid arity
Ġtem ple
Ġag rees
ĠLt d
Ġbreat hing
Ġo x
Ġalbum s
au x
ĠFor mer
Whe ther
Ġmed ian
rodu ction
ĠBrad ley
Ġlay out
Ġdisc our
ĠPr inc
ĠH ills
ĠF el
Ġl au
Ġ8 8
re nder
ĠGl ass
Ġult ra
Gener al
Ġshif ts
amp s
Ġincent ive
ĠC ut
Ġdirect ory
ĠLe af
J ames
ĠC arson
st age
Ġentreprene urs
ĠB uy
Ġv ibr
ĠHind u
Ġmagn itude
M al
Ġjump ing
A lex
ast ically
Is lam
ĠC ass
Ġsmart phones
ĠO liver
k h
Ġcompar able
Ġclim bing
w idth
ĠIndones ia
Ġarrange ment
Ġwhe els
Ġpath s
Ġtermin al
ĠS M
ess ional
Ġpil ots
dri ven
Ġmidfield er
Ġincent ives
Ġd irt
ĠM M
Ġspec ified
Ġexcept ions
Ġadequ ate
t able
Ġsn aps
Ġmon op
Ġcoc aine
ace utical
U I
Ġpsych ology
p ur
Ġpe oples
ord able
arth y
Ġpre liminary
Ġc ents
ĠSen ior
ĠMc L
ĠA B
ĠL ED
Ġpart ial
Ġgl ob
ĠVer izon
200 9
ĠVer mont
ch a
ĠP ence
Ġscream ing
Ġlyr ics
ĠSol ar
Ġvis a
ill o
ĠB JP
u cc
Ġtransl ated
Ġfirm ly
ir k
Ġch ains
j ar
Ġgen et
ĠTrib une
G od
Ġintrodu cing
Ġtrans f
Ġreg ards
Ġconnect ing
Ġcounterpart s
Ġam end
Ġac res
Ġcr icket
Ġb ust
ĠSt re
ĠF ab
> >>
ĠJ oy
d ad
an ium
ĠG onz
Ġappeal ing
amb ling
Ġun st
ĠFriend s
Ġme als
Ġun rest
W A
ĠCount ry
Ġwild life
b ull
Ã© mon
M ake
1 20
Ġd ivers
ĠS ox
Ġ: :
oc c
Ġtrad itions
Ġthreat en
ĠT ob
Ġp upp
Ġcreat ors
l ie
Â £
Ġvac ation
St art
Ġsens ors
Ġlike lihood
ĠBook s
Ġdetermin ation
Ġcomment ed
Ġan ime
ias m
Ġtri ple
Ġtr ace
Ġconv inc
umb ling
c end
Ġmatch ing
ĠProf ile
Ġcount ed
Ġ ðŁ
Ġbet ray
iv ic
erv ation
Ġprec ious
res a
ĠP AC
Ġto y
Ġpl aint
ri en
ĠBelg ium
Ã Ĺ
Ġsc ulpt
Ġmotor cy
Ġpar agraph
Ġshe er
ĠLeban on
ul ative
Ġinvest or
Ġkill s
Ġle agues
Ġendors ed
N ET
Ġlicens ing
Ġaccur ately
ĠC her
ĠAr thur
Russ ia
Ġtw ist
Ġshif ting
ĠAM D
ĠN ixon
O V
Ġfold er
ĠCow boys
lud e
ĠB Y
W est
Ġdisappoint ing
ian g
ate ur
Ġavoid ing
Ġcomp assion
te es
at on
i ots
ack er
Ġj ew
Ġgr ain
Ġprohib ited
Ġ19 20
Ġm erc
ĠBrazil ian
ĠG arc
ĠR osen
ugg ed
pr ing
ĠArgent ina
Ġwork force
Ġaccount ing
U PDATE
ĠR ams
ĠH unt
Ġsp are
ĠN in
Ġn it
Ġproceed ings
p se
ĠUnivers al
Ġf ict
ĠEb ola
Ġr iot
Ġlength y
Ġsl aves
ĠWe iss
ĠPolit ical
ri ving
Ġdub bed
ur l
ell ar
Ġin mates
Ġment ally
b ling
Ġsh aped
Ġfundra ising
Ġover look
O ct
Ġtouchdown s
Ġcelebr ity
w art
oc aly
Ġ198 1
Ġshe d
Ġmar ine
Ġind irect
Ġwilling ness
ke es
Ġd ivid
ale y
H D
aff e
Ġint u
ĠBro s
Ġsevere ly
ul um
OS T
Ġgener ating
Ġestabl ishing
G reen
if ting
Ġshould ers
Ġnegoti ate
ĠSer ge
Ġimplement ing
t or
Euro pe
Ġp owder
Ġrenew ed
ĠFin ance
R ich
red ict
Ġconsum ed
Ġswim ming
Ġb ite
Ġcreat ivity
ĠQ aeda
Ġrel ating
J ack
Ġse ctors
r ament
v als
Ġfire f
Ġcertific ate
ĠGl enn
k g
ĠPh one
Å į
ĠM ort
Ġassum ptions
ss on
ak u
l en
ubl in
Ġ Ø
D ay
pe ople
Ġinteract ive
S ometimes
ios ity
Ġobs erve
au er
ĠP L
l ash
S ON
Ġtrad em
ĠG ates
Ġaccomp any
ull ivan
Ġaver aged
Ġref lection
it ated
Ġh ij
RE AD
H igh
iox ide
Ġbra ve
u ced
Ġsa il
Ġroy al
ĠM ust
Ñ Į
Ġdis k
ant o
ĠAn im
Ġaffect ing
is ible
R ober
ĠL ane
out ube
d ays
Ġfilm ing
Ġwor n
at ers
Ġblack s
ĠT ell
Ġfol k
Ch ris
ĠAr men
Ġind igenous
Ġearthqu ake
Ġp ub
qu al
Ġsubsc ription
Ġt ub
ĠB ond
Ġconsult ant
Ġmount ed
Ġadapt ation
Ġclin ic
Ġdet ection
Ġ7 9
ol utions
ro se
ĠAn ne
Ġcompat ible
ĠMar co
ĠMil waukee
Ġrep ublic
ĠCl ar
as i
ac ious
eng u
Ġrec alls
Ġy e
Ġ1 30
olph ins
Ġf uels
Ġcor ners
Ġspecial ist
B rit
Ġesc aped
ĠHigh way
Ġdi abetes
G erman
Ġ196 7
Ġwood en
Ġadjust ed
ĠM ason
Ġtri umph
Ġpredict ions
ĠC elt
Ġsl ip
Ġimp ress
i ology
oot ing
Ġproblem atic
ĠE c
Ġless er
Ġad mission
ĠN ex
Ġliter ary
Ġfar ming
ĠA ve
Ġtrans cript
n ik
Ġmar ry
in os
Ġm aker
Ġlaws uits
Ġaggress ion
ĠBl ues
Ġorig ins
ĠC reek
ĠCol omb
ett a
ĠH um
ab ul
Ġhe aling
Ġaud it
Ġcontin ent
ĠBull s
Ġtr ap
ĠGer mans
Ġ1 10
W H
Ġh oly
ĠDou glas
Ġdesc ript
Ġwhere ver
Ġmusic ians
ec hes
cl osure
ĠR C
ĠGold man
iss a
he w
Ġv on
S uper
ĠÐ ¿
ĠB B
Ġunder way
al ph
Ġmort ality
ĠRe ading
ne ath
et ing
Ġeval uation
bl og
orn s
Ġp ants
Ġab used
ig m
as a
ĠGall ery
Ġvulner ability
Ġbankrupt cy
Ġsuper hero
Ġdel ays
ĠP arenthood
Ġres et
Ġle ather
Ġle af
W rit
Ġsh ore
Ġindepend ently
mun ition
RE L
Ġve to
oca ust
Ġsk illed
Russ ian
ig nt
h al
Ġtim eline
Mus lim
ĠSp ider
T or
Ġle aks
ili ation
Ġinter cept
ĠV A
Ġresign ation
Ġin ch
Ġsu its
act ic
Ġw reck
Ġcy cling
ĠS W
ĠBron cos
Ġdark ness
Ġ18 0
Ġorgan ize
Ġsw ift
ĠSuper man
Ġsher iff
ail and
ĠBern ard
ather ine
ra pe
Ġafter wards
ĠS or
9 00
Ġres ume
Ġse iz
Ġsupport ive
lev ant
es ity
P N
Ġshoot ings
mar ks
ĠS omething
Ġin appropriate
ĠJ oh
Ġform ing
Ġ19 40
Ġlaugh ing
Ġbehavi ors
T unes
se lling
iss ance
ah n
Ġaltern ate
ĠI l
umb l
ĠS ad
pe red
light s
Ġun anim
Ġtest ified
ĠIs a
Ġreb ell
Ġ196 8
Ġpract ically
Ġes p
ugg ing
ĠBud get
Ġbroad band
ĠT ry
Ġthorough ly
Ġcr ashed
Ġins ists
Ġteen age
ĠL ock
Ġs ie
Ġb ind
Ġdis advant
Ġlabor atory
Ġpre st
row th
ĠJohn ny
Ġdoct rine
Ġenc ryption
Ġun e
ĠEx change
Ġcons olid
bl ack
Ġk ernel
i op
ĠVik ings
ĠAl f
Ġloc ally
Americ ans
Ġout break
ur u
Ġexha ust
ĠG ate
Ġoff shore
Ġsound ed
ke ys
et e
Ġexp ose
Ġap ology
ĠQ B
ĠRe ed
Ġout fit
C OM
be an
IT Y
Ġcolon ial
ĠM ember
ri el
Ġautonom ous
Å ¡
Ġcorpor ation
Ġcost ly
dis play
Ġpro x
Ġne at
Ġphotograp her
add y
Ġgr ay
Ġanalys es
Ġkill ings
f our
ĠSp encer
ill ery
un s
C ity
Ġdemonst rations
Ġchart s
ĠL iving
Ġint end
ap y
Ġreason ing
Ġclass ical
Ġdem on
Ġmob il
Ġed ges
ĠPalest ine
Ġattack er
ĠW R
epend ence
ir i
Ġveget ables
Ġinf er
w er
Ġc m
ĠSe ah
Ġhe d
Ġmat ched
Ġemb assy
Ġpurch asing
Ġlect ure
lement ary
fund ed
ĠAg ree
ID S
Ġswit ched
ĠF at
ĠK och
M ike
Ġloc als
ĠWal ter
ĠIn v
ĠD iam
Ġl ap
pro of
Ġr ated
Ġoblig ation
oc ity
j e
Ġgar bage
ab ad
Ġstat ue
ĠSystem s
Ġstraight forward
2 000
Ġgod s
it is
Ġelabor ate
Ġbus es
u um
ĠL ess
Ã£ o
Ġfl owers
Ġterrit ories
Ġportfol io
Ġ197 6
Ġh alt
ĠB ased
ĠBet ween
cul es
ocument ed
Ġ10 1
Ġinf amous
Ġtra uma
Ġo h
le m
ĠL oad
ĠMichel le
ĠM erc
Ġunf old
ĠS oul
Ġor che
Ġair line
op ing
ion ed
oub ted
re ach
g el
ĠT ory
Ġpriv ately
B it
az ed
cc a
ignt y
ph p
ĠEm ploy
ĠM MA
Ġs isters
Ġdeal ers
Ġbes ides
ĠHom eland
Every one
Ġ ^
ĠK ind
ĠA qu
ĠS el
Ġpe pper
S uch
Ġl oving
ĠUn it
Ġf ame
Ġo d
Ġfrust rating
Ġaccommod ate
ĠMu hammad
ik ing
Ġmed ication
Ġath lete
Ġfor ums
Ġ197 5
ä ¸
Ġn uts
Ġatt ributes
A v
Ġpred omin
h is
ĠV eter
ĠDen mark
As ked
Ġhe ter
) (
ro lling
ĠB uild
M I
n en
ĠCom ics
ĠG ear
n ames
Ġrank ings
Ġclos ure
z i
ort ions
Ġlim iting
Ġmod es
pe lled
Ġstrik er
Ġ9 8
n esty
Ġsear ches
Ġs ink
v iol
Ġimag ined
ĠCal gary
C R
Ġ8 1
Ġwithdraw al
Ġd ated
Ġe ighth
Ġqu ery
writ ing
ĠL uck
Ġeffect iveness
resp ons
Ġst ays
Ġobser vers
ĠSub scribe
ĠN umber
Ġint ake
Ġsp ill
Ġm ph
m ant
Ġd ioxide
oth y
Ġcar riers
ĠSh adow
ĠW ATCH
Ġenthus iasm
Ġgr at
Ġwh ilst
Ġunc ons
Ġcon vey
p rom
Ġmis leading
Ġ197 3
S M
ĠRel ations
Ġpubl ishers
Ġmeasure ments
ĠH at
ĠMove ment
Ġsubstant ially
Ġnom inated
sh irt
ig a
Ġhistor ian
ĠHar rison
ĠH em
ov ic
ĠK el
Ġlist ing
ĠConf eder
Art icle
Ġstr ings
ĠG PS
Ġqual ities
ĠB uzz
Ġdelic ious
Â ®
Ġlock er
Ġrespons ibilities
Ġd angers
Ġexam ination
Ġhung ry
B ay
ĠBr un
Ġdiagn osis
Ġd ash
Ġple a
ĠPal in
D oes
Ġh ood
Ġd rought
Ġex agger
n ational
ĠP T
ĠR ace
ro ots
Ġw and
Ġdiscl ose
ab el
ĠTe h
ĠA CL
ĠH ud
P oint
Ġrev ised
ul u
Ġrel ies
âĢ¦ âĢĿ
Ġdiff er
Ġinev itably
S emit
Ġblood y
Ġmem orial
Ġvol umes
Ġign oring
Ġc her
ĠUp date
ĠR ico
min ation
Ġloyal ty
he lp
Ġ8 4
iz ont
Ġvari ations
Ġshut down
OR T
Ġmaintain s
ĠSoft ware
Ġent ries
ĠCarl os
Ġam munition
Ġ197 2
Look ing
ĠJ a
p it
Ġsymbol s
ĠBl air
ĠW oman
Ag ain
Ġp orts
A K
Ġyour s
Ġfriends hip
Ġ8 3
w ear
ol an
Ġp ile
Ġclass room
Ġc od
Ġal tered
Ġdem ographic
m ines
ins ula
Ġoccur ring
Ġphot ography
ĠVill age
ĠA my
L ife
ĠD ennis
Ġtrib al
Ġqu ad
ING TON
osit ory
D ep
Ġalgorith ms
ential s
Ġh orses
Ġformer ly
ic he
Ġredu ces
Ġfundament ally
Ġbrief ing
Ġfulf ill
Ġme g
ĠPlan ned
h ole
Ġp seud
Ġinhab it
ĠP as
Ġrap ed
Ġcelebr ating
Ġves sel
Ġhero in
d el
ĠBrook s
Ġdesper ately
art isan
Ġgall ery
Ġmet res
ĠWall ace
Ġsk ull
ĠL isa
ĠD R
ft en
Ġmid st
li ent
ĠTrans portation
IN E
Ġb ikes
ĠGM T
Ġrein for
rep resent
Ġdisp ens
Ġde leted
we alth
com m
Ġun limited
Ġ197 8
Ġsac red
ĠM i
Ġout door
Ġsh y
Ġarch ae
ĠH ockey
ĠSunn i
Ġnew est
Ġdecl ining
id ges
Ġbelong s
A c
ĠP ast
-- ---
Ġins ure
Ġspect acular
Ġpres cription
Ġf iber
Ġexerc ises
ĠG it
Ġju ice
Ġexpress ing
AR D
Ġmod ules
R et
Q aeda
Ġaccount ability
ĠLiber als
Ġschem es
ĠA ld
ĠRaid ers
let ter
ĠTer ror
Ġp ipe
Ġgar age
R ob
Ġgovern ance
al so
Ġf lesh
Ġt ribute
Ġconsum e
ur ring
Ind eed
Ġrub ber
IT H
h ner
ĠEd wards
oc ide
Ġpresident s
Ġlineback er
Ġw ip
it ial
Ġarr anged
aret te
as se
ĠP ick
ĠM C
Ġch ase
Ġsh apes
Ġfil med
RE S
Ġbed room
put ed
App le
ĠPok Ã©mon
ĠR ou
Ġsol ved
ĠShe l
Ġ8 6
ĠSeah awks
rem lin
Ġa ide
Ġpro c
d b
Ġn odes
ag ging
Ġre ception
ĠM ueller
Ġconf using
Ġplay back
heim er
uk i
Ġbillion aire
Ġaccident ally
ĠA gr
Ġman e
ĠCh apter
oubted ly
pp o
Ġb inding
ĠJenn ifer
p ic
al in
ĠB us
irt ual
C opyright
Ġl oses
Ġr age
Ġperman ently
uls ion
run ner
ĠW onder
b led
Ġto ys
200 8
S l
y d
Ġexhib ition
A ng
Ġun le
ĠSer ver
Ġsan ct
ĠCo ach
ĠSil icon
Ġmisc onduct
Ġspir its
ane ous
Ġ9 6
Ġw ounds
Ġmed al
Ġbo ats
L D
Ġth umb
work ing
ĠL ost
ch air
Ġfresh man
ĠF ly
Ġvig il
Ġl uc
Ġpre jud
Ġsell s
ĠF ame
Ġconsider ably
ĠPhot ograph
Ġdemonst rates
ĠD ublin
Ġg rey
ĠR ah
Ġlast ing
ĠS i
Ġstrict ly
Ġsh ipped
Ġman ages
ĠSh ar
Ġchem istry
on ge
Ġregul ate
Ġfin als
ct ive
Ġmilit ant
Ġlabel ed
Ġ8 7
re ated
deg ree
C r
Ġfin es
Ġtoler ance
Ġt ier
ĠTr uth
ĠN PR
m el
om o
Ġskept ical
Ph ot
Ġexcept ional
Ġsp ite
L eg
Ġfan cy
ĠMalays ia
Ġsc ram
r ong
M er
ie val
Ġlin ear
ĠUr ban
ung le
Ġstre ams
Pro f
ĠP ad
ĠCh ile
ĠAut o
ĠFor um
ĠZ ion
Ġpuzz le
ĠSt ring
Ġreason ably
ĠP ere
ĠR oth
Ġins ur
Ġtack les
Ġcance lled
Ġden ying
ĠJ uan
S an
M at
pro v
Ġpit cher
M icro
Ġ9 7
A ug
Ġprocess ed
ĠG and
ĠD od
ĠHer o
Ġlove ly
sp ace
A uthor
ĠV iol
form ing
ĠR at
Ġmid night
Ġret rie
ĠRes ources
ĠOper ation
th irds
Ġsp ends
Ġrest ored
Ġorganiz ers
man uel
Ġmon ument
Ġun acceptable
p x
Ġsub mar
ĠY ears
Ġtun ed
Ġgenuine ly
Ġteen agers
Ġqu o
olute ly
ĠPal ace
ĠR ush
ĠAr n
Ġfacilit ate
Ġm ature
ĠC ond
ĠF ile
Ġf oul
ĠRepresent atives
Ġd ancing
Ġrel ate
bor ough
Ġout lined
ĠT ill
ĠBill y
Ġad vers
Ġautom ated
Ġoblig ations
Ġsexual ity
Ġdiv isions
Ġext ends
Ġtour ism
Ġsurve ys
ĠMcC arthy
ou st
ret ion
Ġle ap
Ġi Tunes
th s
ĠC art
ĠTh ailand
II I
E v
Ġsuccess or
E arly
B ER
ow een
id o
ĠCh arg
ĠBenn ett
Ġspot light
ĠSh ield
ĠM ack
ĠÂ ĵ
T ur
Ġanonym ity
in ery
Ġin ability
Ġdefin ing
Ġab oard
ĠN DP
Ġtw in
ĠZ ero
ĠRich mond
eg u
ĠD M
Ġrecommend ation
Ġunder neath
in ate
ĠIn valid
ai ro
Ġdr illing
ri pp
ĠSp urs
Î ±
ex p
Ġgener ic
ist ically
Ġsubject ed
Ġhear ings
Ġbattle field
Ġp ound
Ġinc umb
Ġsn ap
ES S
clus ion
ĠCz ech
ĠGriff in
ĠG ay
Ġse ct
Ġspe eches
w ick
ap or
Ġconsist ency
ĠOb viously
Ġvict ories
ĠF ast
ĠG B
S ur
ĠBet ter
ĠRet urn
ĠBang l
head ed
ĠCh amber
Ġp iv
ĠH ope
Ġcontract ors
ĠChron icle
Ġn ort
Ġcor rid
ĠSe ven
Ġl ined
Ġris en
cl osed
Ġgu ilt
rane an
Ġtong ue
Ġover haul
Ġinc oming
ĠCom merce
m ile
ai res
ed ge
Ġad verse
ĠM aj
Ġprem iere
Ġpar ade
ĠS elf
Ġsal aries
ĠRec ord
P H
ĠEl sa
Ġtrave lling
Ġcon cess
ĠS ay
ĠBe yond
ĠCle an
ĠL LC
ĠBre itbart
m os
Ġste pping
ĠSoc cer
M em
Ġname ly
Ġembr aced
Ġfrank ly
Ġdisc on
Ġrender ing
hold er
ĠSo on
w rite
âĢĿ âĢĶ
Ġtransl ate
ĠF itz
ĠTit le
ĠAcc ount
ĠS L
Ġm elt
Ġconfident ial
out e
ant i
Ġpl ates
Ġ0 2
Ġexhib it
Ġconfront ed
Ġ196 9
b ad
ĠQ atar
ĠBe g
Ġd ive
Ġb inary
Ġanaly zed
Ġ ì
ic ers
Ġtact ical
Ġdef ic
Ġart if
{ \
bs ite
Ġl iability
ĠWork ers
ãĢ Ĥ
Ġem power
ĠPack ers
ĠHur ricane
ĠElect ric
ĠG P
f eed
Ġbureau crat
ĠP un
Down load
Ġstro ke
O H
ĠSur vey
c ill
Ġun ited
Ġfunction ing
ag ged
Ġg ard
ĠC ape
Ġres ur
ier ra
os i
acc ur
Ġd ot
Ġarri ves
ĠB agh
Ġlic enses
Ġr ings
ĠCub an
Ġpart isan
Ġdon ate
H ouse
ĠPr int
ĠM all
Ġm ate
Ġback lash
Ġvend ors
ĠBry ant
le tt
k ill
ĠM VP
Ġdoub ts
g reen
uster ity
ĠH alf
te am
Ġsteal ing
Ġsign atures
Ġc argo
Ġfel ony
Ġv ib
ĠI v
ling ton
ĠN A
ĠG reens
Ġgrocer y
ĠS F
ĠML B
ming ham
Ġcloud s
Ġj ack
Ġpublic ations
Ġcasual ties
Ġ9 11
Ġaut ism
Ġp ale
Ġnegoti ating
Ġcoast al
greg ation
IF A
ĠStud y
ĠR AM
ĠG as
Ġobject ives
Ġ9 3
Ġment ions
Ð¸ Ð
Ġgl ory
d isc
Ġsovere ignty
Ġelectron ics
Ġdefend ants
ang o
IG HT
Ġret ro
or ity
ĠH BO
= âĢĿ
Ġ> >
Ġprem ier
? !
ĠMet hod
Ġliber tarian
Ġind ef
ĠTit an
Ġint ens
ĠS A
Fr ank
ĠSh ah
ĠIce land
Ġarrange ments
ĠAL L
ĠReg ional
Ġp ad
ick ets
Ġves sels
Ġart ic
Ġhon our
ĠK ill
ut ing
Ġenc rypt
Ġac ute
i pt
Ġfl ows
ĠDef ence
ĠS ent
Ġdiscl osed
Ġsport ing
Ġlack s
Ġfort un
ocrat s
ron es
T im
f ar
B E
Ġpre season
Ġnecess ity
ĠS earch
Ġprop ri
ul ator
Ġ{ \
EC T
ĠBrother s
ĠB obby
Ġu seless
Ġun ch
Ġpret end
Ġout let
Ġ197 7
Ġcl arity
Ġhe al
Ġconvinc ing
ent ions
Ġlegisl ators
Ġim pe
Ġcatch ing
ĠT ib
orient ed
ĠBarb ara
Ġdign ity
there um
Ġ **
Ġdetermin ing
Ġutter ly
Ġprotect ive
ĠL E
az ines
Ġr am
Ġtw elve
Ġc ute
u ity
Ġstimul us
pl ess
Ġlegit im
Ġcharacter ized
Ġbl own
Ġd ense
ter ior
Ġmarket place
ĠAtt ack
Ġs lic
S ports
Ġt ube
Ġspons ors
Ġtheoret ical
ĠR ic
ĠNob ody
Ġl ighter
Ġhas h
S and
Ġspe lls
Ġc ure
raw l
ĠBe ast
Ġhun ger
Post ed
ĠSim ilarly
Cl ass
Ġflood ing
Ġadap ted
ĠEvent ually
om atic
ĠE rd
O O
ĠPhill ips
us hing
ĠBrown s
E vent
V R
uff icient
or us
W ind
Ġ9 2
Ġgen ius
aug hed
Ġprev ention
ĠFr an
ĠC OM
F R
Ġeru pt
z h
Ġse am
ĠCol on
k ens
Ġswitch ing
W ashington
Ġevolution ary
Ġm all
Ġfore sts
ĠBut ler
ak y
lick r
AN T
ĠB P
const itutional
Ġen abling
Ġ __
Ġmus cles
Ġ Ñģ
um ns
ĠT igers
Ġglass es
Ġcomple ting
Ä į
pl ane
Ġqu arters
ĠM IT
Ġ197 4
ĠSh i
Ġsens itivity
Ġantib iot
ĠN ag
c ost
ĠBry an
ĠO m
atic an
ĠM ode
Ġf art
ĠAl tern
ser ver
Ġ ),
Ä ĩ
cast le
Ġca res
Ġw are
ĠJ av
Ġbarrel s
F T
ant ing
C are
Ġachie ving
ĠSand y
Ġmal ware
em ail
Ġread ily
Ġexplo itation
Ġmist aken
Ġtable ts
ĠB R
Ġaffili ate
Ġmet a
Ġmurd ers
ĠCl ay
b uilding
Ġco at
Ġad min
Ġha ul
Ġhe m
Ġw it
uten ant
) |
ĠL ang
ĠCast le
Ġastron aut
ĠN E
ĠB ishop
Ġequ ation
Ġlist ened
E r
ĠOb ject
ĠSt op
Ġjurisd iction
out ed
Ġdeb ris
Ġdr ill
Ġsubscrib ers
a ired
Ġreb uild
A FP
Ġh ind
cont rol
ne x
ĠPant hers
ĠNever theless
ĠI b
vel t
G S
Ġtrib e
Ġhold ers
IC K
ĠPlan et
ĠV i
Ġspons or
Ġc ab
ĠT ar
Ġl aughed
ĠO wn
min ed
Ġext ending
ott om
Ġspec ify
Ġsubscrib ing
Ġred ist
ĠIn side
ĠA x
Ġrefere n
Ġbip artisan
Ġcool ing
Ġf ond
Ġpredec essor
ĠTo o
Ġfr ames
Ġins ights
Ġsomet ime
M obile
col or
ĠArab ic
Ġcan cel
ri ages
Ġref usal
Ġ197 1
' '
ĠEd ge
Ġbe aring
Ġr ats
Ġcous in
ĠIm perial
Ġfinan cially
Ġe leg
c m
Ġroll s
Ġup side
Ġswe ep
b ot
Ġsynd rome
Ġend e
I X
Ġnot orious
Ġnight mare
Ġpers ist
Ġp airs
Ġdu o
Ġfire arm
ĠPr im
ĠJam ie
l ay
Ġswe eping
Ġpro port
Ġbusiness man
ĠOr thodox
ul k
ĠLe v
Ġsur pass
Ġcred ible
Ġarbit rary
Ġa ston
ĠAust ria
S O
fr ame
ĠW ii
ĠB ird
r one
Ġattack ers
ĠC u
ĠF L
Ġ3 50
Ġc u
Ġhard est
ĠN eg
ĠInd ex
Con f
Ġmob ility
.. ."
Ġm igr
ĠD awn
Ġ14 0
Ġre ct
Ġexpect ation
res pect
Ġassoci ations
re amed
Ġmem or
Ġneur ons
ĠSp ot
ĠDou ble
Ġglob ally
b uild
ash i
Ġor al
Ġdomin ate
pro du
Ġreview ing
U K
Ġhydro gen
am y
Ġnew er
P ut
Ġviol ating
im port
ĠNew ton
Ġportray ed
ASH INGTON
t ic
Ġsp at
Ġchar ter
Ġtre asure
Ġl ately
ĠTO DAY
Ġtour ist
Ġter rain
Ġtr icks
Ġsepar ately
D irect
Ġinf lamm
agon ist
Ġendorse ment
ĠI BM
Ġdeter ior
Ġv owed
pt ic
Ġtroub led
ĠSw ift
Ġre iter
osp el
Ġrevel ation
Ä ±
ĠR achel
ĠD aw
Ġdesc end
Ġdis ability
ĠSud an
n ut
Ġa ides
ĠR ud
f in
Ġapolog ize
Ġnation ally
Ġpos es
Ġnav igate
Ġbi ology
in ces
Ġrel ied
ĠJul ian
in ho
B uy
t w
ĠG R
iz ards
am o
ĠQu inn
os ures
Ġsettle ments
G reat
Ġwas h
ĠMar cus
Ġp ockets
ĠWell s
ou g
ĠÐ ²
Ġart istic
ĠTeh ran
h um
at ched
P ublic
Ġb atch
Ġcommit ting
Ġc ache
ĠSt ra
t em
he tt
Ġg au
ar cer
umbl r
p df
th ree
Ġtourn aments
ĠLaur a
ĠB order
Ġphys ician
Ġelev ated
ĠM ul
sy stem
ith ub
Ġst raw
Ġpers istent
Ġbl end
ĠContin ued
Ġprov ing
Ġa qu
Ġshort age
Ġdecl aring
U P
T er
ĠC SS
es pecially
Ġpr ay
Ġinc on
ĠGl obe
ade qu
Ġident ities
ah o
AS T
ian ces
H ub
ĠC ab
ar u
b one
Ġinter im
Ġvill ain
ĠF ish
St ring
Ġst ark
ĠBre ak
un ks
Ġa ster
Ġinv isible
ĠMach ine
s im
Ġles bian
Ġdistingu ish
Ġviol ate
Ġgal axy
Ġart work
ĠAss istant
Ġgrad uated
Ġvar ied
Ġexclud ed
00 1
ĠD ue
Ġal iens
V er
Ġover time
S R
Ġd rown
ĠLeg end
Ġdefin itive
Ġover see
Ġinter section
ĠK or
Ġ8 9
Ġpron ounced
Ġg i
am as
aus ible
Americ a
M ac
ul ates
Ġrun ner
Ġkick ing
ĠN ancy
Ġanal og
ro gen
Ġrel ent
Ġacc using
ĠT her
inf o
Ġassemb led
t alk
ĠCl ose
IM E
Ġinflu ences
ĠCard inals
Ġm ush
Ġren ov
Ġpref erences
ĠNex us
Ġag g
Ġpre y
Ġsub way
Ġob esity
ĠN at
Ġrevel ations
U ntil
N ational
ĠTra vel
ĠJ ong
ĠLad en
uc le
Ġfort une
ernand ez
Ġlay ing
Ġbul lets
" ;
Ġhel met
mont on
Ġp sy
Ġwar r
ĠW ade
Ġbes ide
Ġd read
ĠSe lect
D et
C ong
ĠNe ither
Ġse al
Ġrisk y
Ġp p
Ġuns uccess
ĠT ru
Ġvary ing
Ġtrib es
Ġhand y
Ġimpl ies
Ġve t
ine z
Ġsh ower
Ġtoile t
ĠAff ordable
Ġrent al
ose velt
it utes
ĠM itch
rament o
ĠB iden
Ġban ner
Ġkilomet ers
Ġre lying
ĠB annon
Ġne ural
Ġbreak through
Ġfavor able
ĠL uther
ĠH orn
ĠWh atever
ĠMem bers
y ang
s cience
Ġp etro
alth ough
A f
Ġauthent ic
ĠDr ag
Ġtax i
Ġn urse
in is
ĠP il
Ġdiss ent
ĠFl ight
ra ke
ĠClass ic
ĠT arget
Ġanaly ze
Ġrecip es
L ong
Ġreluct ant
l on
Ġaim ing
Ġk icks
ĠJo ined
Ġcred ited
Ġpat ience
Ġins pire
Ġur gent
Ġassass ination
G old
Ġfam ously
th ird
f ull
In f
L aw
ĠC M
rit ical
Ġun aware
Ġback ers
Ġp up
rib ly
ĠJ obs
B ill
ĠCol lect
Ġprof itable
Ġcl ause
ĠW ire
econom ic
ĠH R
l arg
Ġvolunt ary
Ġfact ories
Ġsubst itute
Ġca ut
Ġmeas uring
Ġmass acre
Ġrecre ational
Pl ay
Ġsum mar
omet own
as ma
ac hers
CL A
Ġpr ayers
off icial
Ġm ant
Ġexpress ions
Ġtrick y
Ġmin im
Ã¼ r
B ased
ĠC BC
lic ation
br aska
Ġmag azines
ĠP oly
Ġtext ure
Ġcy cles
Ġp uck
Ġpass ive
Ġdisc ourse
ĠC ant
app ro
ĠYan kees
ĠV atican
ĠAr c
Ġsoc ially
Ġp ause
Ġal beit
e very
ĠGarc ia
Ġb out
Ġund oubtedly
ul in
Ġf isher
ĠHispan ic
Ġstar ring
ĠK remlin
ĠE ither
Ch ar
he nd
ĠW inn
so ever
Ġatt ribute
ob i
EL L
om i
Ġpl un
Ġmos que
RE E
im ated
O pen
Ġrece ivers
Ġcrew s
Ġst icks
Ġhe ated
Ġprov inces
ĠM es
ĠFour th
ĠAgr icult
Ġwor ries
ur as
ĠM ans
se mble
Ġcontract or
Ġdefend ant
Ġintention ally
us ions
Ġload ing
Ġse min
Ġpreced ent
Ġmem orable
Ġhy d
ĠPet e
Ġ ic
ĠG rey
Ġf oster
ĠPolit ics
ĠHol ocaust
Ġbroad ly
er ting
Ġfit ting
Ġour s
Ġsatisf action
m us
atern al
J apan
Ġdynam ics
Ġblog s
ĠL ot
ĠInvest ig
ĠM B
ful ness
ell ing
ĠH ait
an ne
Ġl iv
Ġfac ial
Ġbuff er
ĠB ed
he astern
Ġst er
ĠNob el
Ġmane u
ĠProt est
ĠDe al
p ound
Ġsum mon
ĠL em
ĠN EW
Ġsupp lied
c d
Ġval ued
ĠAgree ment
Ġmulti player
Ġ9 4
Ġiniti ated
ĠSn ap
ĠPh D
Ġstr anger
Ġattract ion
Ġ9 1
With out
ĠHall oween
ĠAl ong
Can ada
Ġne o
ĠAl ice
Ġdisappoint ment
ort ing
ĠSam uel
Ġteam mate
ĠÐ ½
Ġstick ing
ĠCh and
ĠWork ing
T ex
ĠTra il
ĠA bs
REL ATED
Ġprov es
ĠC hen
Ġsear ched
ĠEnter prise
g s
K K
head s
Ġmart ial
ĠBir mingham
Ġswe pt
Ġmed i
Ġinc omes
S H
Ġp ars
Ġ q
all ow
ast ing
ĠP ath
cer pt
ĠGirl s
ĠNash ville
Ġun lock
Ġepid emic
Ã¡ n
Ġfict ional
Ġdim ensions
Ġentreprene ur
Ġmis under
ĠRe form
ĠChief s
ĠFer r
Ġbroad c
Ġm aj
ĠEngine ering
ĠBrew ing
ĠC our
ost al
Ġgrand father
e em
c ulation
ĠIsrael is
te lling
Ġparam eter
ĠN ep
Ġinterpre ted
F ire
Ġtheat ers
ain ted
ĠF inn
ah an
Ġevent ual
Ġachieve ments
C P
Ñ ĩ
Ġmod ify
am ation
Ġdomin ance
Ġflaw s
ĠCom puter
em ale
Ġyoung est
ĠG A
In tern
Ġcontribut or
Ġworry ing
Ġtr ump
terror ism
roph ic
Ġint act
ĠS ach
Ġpo le
ĠD ays
ir med
ĠS pect
Ġw ard
Ġconven ience
Ġar ise
P ort
Ġsub mission
Ġarch ive
Ġdef ines
ĠK ath
F ox
ĠF an
M arch
Ġpred iction
Ġfin ale
ced es
d evelop
Ġsur render
Ġtact ic
Ġobst acles
ĠJ oint
in formation
Ġdisc ont
op ular
Ġphilosoph ical
ĠBase ball
v ised
Ġmac ro
ment ation
cul us
am bers
ĠAl b
Ġbicy cle
ĠAl most
Ġen roll
Ġinf lic
Ġpr isons
un ique
Ġmal icious
Ġban ning
ĠB ear
Un like
z illa
L ater
Ġreven ge
ange red
Ġnav al
int age
ov ich
Ġwhat soever
ĠK ate
ĠS old
Ġsk ip
Ġnational ist
or o
Ġn er
Ġentertain ing
Ġc yn
ĠDiam ond
Ġdiv ine
l ation
ĠK az
Ġcorrel ation
Ġdu pl
Ġbas eline
Ġn est
ĠN HS
Ġover r
Ġneighbour hood
Ġnetwork ing
the m
Ġshe ets
ĠR ing
Ġthe or
Ġneutral ity
sc ript
Ġg aps
Ġignor ance
Ġan k
Ġtw itter
l ass
ov o
Ġorgan ised
Ġinter medi
Ġtouch ing
amp ed
Ġconcent rated
Rem ember
\ \
Ġregul ated
Ġconsult ing
ĠR aw
Ġassault ed
ve t
on ies
ĠPortug al
Ġopp ression
Ġc ra
Ġle thal
c lick
ĠK os
Ġr ab
ĠL an
umb ai
ĠBe er
Ġev olve
Ġcur s
ĠAn imal
Ġhor izont
Ġeuro s
ere k
Ġinvent ory
Ġsa ves
G L
Ġc um
k n
rav is
le ased
ĠC ox
ast rous
G R
Ġris es
ĠPict ures
Ġdesign ing
Ġconfront ation
ĠHol mes
se arch
Ġn asty
U lt
Cal if
Ġdr ain
Ġimport s
ĠI L
J on
Ġtrans mit
ĠMat ter
Ġto oth
sp oken
Ġsk i
ĠMot ors
ĠRo osevelt
Ġquant ity
ĠCar ib
Ġover ly
Ġcrow ded
ĠG ive
Ġadminist rators
ĠM E
Ġmer it
h u
G N
Ġscript s
ĠUS D
Ġvar iant
irl ines
us cript
Ġinv itation
ok o
ĠSur v
Ġbr ick
ĠW ol
ne apolis
Ġoff enders
Ġh ated
Ġdon or
ĠFire fox
ch ief
as ures
Ġse aled
Ġcommit ments
ĠL G
im eter
ĠHug hes
Over all
P erson
Ġb ay
col m
ĠR PG
Ġfix es
Ġ196 5
Ġremem bers
ĠPD F
Ġw rist
ĠAngel a
Ġcost ume
ĠEp isode
m ember
are z
oc o
Ġnav igation
Ġ196 4
ĠN athan
Â ©
gg le
ed uc
ĠM O
ĠRodrig uez
li ers
Ġcomprom ised
Ġinc arcer
ĠPal mer
ĠFin land
s qu
Ġj am
Ġstar ters
ic ating
Ġfree ze
ide os
Ġc ord
Ġprec ision
Ġreject ion
Ġmathem atical
sh ow
Ġg re
Ġcur rencies
Ġflaw ed
Ġt ire
est a
Ġcomm em
Ġbelong ing
ĠOb serv
our ge
ilit ary
Ġover th
Ġn arc
ĠY e
ĠOccup y
anc ies
ĠSh aw
ĠD ise
Ġcl ash
Ġpitch ing
Ġembarrass ing
Ġrob bery
Ġhol idays
h ots
Ġpro xy
Ġun cle
us hed
ĠBroad way
Ġab uses
Ġquestion able
ĠF oster
Ġcur ric
Ġapp et
Ġm ast
se en
ment ioned
bel iev
Ġpresent ing
Ġble w
Ġn erve
ĠQueens land
E xt
Ġupgr ades
Ġen v
Ġdispro portion
Ġconstrain ts
ĠS ullivan
Ġad oles
S um
ĠIndian apolis
Ġm im
ri ved
Sm ith
Ġa pt
ĠCh ase
ĠC op
Ġrend ered
Ġinfect ions
Ġstead ily
ĠS ens
ĠBoe ing
Ġremind s
ĠDun can
' :
Ġunc overed
Ġpharm aceutical
Ġbase ment
Ġtradem ark
Ġb ats
ĠRod gers
Ġcont ing
Ġball ots
ĠE RA
ĠP ubl
Ke ep
ind ex
ĠC ris
C ount
as ive
W ASHINGTON
R eal
Ġdig it
ĠMont ana
Ġdist ribute
Ġopt ed
ĠS O
ĠL ore
OM E
Ġbeh ave
Ġun int
Ġout look
el er
orig inal
Ġst iff
Ã º
rit ies
Ġmanufact ured
Ġins ert
Ġboot s
Ġgrand mother
Ġat e
ĠR acing
Ġan throp
V ID
ĠMoh ammed
min ster
Ġcomple ment
Ġpack s
and o
Ġback wards
Ġtu ition
less ness
Ġa usterity
k now
esc ope
Ġsu ited
ĠK ash
Ġper ce
Ġsaf egu
Ġevangel ical
st ick
ic ides
Ġs ab
Ġcontain ers
Ġnons ense
Ġmake up
Ġlink ing
Ġprison er
Ġdownload ed
ĠL l
Ġoff ence
Ġextrem ist
ĠC abinet
ĠAth let
Ġthro at
av i
y our
co very
Ġinj ust
Ġch ron
do ing
Ġint imate
p ol
c all
ew s
j u
Ġshar ply
Ġprote ins
ĠA ven
Ġcred entials
Ġcorrespond ent
ĠIn iti
r aged
Se pt
ĠC hem
Sc ott
Ġhot els
Ġsecret ly
Ġcol umns
pl ant
Ġtrack ed
Ġpress ures
OR K
Ġinv alid
Ġ Ù
Ġland l
Ġsatell ites
ul ent
Ġoption al
ĠAss ange
Ġhack ed
Ġbud gets
Ġqual ifying
ĠQu ick
ĠBagh dad
G en
Ġto kens
Ġcomp ounds
ĠP ink
Ġl as
ãģ Ħ
Ġb er
Ġr ivers
Hill ary
Ġpun ished
Ġwho ever
sc he
s ocial
Ġemot ionally
S am
Ġpl ag
Aust ral
Ġsurv iving
Ġinject ion
Ġsol ving
Ġc ups
iction ary
Ġres id
Ġham mer
child ren
Ġelimin ating
ĠNiger ia
Ġcat tle
Ġaggress ively
pri v
ĠChance llor
Ġo ven
M o
Ġmanip ulation
Ġhor izon
Ġswe at
Ġlaun ches
Ġlif ting
ĠBr ig
ll o
Ġde lete
E mail
et ition
ĠM ine
ĠS ierra
ibl ical
Ġmet ric
Ġbo oth
Ġsubur ban
ĠP H
com pass
ĠStud ents
ĠCom b
ĠAle ppo
se in
D I
ĠC ell
J une
ĠJes se
ĠPet erson
ĠP red
ĠAlp ha
Ġhor rific
ĠBrother hood
Ġnice ly
pr ises
Ġextrem ists
l ocal
Ġconclud es
Ġbrew ery
er als
Ġamb ul
Ġmess aging
Ġ: )
N one
Ġh ilar
ĠSac ramento
ĠCitiz ens
Ġpublic ity
ĠG ot
] )
ĠPresident ial
ĠF IFA
Ġjo ins
Ġbr ush
ĠH erald
Ġrecon c
Ġcompl aining
ĠZ immer
Ġvac uum
Ġprev ents
ĠBangl adesh
zb ollah
Ġprem ise
ĠD A
ĠCl in
Ġr ides
ens on
Ġdis mant
at isf
l iter
ab i
Up dated
ĠB elt
ag ain
Ġ Å
g om
ĠS em
Ġk g
Ġadvis ers
Ġhaz ard
ip se
Ġjust ification
ĠCat al
Ġunder go
Ġanch or
ĠS ave
Ġtrad es
ĠHe y
ĠLeg al
In vest
Ġflo at
Ġdest ructive
Ġsle e
F ull
leg al
.âĢĻ âĢĿ
Ġo un
Ġneighb oring
ĠA round
oot s
ĠHer itage
Ġtur b
Ġent ers
ĠM ong
ĠM I
V A
Ġpict ured
ĠAn aly
Ġtransf ers
ĠSh in
Ġvirt ue
Ġref und
Ġtroub ling
ĠCh ip
ĠCr iminal
ĠCol in
Ġfe as
iter ranean
ĠN ar
iz ers
Ġacc idents
ĠOver all
Ġcor ps
10 1
Ġsovere ign
Ġo k
Ġpur ple
umin um
Ġannoy ing
w ould
i ological
ertain ly
Ġrecord ings
H el
Ġtroub les
Ġnon etheless
Ġplug in
Ġun constitutional
ĠEd monton
Ġle ase
Ġ19 45
Ġir rit
sp ons
Ġam ateur
atern ity
Ġby pass
ĠJess ica
worth y
Ġdis astrous
et a
p ay
ie ve
ain er
Ġcommission ed
clus ive
ĠMS NBC
U se
Ġdim ension
T able
gener ation
g reat
Ġg reed
Ġcommit tees
Ġcompan ion
ĠH TC
Be ing
Ġl iver
ĠCost a
Ġte aches
per t
ĠC av
ĠC T
Ġden ies
ĠRe ally
Ġp el
ĠAll ah
Ġ0 3
ĠZ one
Ġsince re
Ġj acket
ĠL ic
um atic
ur ious
H ead
ĠPict ure
ĠPot ter
Ġin accur
N AS
ĠD rew
v or
ĠM urd
Ġexam ining
oc y
Ob viously
Ġmed itation
Ġcens orship
if iers
ĠR ivers
if iable
ĠBre nd
ĠO z
eal ous
Ġlegal ization
ĠAnt ar
ĠG round
Ġin adequ
ĠAh med
Ġprom in
Ġdeli vers
ĠAct iv
Ġimpl icit
ĠFO X
b ank
Ġop io
ĠInc re
âĢĿ :
M ax
Ġrandom ly
Ġcalcul ate
ĠG ore
in ner
T w
ia z
ĠChall enge
Ġpriv at
ĠBar n
Ġboss es
Ġintern ationally
Ġexpl ored
Ġforeign ers
Ġunemploy ed
op ic
Ġh ike
ĠF ac
Ġhand gun
Ġgrad uates
o ven
vent ions
oun cing
ĠE arlier
Ġintegr ate
ĠD ri
ur ry
ĠR af
Ġl azy
K ing
ĠÂ °
Ġcat ches
Ġcl ashes
ĠNe braska
if ully
m ill
ĠAr med
Ġb ans
ĠA irlines
play ing
at hetic
Ġfor k
d esc
Ġdisp utes
ĠIm agine
ific ant
Ġd war
ĠO P
Ġirre levant
yl an
augh s
-- -----
we b
[ /
ĠL ives
ĠTele graph
âĢ¢ âĢ
ĠB ald
¢ âĢ¢
Ġaccord ance
e ment
b oth
Ġretain ed
Ġdef enses
Ġcig arettes
Ġadj acent
ophob ia
av ailable
F I
Ġe rect
r us
h ad
Ġcomp act
uff y
Ġland mark
ĠClar ke
ust ain
p os
B o
ĠH E
ig s
Ġencour ages
M uch
min ent
ver ted
l ength
Ġ16 0
m ount
ĠPrin cess
r ams
J im
ĠEv il
Ġsub t
Ġnin th
uff ed
Hist ory
Ġch unk
ĠCurrent ly
ĠComm ander
Ġprop ose
Ġâ Ĩ
Ġterr ifying
Ġstri pped
ĠZ ach
Ġhyp oc
Ġint ends
AA A
Ġlight ning
ĠW ing
Ġdiscon nect
qu ire
os ity
Ġstud ios
ĠK er
Ġmole cules
Te am
Ġreal ised
Ġcalcul ations
ĠM aur
L ear
Ġsan ction
ĠCub s
ĠNaz is
Ġcampaign ing
Ġfar mer
Ġenact ed
ĠR u
Ġover head
Ġtoug her
omet er
Ġintrig uing
Ġcal ories
ig ue
Ġaff irm
Ġrecru ited
Ġkn ees
B ron
N E
Ġsc are
Ġconf erences
Ġinvestig ative
Ġclar ify
ĠPro cess
Ġeconom ically
Ġdep ict
Ġshe ep
Ġatt ach
Ġsubst ances
undred s
] ;
Ġpro long
Ġdr agon
ograp her
Ġsymb olic
ar in
Ġr ugby
Ġprof iles
Ġsocial ism
Ġcrit ique
Ġmor ality
ĠWeek ly
ĠD ynam
Ġco pper
Ġgu ided
ĠWe ather
Ġcent res
h or
Ġhomosexual ity
Ġflow ing
Ġcoll ision
ĠP owell
M att
Ġload s
Ġpres erved
Ġst ones
ĠF am
ĠBoe hner
Ġsl ice
Ġplace ment
ĠV oice
Ġ> >>
Ġunw illing
Ġassess ed
ond e
Ġnorm s
ĠK an
it ations
Ġprosper ity
Ġn aming
Ġproceed s
Ġfurn iture
Ġcou pled
anche z
p her
ĠC and
ĠTib et
ĠPro s
by e
Ġspecial ized
Ġhed ge
imp se
Ġnot ified
Ġa ug
om ers
ĠSen ators
V M
Ġgl impse
ok ia
Ġrelig ions
Ġple asant
Ġimag ery
ograph ical
ĠJ ar
Ġsubur bs
ĠEff ect
en z
ĠT u
Ġsequ ences
Ġsimpl er
Ġfif ty
Ġv ag
c urrent
Ġdeliber ate
Ġcrit ically
ĠTr aining
Ġfav ored
Ġexpl oded
ĠBe aut
ok u
ĠF ight
Ġch airs
Ġporn ography
pe ction
ĠP ic
ĠJo el
Ġind ie
izz ard
ĠSteven s
ĠCarib bean
> <
ĠT ogether
J uly
Ġor b
Ġhe y
ĠAlex and
ri ans
Ġdrag ged
ĠU ser
' )
Ġsket ch
Ġcryptocur rency
ĠHung ary
Ġpot ent
Ġmind set
Ġtri o
Ġref uses
Ġoffer ings
Ġencoun ters
ĠC ulture
Ġl ending
Ġh ometown
ĠM ana
ĠMed iterranean
ĠAny one
ident ified
Ġrevers ed
at able
Ġpack aging
Ġ12 5
Ġsc al
Ġemphas ized
i ably
ĠZ en
Ġincorpor ated
lin ing
Ġsc roll
Ġfl ower
Ġreal ise
ĠG am
M D
ĠMil an
Ġinc om
Ġen velop
os ph
et on
Ġgl ance
Ġ0 7
imens ional
id i
Ġcur b
Ġgest ure
ues e
F eb
Ġdisc retion
Ġdis gr
Ã ł
on est
Ġst ole
E nd
F il
Ġbre ed
ost ic
AM E
Ġtravel s
Ġtal ents
ul ously
ud a
Ġthr illed
ĠErd ogan
u art
Â Ģ
ĠP in
d eb
oll o
Ġturn out
Ġcop e
ke ll
cont ent
Ġl ing
il ia
Ġa irst
Ġcontin ually
ĠE ight
A pril
gh ai
ĠMin neapolis
Ġcance led
Ġindict ment
Ġany time
Ġstrength s
ed In
Ġmin ers
ĠCons ider
a q
Un ited
ĠB ak
ĠM ull
ĠImm igration
Ġâ ĸ
per ty
Ġder iv
ens en
Ġcontrad ict
F eed
Ġm old
ĠK ay
mer cial
k ers
Ġfather s
m und
Ġcommun ist
Ġshare holders
ĠEd die
iber al
J eff
ĠMus k
1 30
Ġcont empt
P ower
ous ands
and ing
Ġha un
ĠM umbai
ĠGO OD
ĠA G
OS E
E U
rik es
Ġaccount ed
Ġres il
Ġrest rain
Ġflee ing
Ġdes ires
yn c
asc us
Ġthread s
Ġdecent ral
ĠLu is
ĠEurope ans
ĠPriv acy
ĠD ian
Ġapplic able
Ġtow ers
Ġind ivid
Ġ9 00
Ġg ambling
Ġte lev
ĠT ouch
B rien
. ).
Ġhas ht
Ġvo iced
ug ar
ĠId e
Ġreb ounds
e ep
ad ian
ĠT ask
ĠM eg
Ġlack ed
Ġsu cc
Ġpract icing
us c
ĠStr ong
ĠPal m
m atic
am pton
Ġorder ing
Ġnot ification
Ġd airy
Ġfact ions
Ġimport ed
on al
Ġoverwhelming ly
Ġhabit at
ĠÃ ł
Ġhead er
Ġdict ators
it ted
ĠLook ing
P ac
k ar
Ã© e
ol ics
Ġref res
Ġcritic ised
ĠW es
Ġman uscript
Ġel ites
Ġscholars hip
h at
ĠM ath
Ġins pection
ĠMc D
Ġdep icted
F ile
re cy
um ar
s ight
ĠD im
an ies
ask et
Ġsw ap
ĠB aby
T Y
ĠE thereum
ĠTh ai
Ġfru its
ny der
ĠMart inez
sh aped
gr at
charg ed
Ġprec ip
ch ant
ĠM aking
ĠGib son
on ut
Ġtr im
Ġpredict able
Ġmeasure ment
Ġconv ictions
ĠJ ared
Micro soft
Ġcollect ions
ĠJ ed
ĠCast ro
ĠHel p
ac cess
ĠCh an
Ġsur plus
Ġfemin ism
Ġra ids
O kay
Ġwas ted
Ġactiv ated
ĠCo ff
Ġorg ans
ĠLat ino
ĠUn ity
Ġfe ver
Ġdist ress
tr ue
Ġsu ite
ab lo
Ġcolumn ist
Ġwhe at
P ass
Ġab ortions
ĠHT TP
Ġfinger print
Ġpoet ry
V I
ĠWood s
s n
Ġl ips
ĠK in
Ġiss uing
Ġdepos its
ĠE P
em et
um my
gh azi
Ġforth coming
ĠB att
Ġactiv ation
sec ution
Ġbe ans
ĠL akers
ĠC ou
Ġj ets
Ġun law
Ġappreci ated
Ġt ender
Ġle ver
Ġsatisf y
xx x
C all
Ġpurs ued
Ġoff s
ĠB esides
Ġrall ies
ĠN ine
Ġconst itute
ĠY ellow
Ġwe aker
Ġprogress ion
ĠAdv anced
y on
Rober t
H ello
ON E
Ġru in
Ġsup reme
Ġlit igation
Ġcons cience
p resident
Ġh urd
Ġfin ances
Ġch ick
ĠLight ning
Ġcomp iler
ĠDem ocracy
Ġj unk
Ġamb ig
ĠAn a
Sh ort
ĠTex ans
J oe
Ġd awn
Ġfre el
Ġcrack down
ĠMer cedes
Ġbe ast
Ġschol ar
Ġm g
gom ery
Ġpost ers
ĠJeff rey
otten ham
ib les
Ġefficient ly
Ġwh oles
Ġelect ro
ĠM ade
ĠD w
ĠNorm an
ĠE S
ĠH ig
ft y
Ġs id
ĠC urt
s omething
ce ans
Ġobsc ure
Ġkilomet res
s un
v oc
Ġhel m
Ġguarant ees
Ġcar ing
L ab
ĠSum mit
ĠTra ff
ĠMag n
ĠD I
n ia
200 7
M ad
ĠAd ded
Ġuncons cious
Ġmo ist
ĠS au
ĠVis it
ĠLabor atory
Ġstart ups
ĠPoint s
Ġactiv ism
ĠStud ent
ãĢ ģ
Ġneg lig
ĠToy ota
ys on
b augh
iment al
Ġneed ing
Ġconfir ms
ateg ory
ĠO pt
Ġdes cent
ĠF o
ĠK enn
le ague
AS S
Ġliber ties
Ġinf inite
Ġg ly
UL L
Ġconcent rations
Ġb ored
Ġsc attered
Ġaccording ly
Ġthreat ens
Ġinstall ing
Ġd un
ĠC it
ĠA ub
Ġ0 9
Ġrock ets
ĠCreat ive
m ax
Ġro oted
Ġsec uring
Ġwood s
Ġinstruct ed
Ġhy pe
Ġpass port
ĠHud son
Ġport rait
Ġdis hes
ĠNY C
Ġir ony
Ġgot ta
ĠGand hi
Ġinf ilt
ĠB omb
p aid
Ġunh appy
Ġtransport ed
Ġassert ion
Ġfix ing
ĠFred er
D el
ĠCan cer
ĠAh mad
Ġwat ches
Ġr abb
Ġd ining
ogen ic
Ġman ually
Ġch im
ing le
Ġcry stal
Ġcustom s
Ġint ensive
Ġcont race
ĠStat istics
am mar
B ro
Ġprofess ors
oul os
Ġpat ents
est on
raw ling
ĠMarg aret
11 1
Ġassign ment
os aur
ĠL ion
ĠYou th
Ġund ocumented
Ġsp here
ĠC ool
ess age
ĠW alt
Ġremain der
ĠMos ul
ĠI R
own er
AC E
ĠSpr ings
ĠHe zbollah
Ġ196 6
ĠB apt
ĠBoy s
Ġshout ing
Ġhe ating
uck ed
ris k
ĠCh ad
ĠInter ior
Ġceleb rities
ĠS K
ĠW ang
Ġtra ject
Ġsurvey ed
ĠT ree
Ġproject ions
ĠC P
Ġen vision
Ġsh ark
Ġpost season
g ue
Ġge omet
Ġreact or
Ġdis gu
Ġc abin
arm ing
els h
Ġsl ated
Ġmarg ins
Ġbull ying
ĠL arge
AC T
ys ical
Ġmix ing
Ġr ou
Ġl i
Ġt ennis
Ġsystem atic
ĠSqu ad
ĠN ad
Ġeas iest
Ġbackground s
ers ed
Ġvacc ines
Ġsound track
Ġgr im
Ġfavor ites
ĠMon ster
Ġmin es
Ġment ality
ĠMov ie
Ġcommod ity
erv ice
Ġin k
ĠB anks
Ġdig est
Ġconce aled
Ġacadem ics
N on
cl ub
Ġapart ments
ĠId ent
Ñģ ÑĤ
Ind ia
Ġaer ial
Ġsu e
Â »
Ġbe ats
Ġadvent ures
Ġpr one
Ġd ug
g irl
ĠBM W
F ive
Ġw ra
Ġbatt ling
ĠH im
ĠCom cast
h art
Ġforg ot
ĠL ower
Ġdress ing
12 5
Ġm ud
Ġm apping
ik o
Ġtou ches
_ {
Ġgrass roots
Ġcome back
Ph il
S il
Ġbl ade
Ġdis puted
ĠG aming
ĠCom ic
ach t
r ising
j pg
b b
ĠPri or
emet ery
Ġmet eor
A E
Ġ0 8
ĠD rop
C re
Ġhe els
Ġc aucus
Ġ( Â£
Ġpromot ional
.' "
Ġ0 4
Ġpark ed
Ġfl ies
Ġch rom
ĠH onda
Ġc ables
Ġsm iling
Ġshout ed
Ġappreci ation
ĠP etro
ĠY ale
ĠMal colm
Ġcontinu ously
Ġl ied
Ġdist urb
ĠNe uro
id ity
ix els
Ġnut rition
Ġflags hip
Ġsl aughter
Ġble eding
Ġs od
agg ering
ĠOper ations
Ġindic ator
Ġgas oline
Ġca f
ens ed
b ra
Ġhand les
ph is
Ġdispl aced
Ġan om
ĠForm ula
ĠTe levision
Ġdep uties
st ud
Ġsc i
Ġremote ly
Ġmathem atics
ĠÂ »
Ġsc ales
Ġrhyth m
ĠKen ya
Ġsh oe
Ġm i
Ġtrop ical
Ġcol ony
sh it
z el
es ville
M E
ab lish
ĠAb raham
ĠF alls
ĠInd ependence
ĠA K
at ility
Ġm ol
Ġstr angers
Ġse gments
atch ing
Ġmulti pl
ĠCol lection
Ġ( -
Ġmount ing
Ġw ield
Ġstaff ers
ĠP ract
Ġgen ocide
ĠDam ascus
S N
Ġver bal
ĠBelg ian
Ġpolic ing
Ġacc laim
ot er
mid t
Ġimm unity
Ġfl ames
ĠFin als
Ġill usion
ĠK o
ĠBen ghazi
l isted
ĠVin cent
ĠM ons
Ġl inem
w age
ĠCry stal
Ġd ough
on gh
or ically
Ġstat ute
Ġdis reg
Ġcle aring
Ġunp redict
ĠSt rip
Ġsh ook
ĠM is
Qu est
ĠSim p
Ġpull s
im g
Ġdig ging
Ġprompt ing
ĠSome one
Ġic ons
Ġcompet itor
W W
Ġport ions
Ġinherent ly
Ġcharacter istic
Ġg orge
Ġu pt
ig ion
Ġconnect ivity
Ġcompar isons
Ġbr idges
el ed
ĠCar r
Ġbench mark
ipe g
ro v
ch t
AS E
Ġ196 3
f ix
ad itional
ĠWe ap
th reat
Ġaffili ated
ĠM end
ĠCo in
ĠX i
ĠWh ats
Ġamb itions
Christ ian
ĠW a
Ġto pped
ĠBr ain
ĠRaven s
ĠBr ight
Ġsh aking
ĠD elta
Ġcertain ty
Ġsmall est
Ġcent ered
ĠM ini
w ait
r ise
ar se
Ġcar n
Ġbehavior al
Ġcro re
P age
Ġbl unt
ĠB ren
W omen
cific ally
ĠNew castle
ĠMajor ity
Ste ve
Ġd are
ĠTom my
OU R
Ġsynt ax
Ġdispos al
ĠHop efully
ĠIniti ative
yn asty
lud ed
Ġapplic ants
ĠCont ent
ud ed
run ning
Ġpit ched
Ġfortun ate
Ġw ished
OR D
Ġmusic ian
Ġup hold
ĠW ITH
ĠUp on
Ed itor
Ġmed ieval
ĠC ash
Ġwild ly
Ġimpact ed
Ġreprodu ctive
ĠTH IS
gg ing
ĠA er
ĠSat an
Ġstorm s
Ġst ap
Ġdis ruption
ĠSch olar
Ob ject
Ġpit ches
le en
Ã¶ r
Ġview er
Ġwe ighed
ĠB ody
Ġcontribut ors
C AR
C onst
Ġgl ac
Ġat op
ĠG raph
ĠC opyright
Ġur anium
ĠPortug uese
s ay
we gian
Ġanx ious
Ġ| |
Ġcook ed
ĠApp arently
Ġfoot print
Ġd ent
Ġbe es
Ġh ipp
ĠR ank
he art
Ġamend ments
ot ive
c amp
igg s
Ġaest hetic
ĠCoun ter
n ar
ĠWal mart
sh aring
T ext
Ġst ub
ĠA CC
Ġ0 5
Ġaver aging
ĠW ere
Ġeat en
ean or
ĠH ERE
Ġst int
tit le
ich t
Ġadjust ments
âĢĿ ).
Ã© t
s ite
Ġwe ed
Ġmy st
or um
ong yang
Ġst akes
ĠRe yn
Ġprior it
Ġas leep
h h
Ġve ctor
ĠW ings
ĠEm peror
ÃŃ a
ur ally
Ġtheat re
ĠArch itect
p ical
Ġindivid ually
Ġem pir
Ġim minent
he y
ow itz
Ġrep ository
s u
Ġfaith ful
Ġpat ches
B as
Ġphys ic
Ġsh adows
Ġr ipped
Ġcinem a
ĠR ule
akes pe
Ġp und
G C
Ġadvis ory
Ġe go
Ġdes erved
Ġcon grat
Ġattend ees
ĠSt alin
et ooth
V is
Ġst aring
ĠIndust ry
ĠK i
Ġfe ather
ĠOther wise
Every thing
ĠD anish
3 50
Ġfound ations
ra vel
Ġsp ont
Ġcru ise
Ġdemonst rators
Ġr anges
b ach
d ollar
ĠLegisl ature
P eter
n c
ĠM ob
ĠH S
F ore
Ġrecover ing
ĠVal ent
ĠCar roll
Ġcand y
Ġsufficient ly
ĠB ills
Ġdep osit
ope z
ĠM ann
Ġque ue
Ġdistinct ive
ĠCrime a
} ,
Ġju ven
Ġinspir ing
Ġcar b
Ġlegitim acy
ĠS id
Ġcl ue
ad ata
Ġp add
Ġbon uses
Ġjail ed
ĠS QL
chn ology
Ġj azz
Ġcert ified
,' '
Ġn ucle
Ġcr ap
Ġrail way
Ġque en
ĠReds kins
Ġhier archy
T T
Ġund erest
Ġhistor ians
âĢĿ ?
Ġclim bed
ĠS ale
ĠK urt
ĠIm pro
bro ok
Ġal erts
Ġincumb ent
Ġmetab ol
Ġn ail
ĠColomb ia
Ġsupp ress
ĠGr an
Ġadjust ment
Ġpl ausible
gu ard
ould er
ult z
Ġun believ
om ore
Ġc age
ĠR A
ĠMet al
Ġpar as
ĠLe ave
Ġsuprem ac
Not es
Ġcr ashes
ĠUlt imate
Ġrein force
Ġab usive
ĠCons umer
Ġcook ies
Ġphys icians
pect ives
ĠGener ation
Ġt ide
Ġe cl
um per
im ity
Ġexplan ations
ĠB ent
Ġa fore
Ġmin imize
ĠW E
Ġcont ender
Ġut ilities
Ġshe lf
erv ative
Ġamb ition
Ġimprison ment
Ġblow ing
op oulos
Ġneg lect
T est
% ),
Ġfound ers
ĠH az
ĠD ame
1 000
S ure
Ġresc ued
Ġoff enses
Ġposition ed
ĠId aho
orth y
Ġzomb ie
S w
ĠE t
Ġlight ly
Ġconsult ation
ĠR O
Ġvel ocity
g ow
Ġmet er
Ġsc am
Ġdirect ing
ĠShan ghai
Ġcig arette
Ġelect orate
Ġdeleg ation
ĠCre ate
ĠSimp son
ĠCommon wealth
Ġflav ors
M ENT
min ing
Any one
Ġgi ants
st ation
als h
Ġde ar
ĠCh ampion
ĠPer formance
Ġmotorcy cle
ĠWest minster
Ġboy cott
ĠN ut
Ġansw ering
Ġby tes
Ġ( +
H ome
Ġeduc ate
Ġsie ge
ĠK il
ĠG N
t ax
Ġbox ing
Ġhuge ly
Ġincorpor ate
Ù Ĩ
ĠV M
ĠThe ory
! !!
Ġpersu ade
Ġmor ph
Ġpromot ions
ĠS witch
Ġu m
Ġexplo ited
ĠLeon ard
ob a
Ġv icious
Ġal igned
ĠCol ts
ĠLim ited
Ġp ork
Ġhalf way
uter te
n els
Ġrow s
ĠS anchez
ĠM asters
ne ed
ĠF ix
Ġrun ners
Ġab rupt
an as
Ġf reed
ing rich
Ġlad der
Ġt a
osh i
ĠArm strong
ĠK end
prising ly
Ġcollect ively
AR K
ĠX L
Ġsim ulation
ĠM oss
Ð ²
Ġch asing
Sp ace
h aw
Ġoff line
ason able
Ġapp ar
Ġluc rative
Ġgener ates
R ad
Ġintegr al
ĠInt egr
ĠS ie
Ġrecogn ised
d est
Ġshow case
am on
er ness
ash a
ĠW or
Ġdies el
C le
Ġconsist ing
ĠP orter
ĠK ane
akespe are
Ġaccess ed
Ġabsor b
Ġplant ed
Ġelement ary
Ġautonom y
Ù Ĭ
l av
ĠW ant
ĠEs pecially
Ġsli pped
Ġfif teen
ere rs
Ġassoci ates
ĠSc he
ĠSocial ist
I ES
Ġb ru
Ġopt imal
ĠO culus
ĠU CLA
ĠA F
Ġcurric ulum
ĠM ut
ew ay
Ġmilit ia
ĠSteel ers
Ġjer sey
Ġcere mon
ĠAn alysis
Ġp iano
R yan
Ġlow ered
Pro t
Ġmar riages
olit ics
ĠConfeder ate
Ġ.. ..
Ġsp ike
al one
per m
ĠM ol
ĠLe x
ĠK aren
ĠCan n
Ġman a
ĠPriv ate
am iliar
Ġacc ent
ĠS B
ber ger
asc ript
I ran
ad ays
Ġnegoti ated
Ġadv ancing
Ġs oup
Ġop ener
Ġancest ors
Ġtri v
Ass ad
Ġpo em
½ ï¿½
ï¿½ ï¿
Ġw itch
ra f
ĠEm ir
ĠStr ateg
c ourt
ef e
Ġappeal ed
b us
He alth
Ġauthor itarian
Ġd orm
att ack
Ġeff ic
ĠD j
ie ce
Ġrecruit ment
a que
M ap
Ġmatch up
Ġâ Ī
Ġbl at
Ġquant ities
Ġbr on
ale z
Ù İ
Ġslow ed
Ġpist ol
ĠS add
ĠI Q
occ up
Ġport able
Ġsatisf ying
Ġmanip ulate
ĠQ ur
Ġimp osing
Ġinhabit ants
um ed
ĠÂ Ń
Ġquarterback s
ĠS ri
Cont act
And rew
ĠâĢľ [
ĠT on
Tex as
Ġunp opular
Ġo w
Ġbl oc
il itation
Ġprotect s
Re view
Ġper ipher
Ġillust rate
â Ļ
Ġu b
Ġt ales
ĠJ ama
Ġal uminum
def ense
ĠT ravis
b as
Ġloc ate
Ġp iss
Ġclass ification
ĠMon th
k it
Ġup s
Ġconsist ed
Ġemb ark
Ġhon ored
ĠH ousing
Ġpay roll
reg ular
Ġhom icide
Ġfact ion
Ġar rog
Ġtreat s
Ġche ss
ment al
ir ies
Ġdelight ed
Not hing
Ġres ent
OC K
Ġo we
Ġprem ature
Ġblog ger
ĠN ord
ĠGreat er
ĠEn forcement
ator ial
add afi
Ġtrave lled
ĠK ap
Ġcrus hed
ell ed
Ġp ond
Ġp estic
ĠM ills
Ġconsum ing
il ight
Ġdiam eter
Ġprotest ing
Ġfert il
Ġadminist rator
Ġp ul
ĠV ent
Ġlog s
Ġhapp ily
ĠF ace
m ean
road s
ĠS outheast
ik er
ĠD olphins
Ġinv ention
Ġmet rics
ĠG or
ĠOrig inal
Ġacadem y
ĠS nyder
ĠPr ison
Ġprol ifer
Ġdec isive
ĠAmb assador
Ġt ended
Ġat omic
oun ter
ke eping
RE D
Ġart illery
Ġover view
el ong
Ġy oga
Ġpat ron
ball s
Cont in
ĠS eth
Ġinc ap
ant om
Ġv ic
ĠN GO
ret ty
Ġg ates
Ġsent encing
Ġinstrument al
ĠSal v
l iv
Ġuns upp
ep s
Ġno ble
ibl ings
Ġsimilar ities
ener ation
EN D
Ġclin ics
Ġrecogn ise
ĠCath olics
Ġdetect ive
el ines
ĠCase y
Bl ue
Ġdri ed
ĠD erek
Ġc ad
ĠR ut
Ġqu ot
ĠS pl
ĠSc reen
m ph
N ob
l it
H C
Ġdat as
ĠDel aware
ĠGl as
it ous
Ġsl ammed
Ġliv est
ech an
Ġconstitu ents
met ic
Ġcontem pl
ĠH ence
ĠTer min
ad h
ĠDar win
ll ah
e ur
M or
Ġrest oration
F orm
ĠRichard son
ourn ament
ĠBre tt
Ġyield s
Ġupgr aded
Ġprob ation
s ix
e ger
Ġincl ined
ĠÎ ¼
ĠL ate
Ġven ues
Ġlad ies
connect ed
S cient
ĠO ften
Ġd ude
Ġprohib ition
Ġrif les
ĠY u
Ġcomb o
ĠLouis ville
Ġmark ing
Ġmasc ul
k ov
W ould
Ġsp ying
Ġseek ers
Ġcat alog
Ġapp le
r ational
Ġgen ome
Î ½
C ome
Ġenthusi astic
Ġshow c
ĠG az
Ġincons istent
og yn
ĠWe bsite
ĠNich olas
Ġmis er
Ġbreat he
Ġr ip
Ġfart her
Ġappl aud
ĠV a
M ain
Ġ196 2
Ġsl ides
ĠHus sein
Ġr ider
Ġexp ans
ĠW elsh
Ġfrag ile
Ġinvestig ator
ĠDise ase
Ġl ion
Ġbi ased
Ġthr ust
ĠGene va
ĠNo ah
dep th
ĠN okia
ĠHop kins
ĠT rip
Ch ild
Ġhum ble
uff le
Ġlic ence
ig o
Ġpr iced
ns ic
Ġpost p
Ġh ref
Ġcor rection
lev ard
Ġremark ably
-- -------
Ġimm un
ĠPar ks
T otal
is le
ĠMont gomery
ĠRepresent ative
Ġadvis or
Ġspe ar
ĠLoad ing
Ġcon form
ĠMatthew s
Ġvari ants
ĠC rew
" ).
Ġex cerpt
ĠLear n
Ġrecip ients
Ġsynt hetic
Ġshel ves
om on
Ġdep ressed
ĠA br
Ġun related
ĠNorth west
A ir
Ġweakness es
ĠW rest
Ġn ostal
Ġend angered
Ġt ires
Ġbail out
Ġcl ips
Ġcatast rophic
Ġc otton
asc ular
Ġtro phy
ĠHuff ington
ĠEll is
ĠP ierre
Ġtight ly
Ġjud ged
b ane
Ġo st
Ġg ren
ID E
Ġnic he
ĠC airo
he ster
e ous
Ġo ath
w ent
ourn als
ĠL oc
v ance
Ġev olving
p ad
ĠLeaf s
f inal
Ġutil ize
Ġun con
ĠEag le
serv ice
it ially
amp ire
ĠB O
Ġalleg es
Ġst aggering
Ġcol ored
ĠB ach
Ġair ports
d ist
Ġgang s
Ġup ward
Ġp oured
Ġnurs es
c ond
Q ue
Ġpract iced
names e
Ġdown s
Ġbre wing
Ġfor ty
Ġsec urities
he arted
e i
o ir
Ġmon itors
Ġcooper ate
ĠT ak
ĠD oc
D ate
ĠVeter ans
p ose
and als
on o
Ġr iots
Ġinterven e
ĠV ideos
ĠH appy
Ġm a
ĠAn onymous
reat ing
ĠW ait
ĠAs k
Ġsl im
Ġcoinc idence
ans om
ĠT ab
ĠSur face
Ġcamp uses
Ġpros pective
Ġencrypt ed
U G
ĠK ids
We b
Ġbook ed
f un
Ġextensive ly
Ġrel iability
Ġhor r
Ġchap ters
ĠSt ories
Ġank le
ot ics
Ġoptim ism
ach i
q a
Ġinterf ere
Ġecho ed
b ast
Ġmonit ored
ĠCD C
ĠH A
iat ric
Ġrem inis
ĠP ew
a uth
Q U
Ġprop osition
que z
ĠUS C
il ers
ĠY am
Ġpredomin antly
Ġflo ors
ĠMun ich
ĠThanks giving
ĠJ in
ĠBer g
Ġsepar at
Ġwar ns
Ġang les
p ically
Ġm igrant
Ġsymp athy
oy le
ĠVis ual
B B
ĠS ter
Ġtask ed
ĠIS BN
ĠH ass
E s
Î ¿
Ġint oler
Ġinsect s
Ġdefic its
F ar
Ġgenet ically
ĠA FL
l ance
Ġwell s
ent ry
Ġwe ars
Ġre nown
ĠV illa
ĠA pr
i ott
ĠGr ace
ĠAg ent
Ġbound ary
Ġver b
Ġenfor ced
Ġfore most
ĠArn old
ĠS r
r ays
p res
Ġw ives
ĠB eth
ĠU P
b ucks
ĠPr ide
U ser
Ġste ering
De velop
Ġne arest
ĠACL U
Ġpract ition
ĠSom alia
B rown
Ġfil ters
Ġwhistle bl
ĠTun is
ĠJ ays
in ers
ĠE sp
ĠP ub
Ġnav ig
Ġcoord ination
r ar
ĠHe brew
Ġext inction
Spe cial
Ġinher ited
Ġcl iff
d imensional
ĠK ush
st ated
ov an
Ġbre eding
ĠE le
Ġpositive ly
ĠR ot
ĠBudd hist
pro cess
ard i
ĠKurd s
itz er
ir us
AT H
Ġcomb ining
Ġfe ud
Ġpartic le
Ġincl usive
Ġfor wards
Ġsh ine
ĠAct ually
Ġs acks
ĠTri ple
Ġ10 5
ir ation
ĠFor bes
Ġcul p
m ake
ĠSw an
os c
s uper
ann ers
Ġscar ce
Ġd ip
ey ed
ĠReg ion
Ġe ld
h all
Ġreward ed
Ġpri ests
Ġassist ed
ĠP engu
Ġd oses
Ġatmosp heric
Ġemer gence
iet h
Ġdescript ions
Ġhand ing
ĠGet ting
I ts
Ġche f
is co
s an
Ġt ense
ĠSchool s
acer b
B ox
Ġobtain ing
Ġsens ible
Ġrelax ed
Ġafore mentioned
Ġinput s
ĠMem phis
ĠC amb
ĠWinn ipeg
y outube
Aug ust
ĠFl a
ĠT X
ĠCl int
cons cious
c ock
Ġg rief
ĠCy ber
ator ies
Ġener g
ĠAbd ul
ĠW AR
am ount
Ġkind a
Don nell
Ġw oke
Ġbureau cr
an cer
ek ing
Ġins ufficient
Col or
Ġbo asts
ĠHend erson
sex ual
ĠK enny
Ġz oom
Ġther mal
Ġcaut ious
Ġcommer ce
Ġimpro per
16 0
Ġcandid acy
ĠP aper
Ġdeb ts
Ġrespect s
Ġillust rated
Ġconv entions
Ġc oding
200 6
are a
Ġuncom mon
Ġdys function
ĠR alph
ĠL um
Ġst airs
ĠH ack
Ġpl um
Ġpersonal ities
het ical
L ine
Ġlight weight
Ġreal ities
Ġslow ing
ãĥ ¼
od er
Ġreal izing
Ġbelong ed
Ġoverlook ed
r ina
Ġupload ed
Ġ12 8
{ "
act iv
ĵ âĢĵ
Ġbo o
Ġadd ict
Ġexp osing
Ġcycl ists
id y
ĠCur ry
ĠF ixed
Ġnurs ing
ĠD ust
M iss
Europe an
Ġc ensus
display style
Ġth rive
Ġtest ify
Ġintu itive
Ġb od
sh adow
Ġperform s
ĠP HP
l anguage
O p
Ġautom ation
ĠVal ue
f illed
Ġadd itions
ĠBar nes
Ġtour s
Ġpo ised
Ġunsupp orted
ĠPy ongyang
Ġquick er
ĠBash ar
Ġenjoy s
Ġord inance
Ġcirc ulation
Ġadm ire
Ġoutrage ous
ĠH off
ĠSt rike
ĠReg ister
Ġc ripp
Ġblank et
play ed
Int erest
ĠN uclear
an throp
Ġbas ics
Ġtat too
Ġse ize
Ġred es
ĠRe lease
Ġass erted
ĠStep han
st rom
Ġagg rav
Ġt ags
ĠB ark
Ġorig inated
er ie
Ġsubject ive
Ġpaint ings
ĠPre vention
ĠKle in
g rown
?? ?
Ġrecip ient
Ġ196 1
Ã ¸
Ġje opard
Ġty r
Ġa in
ane y
Ġvibr ant
Ġno on
ĠK iev
ile m
Ġvol t
Ġg em
Ġcomb inations
Ġcas ino
Rich ard
Ġwond ers
ĠRe act
Ġb ent
ĠSil va
Ġcoord inated
ĠMc N
Re illy
L ocal
Ġrepe ating
Ġgu ides
ĠUn less
Ġgr ades
ins ki
ĠWild life
f air
Ġredu ctions
Ġawa iting
ĠSh akespeare
un al
et z
Wh atever
Ġl oot
ĠKas ich
eng ine
Ġmonop oly
Ġliqu or
Ġwh ales
ĠH ook
Ġparticip ant
ch at
ĠC raw
Ġfl own
Ġeval uated
ĠA j
Ġspr int
S un
ĠWord Press
ĠB ec
L L
Ġs way
ĠSch ne
ĠTit ans
Ġim aging
g on
Pl us
ĠNor wegian
ĠM atch
ĠHold er
ĠAd rian
Ge orge
Ġred irect
cl ock
Ġdeal er
ĠJ ur
ĠFal cons
Ġcl ues
il ogy
Ġhilar ious
ĠV I
ĠCom plete
mit t
ĠE aster
Ġmention ing
Ġtrad ers
Ġreflect ing
ĠBudd h
Ġ0 6
Ġh obby
amer a
ĠAl z
p ict
Ġtast es
ĠEmer gency
Ġdetain ees
Ġabund ance
ĠDod gers
t i
ĠNov a
Ġsc iences
Ġmerch and
up iter
Ġnever theless
ener gy
.' '
Ġan ten
Ġbuy er
ag le
ĠRand y
Ġsoul s
ĠC ort
os ion
Ġwh ale
Ġpick up
A AA
ĠJ unior
f amily
Ġs i
ine a
Ġdev il
S al
Ġinher it
iz oph
ĠC I
ĠH ob
Ġtriv ial
~~ ~
ĠT ories
ĠF aith
ĠEm ily
az or
ĠH ost
Ġc ared
ĠR ust
ĠPear l
ec d
ĠR ules
Ġbot hered
ĠG ang
u ber
gg y
Ġlit eral
Ġform ats
Ġfl uct
ĠG oth
ĠAt hens
Ġwatch dog
T L
ĠBa iley
ĠIsa ac
L ove
ĠGab riel
ĠAgricult ure
Ġopt ical
L og
Ġsl ogan
us p
ĠK id
ruct ed
Ġdatab ases
W elcome
Ġu mb
h it
Ġdist ances
g ay
Ġman ga
cy cl
Ġunder grad
Ġbl u
ĠE ye
b illion
Ġsam pling
s ens
S ources
ĠC ob
l at
am ples
Ġc ivic
Ġaston ishing
ĠT ottenham
Ġrece ipt
Ġdark er
Ġobs essed
Ġdemonst rating
Ġgr ams
ÂĢ Â
ou ble
ĠEr n
Ġhur ting
ĠMet ropolitan
st airs
Ġsun light
Ġinadequ ate
Ġins isting
Ġexha usted
rop he
Ġwrit ings
ĠTh rones
ĠS ite
Ġunder water
Ġemp athy
Ġp unk
ĠU l
ut ton
ĠFerr ari
Ġfin est
ĠJosh ua
Ġcou ch
Ġlobby ists
it ime
ep rint
ac i
S ocial
Ġs iblings
ĠEv an
ĠPere z
Ġoverwhel med
Ġorgan isms
ĠHy d
Ġdiplom ats
Ġe ternal
ĠJen kins
Ġst agn
Ġvast ly
Ġserv ants
es ar
ad os
C ON
ĠAustral ians
ĠT win
Ġprotocol s
Ġmicro sc
Ġm es
ĠM UST
ĠDep ression
" ),
Ġcon gest
alk ing
en es
Ġsn ake
Ġsm iled
ĠC F
ĠB our
us k
ĠSt uart
ear th
Ġhorizont al
Ġpremium s
Ġassault s
Ġde portation
Ġpus hes
dri ving
Ġex acerb
Ġmole cular
Ġw olf
Ġen compass
ĠP oke
ĠJ ob
Ġprox imity
Ġmet ro
d id
Ġunderstand able
Ġconj unction
W as
ĠLe aders
ĠHer oes
Ġcraft ed
ĠS weet
Ġpay load
ĠA IDS
Ġspin ning
im edia
ĠT iger
ĠS gt
ĠHe avy
o at
Ġbank ers
Ġproceed ed
ĠF uk
Ġbarg aining
rell a
Ġwork out
Ġcapt uring
Ġb og
Ġjew el
N O
xt on
Ġadv ise
Ġen light
ĠN y
Ġver ified
Ġprim aries
ophob ic
Ġg ases
Ġ19 48
Ġinaug uration
Ġb ounce
ĠProp het
Ġmed ications
ĠSt range
im ination
v id
Current ly
Ġapolog ized
Ġst aged
inent al
Ġl ingu
osa urs
Ġshall ow
Ġk et
Ġactiv ate
Ġaccompany ing
ĠPro bably
Ġax is
ĠD ylan
Ġsec recy
G P
ĠA ur
Ġsurf aces
Ġeleph ant
t ake
c ur
Ġinjust ice
ĠNot es
Ġimprison ed
ĠSc ript
D isc
Ġpromot es
Ġsus cept
Ġj ar
Ġimpl ied
ĠKash mir
ĠViet namese
ĠSach s
Ġsupp liers
im er
r ab
Ġrebell ion
ĠShe ll
izoph ren
ĠB io
i u
ĠM ix
ĠAp ollo
sh ine
other apy
Ġun named
Ġind ul
Ð ´
Ġnational ism
ĠB in
ĠL av
D ear
Ġfiref ighters
Ġalph a
h ouses
Ġsp am
ĠG ingrich
ig el
Ðµ Ð½
Ġcomp ile
ĠN um
ĠHe aven
ĠE A
ise xual
Ġlo oph
ĠSh op
S QL
Ġdisapp ro
int egr
Ġstate wide
Ġin ning
le um
H and
Ġwho lly
Ġrele g
or p
Ġbe am
Ġtra it
Ġadminist ered
ĠRe x
Ġpast or
Ġgener ator
f ood
Ġnot or
Ġtr ails
Ġincom plete
R ub
Ġretail er
Ġdr astically
ĠEconom ics
Ġcompl iment
ĠD ow
Ġshot gun
Ġassum es
ĠN am
âĢĵ âĢ
ĠF ew
Ġb aking
Ġen rolled
s ic
Sand ers
Ġsl ots
Ġb rib
Ġto ggle
Ġhur ts
Ġcont ention
Ġpop ulated
ĠCro at
Ġfit ted
ĠMar ie
Ġhint s
ĠInd y
Ġpa ired
Ġborrow ing
q l
Ġd uck
ĠTH AT
Ġnew com
Ġl amb
Ġp ets
Ġhighlight ing
ĠP ul
ĠR B
Ġbat ting
Ġstab bed
Con clusion
ind ust
Ġvit amin
Ġso y
Ġar row
Ġpar a
the ning
7 50
Ġf lick
Ġlot tery
Ġam ended
Ġl enses
ĠIns ider
Ġint ro
V C
Ġgra pp
Ġathe ist
ĠFl int
Th us
Ġb ang
ĠT PP
aw i
ĠGl en
Ġplaint iffs
ĠIndust rial
Ġobject ions
ĠR ab
Ġcontest ed
Ġaffect ion
Ġback ward
author ized
Ġcomed ian
Ġst ing
ĠC AN
intend ent
Ġext ensions
if a
ĠE ug
ĠW ag
Ġphenomen a
Ġm asters
Ġprob able
Ġparad igm
Ġout line
g one
Ġro pe
Ġc ites
ĠArab s
ie ves
AR Y
In s
ĠD at
Ġpen is
Ġth y
Ġj aw
// /
Cl oud
ou x
Ġun equ
ĠOr d
step s
Ġsub urb
Ġgorge ous
ro e
ĠCole man
uss ions
Sh ould
rig er
ĠIM F
ĠAsh ley
Ġmot ive
re a
nd ra
Ġrev is
Ġrespond s
Ġc ater
osp here
ĠIn g
Ġr h
ish a
is se
Ġtort ured
Ġmain land
ourge ois
Ġpass words
ãģ Ĺ
Ġemb ry
Ġinter ventions
Ġhelicop ters
ĠH alo
Ġg ently
Ġpopul ist
Ġmat rix
Ġanaly tics
sec ret
Ġself ish
Ġadmit ting
Ġobs ession
Ġan them
ĠEll iott
c iously
R un
Ġco h
Ġcat aly
ĠS ask
Ġp ills
Ġcontro llers
Ġstand point
ĠM ak
ĠApp eals
Ġsum s
ci ation
os oph
A ut
ot ine
ĠBur ke
in burgh
Ġterrit orial
iet al
Ġware house
ĠPat rol
Ġexplos ives
ĠD ad
ĠCh a
ĠP or
Ġconf isc
Ġcast le
Ġhur ricane
ĠM our
M ass
B erry
ĠJ os
Ġun ified
ĠGT X
Ġconcent rate
ump s
Ġcry st
Ġfig uring
ĠP and
it ational
conf ig
Ġcol ours
ĠV irtual
ĠV el
Ġsyn chron
You ng
Ġlog ged
ĠInd igenous
ĠOff icial
ut ral
Ġens ures
R P
Ð¾Ð ²
F ixed
D ev
ar ious
ook ie
Ġsymp athetic
Ġlog ging
Ġval ley
ib al
Ġprot agonist
Ġmin ors
s um
AM Y
Ġse as
C ent
Ġo wed
Ġprivile ged
Ġ* /
200 5
ĠSh o
ĠD rake
Ġerupt ed
ĠN aval
in v
igg ins
ĠQu arter
Ġcons oles
Sub scribe
az ar
ĠApp ro
uk a
Ġs atur
ĠE sc
Ġide als
ĠTreat y
E p
O k
ĠL anc
ut ic
Ġan ecd
Ġprosecut ed
Ġad ul
ĠSt ream
Ġsad ly
Ġdes irable
Ġpsychiat ric
oint ed
Ġsurf aced
Ġemphas ize
ĠSC P
Ġrev ision
Ġpl ots
man y
p olitical
d et
Ġwel coming
an ing
Th ink
ĠEm ma
r ill
du llah
ĠU FO
Ġfeed s
Ġdef er
ĠGu ild
commun ications
ĠâĢ ĭ
Ġsoph omore
pe ace
ant on
Ġto pp
ĠF ocus
Off icials
Ġweek ends
ick er
Ġstret ched
Ġcan on
Ġmos qu
d eep
Ġsand wich
ĠPel osi
oc used
M arc
Ġcal culation
ĠGo ing
Ġ ×
ĠT ol
year s
ãģ «
14 0
S ix
ĠT at
Ġdistingu ished
ĠW end
Ġmag net
ract ed
Ġincomp et
Ġconstit utes
ĠW alsh
Ġconf ined
Ġg ru
Ġcorrid or
Ġselect ing
ĠRoberts on
Ġen rich
Ġd ice
m and
Ġintern ally
if le
In c
ĠSim ply
Ġcorrect ed
ĠN RA
Ġhack er
ĠJ agu
Ġpool s
b ird
Ġinform al
Ġsens ation
ĠM t
ri um
Ġgreet ed
ĠBapt ist
AN S
ĠL anguage
M ult
Ġat roc
at tering
Ġcool er
Ġpartners hips
Ġunder cover
Ġdefin itions
Ġreact ed
Ġprocess ors
ĠCirc le
Ġgau ge
ĠV ersion
Ġtraject ory
ĠKn ights
Ġhome owners
Ġc el
ĠCon cer
p al
ĠRe b
op ath
Ġprov oc
bu ilt
Oct ober
Ġflood ed
ĠL opez
Ġvend or
Ġcompl ications
Ġjump s
ĠO mar
ĠH od
Ġcont ests
ĠR idge
Ġass ure
St op
Ġcur iosity
ĠF u
hol m
Ġla wn
ne ys
ant a
IT E
Ġfin ed
Ġconced ed
Ġsk ate
Ġpedest rian
Ġball oon
ĠD ale
Ġhom eland
Ġup rising
ĠLl oyd
Ġo ceans
Ġl od
ĠS ak
. (
stan bul
com mon
Ġliber ation
Ø ±
o qu
C BS
e pt
Ġcommand ers
w ald
Ġcompe lled
yl on
ind uced
Ġsyn c
Ġmax im
ĠCon n
H y
Ġprop osing
ĠD iet
Ġdeb ated
ĠB ot
Ġmach inery
Ġpropri etary
Ġfair ness
ĠSt ay
ĠW A
ĠAdvent ure
Ġall ocated
Ġh ills
âĢĿ ),
Ġsh irts
Ġreck less
Ġo ct
g mail
set t
c ue
ĠNS W
ans on
ela ide
Ġbuck et
ĠU g
ĠEth iop
h l
Ġhar ness
ĠDub ai
hed ral
Ġarm ies
do ors
ĠGu ant
Ġcompr ised
Ġpres cribed
ĠHe ights
ĠAlz heimer
is ite
Ã ª
Ad ded
B ob
Ġsuccess es
Ġunlaw ful
Ġsex y
ĠEn c
f its
ĠÐ ¾
Ġcolor ful
ĠInn ov
Ġpur ported
ĠN early
ĠC inem
Ġdelic ate
ĠTrans it
Ġbe e
he res
f a
od ied
Ġvar ies
Ġsing ular
Ġsl am
Ġcell ular
Ġair plane
Pro ject
Ġwas hed
Ġstere otypes
Ġc ried
Ġcho oses
ãģ §
ic ans
ĠC ensus
re v
ĠWe instein
Ġnick name
Ġment or
ĠThe resa
ĠS HA
ĠE M
Ġub iqu
sp an
Ġsuff ers
Ġnot ifications
iff e
ĠMar ines
aze era
\ /
Ġstory telling
Ġprompt ly
Ġ19 00
Ġfemin ists
Ġth a
ar ak
S IS
P T
Ġqu eries
ĠGreg ory
Ġpl ural
m ut
Ġproject ion
Ġambul ance
ĠL amb
Ġdebut ed
load ed
ĠAlf red
ĠF ine
ĠL O
Ġparad ox
he ed
ĠV o
ĠC li
rist ol
ĠW el
Ġconnect s
Ġbroadcast ing
Ġafter ward
ĠSh a
Ġun b
Ġrecru its
c ision
respons ible
Ġstrateg ist
Ġten ants
ĠFal con
Ġmor ally
Res earchers
ract ion
ĠH ood
Ġexem pl
Ġha w
Ġcompet itions
Ġvar ieties
S aturday
ĠSch umer
ĠK ell
p ark
Ġgri ev
az er
Ġvis ibility
Ġcl oth
Ġpot atoes
ĠU T
Ġtrans mitted
l ain
ry s
Ġprest igious
Ġsen iors
Ġstun ned
ĠHar bor
ĠSol id
D an
ĠPolit ico
Ġmethod ology
ĠD uterte
Ġmaneu ver
Ġperce ive
uff s
Ġvoc als
Ġcomment ators
Ġalarm ing
ĠT E
che m
Ġgl oves
Ġeleg ant
With in
Ġobst acle
Ġbur gl
Ġout reach
it an
Ġmil estone
Ġstruct ured
Ġmis dem
M ORE
ĠD ana
Ġco vert
asp berry
be cca
ustain able
Ġpit chers
re view
Ġcolon ies
ĠChampionship s
Ġsystem ic
Ġunpredict able
se at
Ġfool ish
IC O
Al ong
-- ---------
Ġweigh ing
ĠE arl
aun ting
Ġsw orn
Ġsm ok
Ġhasht ag
a ic
Ġver se
Ġb acon
ĠN as
d ess
Ġcr ush
Ġyell ing
! ).
Ġmax imize
Ġhost age
ov ak
ĠLib yan
Ġexclus ion
Ġhe ck
" [
I B
p c
Ġignor ant
Ġbless ing
ld a
ĠPost ed
vert ising
Ġrom ance
Ġrenown ed
Ġinsure rs
L ive
D am
ĠM aterial
gg er
ĠN FC
ĠImp act
ĠR BI
it ches
W ant
ĠOr acle
Ġlo vers
Ġinterrupt ed
at ivity
Ġconsider ations
ĠF ortunately
Ġimp ly
Ġmin us
ri ents
Th ings
Ġteach ings
ĠBou levard
m ajor
Ġimpro ves
Ġgar lic
im en
Ġhum ili
ĠC able
Ġinfer ior
Ġtime ly
Ġrel ates
Ġl ining
Ġhold er
iv ia
t ag
Ġbrut ality
Ġunsuccess ful
Ġbarg ain
ocaly pse
ian i
Ġdest inations
Ġprem ises
Ġl ament
Ġacceler ate
ownt own
Ġp ixel
Ġfin ishes
Ġbund le
ĠCharg ers
Ġpreval ence
Ġe Bay
Ġbr acket
Ġan nex
ĠC ele
ĠB rent
Ġk its
Ġincon ven
Ġvulner abilities
Ġcr ises
Ġp ap
Ġs ore
Ġneighbour s
ĠT roy
ĠB ever
Ġdiscover ing
n ull
ĠC rypt
Ġworks hop
Ġl ur
Ġout law
Ġuniform s
Republic an
ĠM oto
ĠLear ning
ĠWin ston
ĠF ear
ĠBro ck
OL L
Ġmer ger
f ax
ĠPar ad
ĠD h
ag ne
ĠLGBT Q
Ġexceed ed
ĠP le
Ġst ew
it ives
Ġr ust
ĠT weet
Ġdown ward
ĠAut om
ĠL ag
Ġprivile ges
Ġexc av
Ġdiscuss es
ĠSt age
J ul
Sh ow
Ġphr ases
Ġembarrass ed
ĠMor rison
ĠGonz alez
ĠGlas gow
Ġappet ite
Ġel imination
re ra
Ġball istic
C T
ĠJ upiter
ri ad
ang led
Ġn g
Ġ" [
IN T
Ġtoler ate
ĠI van
ĠH ab
ĠBlu etooth
Ġunw anted
Ġav iation
Ġgrad uation
ĠTh om
hy d
h n
em ption
Sept ember
Ġbrows ers
N or
Ġtw isted
Ġmar ched
O per
b ps
ĠThe ater
Ġcle arer
ĠL ux
ĠT i
ĠAven gers
Ġsol ic
Ġchampionship s
ĠH app
Ġenjoy able
b ard
Ġaccept s
red ited
id av
ĠL iqu
it as
Ġrecogn izing
Ġper secution
B ern
Ġmis ogyn
ĠW ake
Ġgun man
Ġg ad
x on
al iation
Ġa kin
Ġbl aming
ĠX P
Ġspecific s
Ġshut tle
Ġ10 80
ol ith
l al
Ġbed s
Ġwrong doing
og s
Ġresist ant
Ġdis respect
Ġtyp ing
Ġa u
Ġappropri ately
com fort
ĠPri x
ĠSpr int
Ġvol can
Ġcon ceived
ĠA verage
ĠSer b
ĠGOOD MAN
] ]
Ġl end
ĠF ighter
ĠU pper
Ġvac ant
ĠReyn olds
c ot
Ġre per
Ġcul min
Ġb ore
oci ated
Cong ress
Ġdis abilities
m g
Jo in
Ġdesp air
J S
Ġric hest
ĠJ eb
G I
an ity
ĠFil ip
C ourt
ĠN ode
âĢĿ ;
at ism
Ġextrem ism
ĠM ik
ĠE rik
H op
Ġnomine es
Ġthought ful
ard on
int o
R edd
Ġnotice able
ĠIns urance
Ġpip es
Ġingred ient
Ġdiam ond
Ġded ication
with out
ĠM ets
Ġcorner back
ĠSat urn
work ers
Ġthr one
ä º
99 9
Ġtw ent
Ġright ly
Ġnum er
in yl
ev al
ric anes
Ġprohib it
Ġid iot
oo o
Ġperform ers
Ġadvoc ating
ĠE L
Ġcondition ing
ĠM aps
Ġ} ,
t z
L ead
Ġtun nels
ra ve
An n
Ġex otic
Ġpr ag
Ġfuel ed
ĠTrans port
Ġrep ay
Ġan at
ins ky
Ġt il
Ġmeth ane
den ly
Ġste alth
U TC
U RE
ĠTurn bull
Ġthe sis
Ġfr acking
Ġsens es
th ouse
ĠÂ «
Ġcritic ize
ĠT ap
ĠL ogan
Ġwar rior
Ġl over
Ġentire ty
Ġdetail ing
Ġpl asma
ĠI gn
Ġdisplay ing
Ġout field
Ġartif acts
Republic ans
ex cept
ĠC el
ĠRep orts
Ġg rit
ĠÐ ¸
ci pl
nder ing
Ġun just
achel or
ine ment
ĠK on
Ġsuper f
Ġsing les
gu ided
F ind
Ġrecogn izes
ĠScient ology
ĠFre eman
ĠAd vis
C amp
Ġkn ocking
ĠF a
ish ment
Ġbar red
Ġloc ks
~ ~~
ĠBas ically
10 5
Ġdis asters
ĠLeg ends
ion age
Ġprejud ice
ĠCont act
Ġinflu x
C ode
ĠSing le
ĠPer l
Ġhead set
Ġmet adata
Ġadop ting
isp here
Ġmer its
Ġmar athon
red dit
Ġsur g
ic able
Ġfur ious
Ġacknowled ges
ic ularly
Ġrest art
ãĤ ĭ
ĠSadd am
vas ive
Ġp ixels
Ġmer cy
Ġstory line
ĠPC s
Ġtr aces
Ġcort ex
p arent
OU T
Ġw ary
sh irts
Ġwip ed
p aper
c ro
ĠEd inburgh
li ber
Ġdil ig
Ġband width
ĠPers ian
ĠB uc
ah ar
Ġpun ct
Ġv ivid
Ġinaccur ate
Ġinst itute
al ion
Ġl ag
Ġillust ration
Ġalt itude
Ġun m
Ġoff ences
ĠFrank en
Ġman kind
Ġoccup y
Ġdet r
Ġatt ain
ĠU nd
ĠStart ing
200 4
Ġv est
cent er
w ere
Get ting
Ġde er
Ġc ows
Ġpreval ent
ĠL ith
ãģ ¦
ĠAud io
M el
Ġ ë
ĠSt ef
Ġround ed
Ġprolong ed
ind a
ĠG y
o an
ĠKn icks
ram id
Ġbl essed
Ġinaug ural
Ġexem ption
ĠFR OM
A round
Ġsett lers
Ġgl uc
br and
D aniel
ĠR ange
Pac ific
Ġcoc onut
ĠBurn s
ĠMill enn
Ġd y
F in
Ġfreedom s
Ġseason al
ch anging
Ġab st
ĠP os
I Z
Ġph osph
Th omas
E lect
US E
Ġsm arter
b usiness
in el
ĠSU V
ĠA RE
Ġc raz
Ġindu ced
Ġunst able
ĠPr adesh
Ġwarr ants
Ġp ave
Ġer ad
Ġcar pet
Ġcap ita
Ġrefere e
Ġexped ition
Ġb ourgeois
Al most
D en
Ġf ist
p ers
Ġmot ives
Ġgr ind
Ġaggreg ate
Ġfact o
ĠDev il
ĠB uch
oy s
Ġprogram mes
ĠEmb assy
Ġaccommod ation
atin um
Ġ1 11
Ġh over
Ġcomb ines
ĠFif th
> </
Ġc ite
viol ent
ĠSt o
ĠSN P
E nt
! âĢĻ
ĠC aval
g rowing
c ourse
ĠR ift
For ce
ĠSpe aking
Ġst ems
Ġlisten ers
ac a
ĠC ad
Ġt apped
Ġ19 44
Ġdefe ating
com plete
G H
Ex per
Ġdiet ary
Ġcon qu
k ara
Ġbenef ited
Ġmir acle
ing ham
ab we
B Y
Ġprogram mers
Ġcoun cill
f light
Ġenthusi asts
Ġcr ust
ĠHait i
ĠI CE
t les
V ery
ĠR hod
ĠA A
Ġrecomm ends
ĠT C
f act
C rit
ĠW izards
c ig
Ġdef ect
port ing
ĠD ash
Ġbureaucr acy
Ġst yl
Ġsanct uary
Ġcriticism s
Ġhous ed
Ġsymp ath
/ //
Ġrig orous
op hers
im ag
ĠN ak
ĠE isen
Rec ently
Ġreb oot
Ġconcess ions
ick y
Ġprost itution
Ġpaper work
am el
Ġupd ating
Pr int
Ġsne ak
ic ates
in qu
Ġbom ber
ĠProgress ive
) -
Ġstatist ically
Ġunf amiliar
ren ched
sequ ently
r t
Ġlength s
Ġpred ators
ĠS ales
Ġun a
Ġdet on
ĠBas ic
ĠG L
Ġru ined
Ġme ga
Ġfor fe
ĠStar bucks
R ock
av an
er k
W R
Ġhost ility
Ġheav ier
Ġd ilem
Ġchar itable
ĠSch midt
imb abwe
ĠHy per
ount ain
ĠElect ronic
ĠR uth
p i
ĠK ob
ĠJul ia
ĠI stanbul
ĠO t
ĠN L
Ġphilos opher
Ġuns afe
i ov
ess ors
ched el
Ġposition ing
ĠC e
Phot os
Ġcoordin ate
ĠH orse
ur st
Ġst unt
Ġter rific
Ġreb uilding
ĠRoll ing
Ġins ider
Ġden ounced
ĠC ork
ĠEver ton
Fr iday
ĠÃ ®
Ġacqu iring
spe aking
Nob ody
ixt y
ĠE ST
Mc C
Ġter ribly
ĠGit Hub
lic t
Ġthere after
Ġsimpl icity
Ġpers pectives
ĠWH O
Ġcrack ed
Ġforb idden
ĠSu z
ight y
ĠSe oul
ĠN J
ĠAng els
Ġwh it
âĢ ²
Ġport al
ĠO kay
ond o
ĠO ri
Ġsoc io
Ġl aps
Ġsuper visor
ill es
ĠTim othy
ĠPartners hip
ĠL P
Ġillust rates
Ġf usion
Ġreferen ced
Ġj ournals
Be yond
ĠSe bast
place ment
Ġmult ip
ipp le
Ġobject ion
Ġpl at
Ġgr an
ãģ ¨
ist ical
Ġsh ade
ĠT ournament
ĠOw en
Ġinfring ement
cast ing
Ġoff ended
ĠMor oc
ĠA V
Ġs perm
so ver
Ġbig ot
rest rial
Ġsch izophren
ĠRom ania
ĠCitiz en
Val ue
ters on
Ġanaly zing
Ġtr action
Ġintrodu ces
or ie
av in
% ).
Ġrequest ing
lean ing
Ġantibiot ics
Ġj ungle
ograph ics
Ġident ifies
ĠSher man
M ex
Ġsl og
Ġas c
ĠE N
Ġ20 30
ire ction
Ġdiplom acy
ĠSpace X
bl ood
Ġch ill
ĠLe Bron
Ġintention al
Ġborrow ed
ac s
rat ives
fund ing
T ech
ish ops
ĠNot re
ĠS ame
ĠPrinc eton
pr im
Bel ow
Ġskept icism
Ġbro ker
Ġcert ification
B uild
Add itionally
l ived
Ġaff idav
keep ers
ĠLind a
Ġvol atile
bl ue
ĠVictor ian
it us
Ġfright ening
c in
Ġunch anged
v ity
ĠScient ists
p atch
um i
est ine
ĠMoh amed
Ġsuper b
Ġrec laim
ĠM az
ĠAl ways
et ed
Ġton nes
Ġreg ain
Ġar che
oles ter
ĠP ist
Ġso ap
Ġfat igue
ĠPoke mon
Ġshe lls
Ġdetect ives
Ġbet ting
ng th
N OT
ĠMa o
Ġend ured
ĠBet a
ĠS tern
Ġv ine
Ġorche st
ĠR S
ĠR are
ĠChe v
af ia
ĠExper ience
Ġindic ators
ĠC lear
ĠAub urn
m ass
ĠJ ill
Ø§ ÙĦ
ĠL iter
Ġvis as
ent e
Ġterr ified
Ġsh red
W il
ress es
AN K
Ġf ren
12 3
Ġhealth ier
Ġfav ors
Ġabsor bed
gg ie
ia o
ie u
ĠAust rian
Pl an
Ġrec ons
ĠDec l
Ġvir uses
Ġcooper ative
ĠK umar
ĠCourt esy
OW N
ĠC ities
us ers
Ġrestrict ion
Ġ11 5
T urn
Ġclean er
ern ame
Ġcirc ular
ĠLet ter
ĠMurd och
ay an
sh ould
Ġmir rors
b ial
ĠV ince
Ġlower ing
Ġcap ac
itness es
Ġche ating
Ġinterrog ation
t v
ĠIS IL
Ġbron ze
Ù ħ
Ġv intage
Ġpe cul
ed in
Ġsh aping
ĠD ani
ĠCl are
av ior
ĠPl ant
ĠH i
Ġund is
ĠAb dullah
Ġback yard
Ġ19 41
om ical
Ġref riger
Ġsubmar ine
Ġaccess ories
spons ored
Ġexclud e
Ġaut op
Ġunus ually
Ġ17 0
Ġph ases
on so
op ers
Ġnort heast
act ed
H i
C y
he e
P ay
Ġbe ard
P rodu
" ]
Ġunder going
Ġtack ling
ĠPerson al
Ġemail ed
ink le
Ġfree zing
er m
ĠM ig
Ġnational s
Ġcy l
Ġun real
Ġcell phone
Ġtake over
Ġmin eral
Ġhorm one
Ġb ast
Ġl av
Ġd od
Ġend uring
ĠDay ton
Ġsub po
ĠN ice
ĠM iles
Ġce ment
ĠRich ards
anc ers
Ġsquee ze
Ġdevast ated
Ġfilm maker
P o
Ġgoal keeper
bal ance
ĠSask at
l ings
et c
ices ter
Ġbrand ed
ĠBr is
S B
Ġadvoc ated
Ġstr ains
We ek
ĠSp art
ãģ Ł
19 90
Ġbeaut ifully
ĠJul ie
ins pired
Ġcommunic ating
ĠAnn ual
Ġinv iting
u ador
ĠR ugby
ĠP OL
ign ment
Ġpsych ologist
ĠFried man
Ġn avy
let te
Ġint ric
Ġproud ly
w en
Ġpos ing
Ġhy ster
Ġtour ing
w ave
pt ive
\ -
ĠC raft
ev ent
Ġgovern ors
Ġref ined
ĠCelt ics
Ġalleg ation
Ġmark er
ick ers
or f
Ġenter prises
ĠH arm
Ġdo i
Ġback drop
Ġmet als
Ġswit ches
mod ern
Ġmodel ing
Ġhapp ier
Ġst ip
ĠSim mons
ĠNY PD
Ġcourt room
g ro
H am
ot ers
K im
Ġpal m
Ġ24 0
ĠD ot
ett ings
Res p
Ġimper ative
Brit ish
Ġsc aling
Ġhand c
Ġexp on
ĠCore y
ĠG ur
Im agine
ĠR abb
Ġrespons ive
Ġinterf aces
Ġins ulin
ĠEl ite
Ġsn apped
Ġannounce ments
ĠEvery body
we ather
oss ibly
ĠMe yer
Ġdeter mines
Ġarch ives
K en
Ġstretch ing
Ġbal ancing
Ġwa ist
Ġcontam ination
Ġ} );
pect or
pl ates
Ġret aliation
Ġreiter ated
Ġp ulse
Ġundert aken
Ġrival ry
Ġa rose
y ers
Ġth under
Ġrecept or
Ġdevelop s
Ġ--- --
fol k
Ġs oda
Ġf ost
Ġcha otic
ĠHaw ks
Ġ19 47
ĠDO J
Ġdepend ence
s ided
S ar
Ġar senal
g ie
S ave
Ġh orn
m ult
ĠL ay
P ict
ĠE instein
ĠON E
Ġst ellar
Ġtravel ers
Ġinf ants
Ġauthent ication
Ġp and
Ġhard core
Ġengine ered
Ġmerchand ise
Ġwas hing
Ġshort s
Ġattract ing
ump ing
Ġp ine
Ġgall ons
Ġobserv ing
Ġimp air
le ys
Ġdece ased
Ġconfir ming
Ġje ans
ĠC atherine
ĠBah rain
H as
rec ord
Ġcritic izing
Ġcompens ate
Ġagree ing
Ġappar atus
Ġpredict ing
squ are
ĠT W
Ġrev ival
Ġspecial ists
Ġre ef
Ġinnov ations
20 18
Ġfl ame
Ġanticip ate
ĠV ision
ĠPan ama
Ġvis ually
Ġposs essed
ount y
E ric
Ġele ven
Ġpen al
ĠGr ad
Ġey eb
Ġl aughter
be h
Ġdeleg ate
ĠWalk ing
ĠB un
ster dam
b uster
ill on
Ġep it
ĠTill erson
ĠL ed
ax ies
K evin
Ġopio id
ĠMap le
Ġrest ing
ĠCo ver
Ġcore s
Ġw ipe
ĠUlt imately
ĠGil bert
Ġdistract ion
Ġpot ato
lu x
ĠSc ore
Ġ( .
Ġt ant
200 1
ĠVal ve
Ġbroadc aster
Ġwar mer
Ġstar red
Ġaut umn
ì Ŀ
all ah
Ġclear ance
ed u
ĠUs ers
Ġkidn apped
18 0
Ġwar riors
Ġpri zes
Add itional
Ġburn s
Ġs idelines
if ted
en berg
n ings
Ġreg imes
ĠR apt
Other s
em a
Ġdump ed
Ġdom ains
Ġur gency
ĠGr ass
Ġend ure
Ġhypot hes
B D
ãģ ª
Ġec ological
ĠExpl orer
in ters
Le ague
ĠCent ers
duct ed
ĠSim ple
Wind ows
Ġm s
Ġconcept ion
Ġo live
Ġbull shit
ĠMana fort
w s
Ġvisit or
Ġnegative ly
Ġr im
Ġcontract ed
amm ad
ĠH erman
ĠDam age
Ch ief
! '
R ay
ĠPro duction
I AL
Ġtheir s
Ġselect ive
Ġcapt ures
Ġradio active
Ġb ilateral
Ġdub ious
H R
ĠBrend an
Ġcateg or
Ġpr inter
Ġrod e
et itive
Ġbl ows
ĠP E
Ġreact ors
ĠHay es
Ġvan illa
ĠS hip
Ġ ï¿½
or ian
Ġnod ded
Ġrad ically
ĠMerc ury
Ġseiz ure
Ġrep airs
ort ium
ĠPen insula
ĠH ogan
Ġunbeliev able
Ġinst ability
Ġdepend ency
oster one
mo il
as is
Ġlog in
Ġexplos ions
Ġst al
Ġsever ity
Ġvolunt arily
op ed
Ġill icit
ĠCraw ford
pl aced
ien cies
Ġque er
ar ium
Ġm arsh
Ġshel ters
Ġastronaut s
Ġscreens hot
pro ject
ĠLeg acy
Ġpe an
ans ing
ĠDet ails
Ġcontam inated
abl ished
Ġobser ver
ĠR iley
Ġgood ness
ĠCom ment
Ñ ħ
ok a
John son
ĠC ards
land er
Ġs ights
Ġcrypt o
Ġprogram mer
Ġlone ly
Up on
verse ly
os er
Ġacc use
S W
ĠCris is
ĠEmir ates
Ġassess ments
ĠG ross
ĠB ristol
Ġcr unch
Ġside walk
Ġsubsid iary
ĠâĨ Ĵ
Ġcontent ious
Ä «
ĠPl aza
Bit coin
Ġh ollow
Ġthe rape
Ġprop he
Ad am
ĠCon way
Redd it
Ġd well
Ġpal ace
ff iti
Ġfre ak
Ġpath way
health y
Ġstret ches
Ġb isexual
ĠF F
p arents
Ġrob otic
Ġhun ter
Ġdem ise
Ġdisadvant age
ĠH ernandez
Ġpour ing
Ġshut ting
Ġrig id
H ard
Ġf og
ĠHon or
More over
ĠSp icer
ĠVe h
Ġdirect ive
200 3
N ovember
Ġredu nd
ĠSch ultz
Ġrese mble
Ġj ealous
Ġaw aken
w ic
ĠJ et
B P
ĠBru ins
ĠS end
Y ear
H uman
Ġre he
K it
ĠFr ame
Ġcook ie
Ġcompet ent
ĠLe o
U r
Ġtransl ates
++ +
Ġempir ical
Ġf ra
ĠVi enna
Ġt am
Ġru ins
ĠS aw
f ed
Ġmetaph or
Ġd iving
ĠR oute
an ed
Ġv om
Ġple as
I ll
Ġb end
Ġs ack
Ġâ ī
Ġwithd rew
Ġto e
ĠT M
Ġsurpr ises
Ġsell er
Ġren amed
ĠP ain
Ä Ł
Ġlau nd
ĠSu ccess
ple asant
ĠSh ane
ĠAndre a
isc her
c ry
Ar ch
ĠBl izzard
ĠW u
Ġchar ities
ĠB ert
c led
Ġex terior
b ag
Ġcost ing
ĠRe play
Ġr anged
ĠJed i
Ġrelent less
ott esville
Ġrem ed
ore st
Ġineff ective
Ġpar an
Ġd ull
ĠC rist
Ġins erted
ĠF lickr
rah im
Ġdo omed
Ġ ï
Ġchar m
oun ge
ĠBren nan
Ġbr ig
Ġtr aced
Ġdig its
ĠResp ons
ĠInvest ment
Ġreminis cent
ĠAP Is
s il
st atic
o ids
ĠAd elaide
Ġl ou
Ġinto x
IS A
ĠInvest igation
ĠE gg
Ġle mon
Ġle aking
Am azon
Ġown ing
ant ry
P ublished
ĠJ azz
Ġpres ervation
Ġpo pped
ĠN est
ĠChe ney
Ġs rc
ĠReg ardless
) ?
Ġacceler ated
k owski
Ġs om
Ġmod ifications
Ġall ocation
Ġa ven
abul ary
Ġdict ator
pl anes
Ġcont end
Ġviol ates
ro b
Ġher b
Ġjuven ile
ĠD ell
ĠFood s
t imes
Ġdownload s
Ġrepl icate
ãģ ¯
Ġpen cil
ĠS oph
Ġp ensions
Ġpres erving
De cember
Ġdepend encies
Ġpig s
Ġnot ices
w ife
Ġreward ing
Ġmerch ants
elect ed
OR Y
Ġacceler ation
Ġfeas ible
Ġappoint ments
ĠC opy
AC A
Ġrad ius
s ch
at ured
c ity
^ {
Ġtw ins
Ġm asks
ĠTh an
ĠWeb b
S omething
B esides
Ġye ast
ĠL ance
in vest
Ġatt achment
,âĢĻ âĢĿ
ĠBeh ind
Ġout dated
Ġdiscont in
Ġlaugh s
ident ally
Ch inese
a ft
Ġup held
Ġsp ouse
Ġprosec ute
J ones
C raft
Ġpo inter
F OR
Ġr apper
ĠN an
Ġposs essions
Ġv andal
ĠObserv atory
Ġde af
Ġ 000
any on
ĠF act
Ġn urt
ĠT rent
Ġiron ic
ĠS kin
Ġ195 9
g em
ĠAr row
Ġat oms
ĠJud iciary
Ġup wards
it em
m atch
ĠKush ner
Ġret ros
ĠPir ates
ĠBr anch
Ġenroll ment
f alls
Ġin ad
ĠR F
Ġneed le
Ġoper a
Ġnegoti ation
ĠP TS
H E
Ġveget able
Ġspir al
Ġembr acing
ĠE lementary
Ġprim itive
ĠT aking
G roup
Ġtrain er
L ou
D ig
Ġ18 00
ro ot
in ational
c ould
Ġcont ributes
Ġres olutions
Ġfest ivals
Ġdis se
h ops
aw ays
E ver
Ġfert ility
M ur
Ġtoss ed
be e
ĠBeat les
S und
Ġmicro phone
Ġshr ink
Ġv apor
Ġ10 2
ate l
Ġbomb ings
Ġâ Ķ
Ġlean ing
Ġha iled
Ġcongress man
Ġ& &
Ġshoot s
Ġhun ters
Ġte asp
sec ure
Ġv inyl
ett i
ĠZ ucker
own s
Ġmer ge
Ġal lev
v ideo
( $
Ġcop ied
B T
Ġre jo
D i
ĠPro du
F inal
Ġp ier
S n
Ġall ied
Ġcost umes
ob ject
ĠSpe cifically
Ġforecast s
Ġwithd rawn
Ġmod ification
ĠSy n
bor o
Ġiter ation
st ad
Ġmechan ic
Î ¹
Bet ween
ĠVol ume
ĠDis covery
ĠDev ils
ĠB orn
Ġmyth s
AT A
Ġap ost
Å ¾
Ġstamp s
iv able
,âĢĻ âĢĻ
Ġ10 4
Ġch amp
ĠConserv ation
st atus
m ails
P E
Ġhop eless
Ġdimin ished
ĠA be
Ġdiscover ies
Ġdisappear ance
ĠMan uel
omed ay
d in
Ġch uck
Ġinspect or
ĠCom edy
Supp ort
Ġt ally
ĠG ul
Ġe man
ĠK iss
Ġ Ã©
ven ant
Ġper tain
m or
J ew
Ġaccess ing
ĠMe et
Ġanticip ation
Ġcos mic
i ak
Ġvolt age
Ġv ault
ret urn
Ġdoub les
ari at
he id
D eb
Ġuns ure
V ict
ĠProf essional
r h
ile aks
Ġr uth
Ġsmooth ly
s rc
Ġout spoken
ĠRock ets
A BC
Ġtur moil
ĠSter ling
ush i
Ġg aze
Ġl b
ent ric
Ġsal ad
ĠMir ror
Ġgif ted
c am
uff er
Ġmy riad
B ur
Ġmamm als
Ġfr amed
ĠTw enty
st y
Ġo lig
Ġathe ists
larg est
Ġpod ium
Ġoccur rence
Ġfore front
Ġalleg ing
Ġinter val
Ġairst rikes
f alse
Ġoffs pring
ĠZ imbabwe
ĠAct ive
Ġsex ist
Ġextract ed
ĠAli en
Ġfore nsic
ĠMem ory
Ġrad i
ĠM ead
Ġvalid ity
Ġmilit ias
ĠC ord
ĠWhats App
Ġadequ ately
ĠGe off
Ġt outed
ĠSouth west
ph oto
ĠUs ually
ĠAd obe
ĠMount ains
ĠG ir
p sy
Ġna ive
ĠNational s
Ġnar ratives
f ired
Ġtrig gers
Ġintr ins
Ġcompat ibility
ĠL ud
ĠF M
ĠB oss
ĠTr ack
Ġcan cell
Ġneuro log
Ġcelebr ations
read ing
ĠQual ity
Ġext rad
ĠD uty
c ified
ĠMon ica
d oc
Le vel
Ġjud ging
am ic
t ier
c f
an ol
Ġr ansom
Ġche ek
ĠTro phy
Ġstim ulation
Ġper ceptions
Ġimm ort
N ick
ĠBeng als
M a
Ġe cc
Ġground ed
ĠJo in
Dem ocrats
ĠB ass
ĠSim ilar
Ġcr ashing
L in
Ġcreep y
S F
Ġelev ator
ĠRec ently
Ġpret ending
iss an
ess a
ĠB irth
l ins
Ġsle pt
Ġaster oid
ud s
be fore
ĠFl ag
Ġw ires
our ing
Ġexch anged
ĠCle arly
V ol
Ġadoles c
En ter
Ġb un
re z
cre ate
Ġnarrow ly
Ġun ite
Ġmark ers
ĠTer rit
ot he
ian n
part isan
Ġcollabor ative
Semit ism
Ġsuccess ion
Ġwholes ale
ĠP ars
over ty
d oes
ĠAl ger
J osh
Ġstreng thening
Ġjust ices
Ġclean ed
ĠEx cept
ĠBald win
ĠD LC
ot on
Islam ic
Ġtop s
Ġacknowled ging
ustom ed
Ġbol ster
Ult imately
Pr ime
Ġretrie ve
Ġplace bo
Ġun armed
ucc i
Ġor ph
Ġnorth west
ĠH ond
els en
ĠTr ain
Ġ á
ĠKenn eth
is ure
Ġk in
Ġemploy s
ĠScient ific
ĠLeban ese
Ġsuper vision
ĠG rowth
IS I
Ġsustain ability
List en
Ġind oor
Ġsuper st
Ġind o
Ġ19 39
C ast
Ġperfect ion
W ow
Cre ate
w ire
Ġe ject
ĠK oh
ĠBudd ha
ĠSky pe
od s
ĠCoff ee
Ġcur se
f ight
Ġdom ination
Ġcomp ares
âĢ¦ ]
c ross
P y
Ġrefres hing
Ġcan s
Through out
Ġspe cially
l ia
Ġnut rients
Ġmeaning less
Ġlun ar
Ġash amed
in as
b ands
Ġdepth s
Ġdec ay
ĠCom ing
C ustom
Ġevac uated
ĠK ot
D F
ĠFl oyd
ors che
Ġrel iance
Ġdisg usting
Ġb idding
Ġdis charge
ĠCurt is
Ġpredict s
Ġhypot hetical
ĠMy ster
ĠBeng al
Ġ4 50
Ġh alls
Ġdecentral ized
. ;
ors i
Ġsusp end
Ġsect arian
ĠB TC
11 5
L ittle
Ġoverl ap
Ġhonest y
c ulture
ĠA part
Ġl ob
Ġblast ed
Ġvers atile
Ġdefe ats
Ġleft ist
Ġ2 20
ĠN ike
Se ason
Ġsc andals
ĠF resh
Ġr ack
ĠO g
Ġresearch ing
Ġregul ator
Ġperpet rators
Un iversity
L ess
Ġho ax
Ġpo orest
Ġbe aches
ĠYOU R
ĠP v
ve red
Ġso ber
art en
Ġfrequ encies
ĠZ oo
ĠC ros
he ard
Ġgrant ing
Ġconcept ual
OS S
Ġexp ired
ĠR ew
ĠMons anto
ub a
ĠRe ce
ĠKurd istan
Ġpr ince
ĠT L
Ġde ported
Ġfut ures
Ġanarch ist
ĠBuzz Feed
ĠJackson ville
iv o
ĠUlt ra
Ġfirm ware
Ġf rog
Ġnight club
ĠÂ ·
st ru
ĠJ SON
M aking
-- -----------
ĠZimmer man
ant ine
dog s
Ġpast e
ĠE lder
ĠTechn ologies
ĠAn cient
Ġparent al
Ġgovern ed
ĠEv olution
count ry
Ġlo oming
Ġd os
Ġtang ible
Ġsign aling
Ġrele vance
C ard
ac ial
IS S
W estern
Ġramp ant
ĠAbb as
Ġturn over
Ġid ol
Ġto dd
ĠCh oice
Ġeval uating
Ġdecl ines
Ġun cover
Ġsp ine
Ġlivest ock
Ġrecy cling
ĠF ernand
Ġcruel ty
Jan uary
A cc
h agen
c oll
Ġjudge ment
T em
Ġextract ion
ĠB og
Ġp ent
Ġbit coins
Ġembarrass ment
Ġrep s
ĠBris bane
is ans
rav ity
Ġg it
ĠAny thing
ĠHel en
Ġaccum ulated
Ġrelie ved
ĠLe ad
Ġbi ography
ĠCamb od
oust ic
L ee
Ġer r
Ġfalse ly
Yes terday
ĠCh arter
Ġfilm makers
ĠB le
C redit
Ġg y
ĠEc uador
F rench
Ġcorrespond ence
Ġstake holders
Ġgl orious
ĠO val
Ġtax ation
ĠBlack Berry
ĠB il
r ance
ĠRes ults
ĠCan ucks
Ġsex ism
ĠMid west
Ġfrag ments
ĠB T
Ġunder went
ĠMcC l
Ġstat istic
Ġreinfor ced
Ġdiplom at
Ġair lines
ass is
te chn
right s
Ġwe ights
ol ia
Sub ject
Ġreal ization
Ġpart ition
ĠEv ents
Ġyell ed
ĠCan on
æ ľ
ĠD S
Ġhook ed
Ġdistract ed
Ġw anna
Ġcl o
ĠCr us
ĠV P
ĠCon c
ĠE asy
em y
Ġre print
ob ic
Ġsuper market
ĠViol ence
ul atory
Ġbr ass
ĠHe ath
Ġe ch
ex pl
Ġresemb les
s cient
Ġanal ogy
St r
Ġsh iny
e ath
ĠH ag
P rior
Ġstuff ed
Ġgl oss
Ġconstitu ency
reg or
Ġsound ing
ĠMon te
ul ed
Ġthe ology
Ġdivor ced
ĠUp dated
ĠIr ving
secut ors
Ġmem br
g age
Ġout raged
Ġbom bers
o it
c od
Ġindirect ly
ĠB ened
Ġdest abil
ge ons
ĠC ertainly
ĠB row
Ġj oked
Ġnom inations
Ġbur ial
Å Ł
board ing
are ndra
ĠSh ot
Ġtr ilogy
gl ass
Ġg room
ĠIn qu
ĠInd ividual
ĠIS Ps
ĠAnd ers
Ġs ung
,' "
Ġfundra iser
ĠLa unch
ĠCharl ottesville
Ġbu ys
met ry
Ġs outheast
e a
ĠSalv ador
vention al
ĠPer fect
ĠM int
ak is
Ġgl ow
id ate
Ġo mn
ring ton
Ġdr ums
ĠPlan ning
Ġheight ened
Ġcomp uls
Ġoverth row
10 4
Ġillness es
I r
Ġfraud ulent
12 8
Ġsell ers
id able
Ġkidn apping
Ġutil ized
Ġgo alt
Ġbelie vers
lant ic
Ġcho pped
ĠG ri
ĠF ans
Ġ19 42
ba um
En large
ĠL il
Ġindef initely
Ġreconst ruction
â ĺ
im ation
arr ison
re ne
it ating
200 2
ĠDar ren
Ġcur tain
Ġac ids
th y
Ġsuscept ible
l n
Ġir rational
ĠT ier
Ġmel ting
Further more
Ġs ang
Th ird
Ġsurround ings
Ġh ats
Ġcease fire
ĠK em
Ġt apes
Ġmiser able
Scient ists
Ġlike wise
Top ics
Ġst acked
ĠAR M
Ġur ine
Ġpop e
Ġmiss es
O ld
g as
F oot
em ade
n umber
a qu
Ġobs ess
ĠS V
the med
rict ed
On line
j ah
Ġpro claim
Ġcatast rophe
pl aces
Ġst oring
lud es
ĠMot ion
Ġunique ly
mark ed
Ġremark ed
ĠAng ular
h ig
Ġlapt ops
IN D
10 2
ĠRh ode
Ġchar ism
Ġspat ial
ĠC er
is ch
Ġcouncil s
Ġcom r
Ġhe ights
Ġex ile
Î µ
Ġinqu iries
Ġf aint
ĠDes ert
Ġ195 8
Ġcomment ator
Ġrec urring
qu arter
olester ol
Feb ruary
Ġ\ (
ĠGen esis
ee le
Ġj ugg
omet ric
fr ac
AN G
ĠPan el
Ġsur geon
Ġende av
ĠV ers
a verage
Ġsuper natural
f ill
Ġshr inking
ĠT ah
ĠJ azeera
ĠD ucks
um bs
F ederal
ĠJohn s
B rian
st ill
g ae
Ġun pleasant
Ġdis like
Ġcr acks
ĠIll ust
o il
ig ators
Ġtub es
ĠBl ade
S u
It em
ĠSchne ider
ĠProtest ant
ĠG iant
ĠAd mir
Ġan th
ĠIm port
Ġlif elong
Ġdest ined
Ġauthor ization
A ri
ĠN ate
ex per
S ervice
B rad
Ġoper atives
ĠLike wise
ĠC E
ood y
ĠEx xon
W ater
Ch icago
Ġdisagree ment
ush ima
R om
Ġdifferent ial
Ġvalid ation
Ġgal axies
D ist
Ġelig ibility
Ġwith hold
Ġoff ender
ĠAr s
ul ators
a unch
Ġch lor
ĠKind le
Ġcont enders
ĠWy oming
D O
Ġovert urned
ĠC anyon
import ant
Ġreg ression
Ġphotograp hed
Ġmit igate
Ġrev olt
Ġb unk
pl er
Ġmilit ar
Ġmad ness
Ġsurviv or
Ġpund its
Ġdesign ation
Ġsc oop
lin er
ĠAm sterdam
Ġweaken ed
ĠD owntown
Ġ195 6
Ġsl ap
ir teen
ĠLi u
ĠCustom s
C ore
ĠM illion
im o
h ash
Ġintermedi ate
ĠFort une
B at
Ġded uct
ĠPart icip
ĠF REE
Ġch ambers
d ue
Mart in
Ġsh arks
Ġprop onents
h un
ÑĤ Ð¾
L ight
ĠH ugh
ĠGall up
PD F
ĠDav ies
Ġhon ors
Ġsh am
Ġhint ed
Ġb ounds
ĠN ear
ĠBar rett
en ment
Ġheter osexual
ĠB erry
pir acy
Ġinter ceptions
ĠW er
ĠBre aking
Ġsab ot
Ġpun ched
Ġprepar ations
qual ified
ĠTre vor
ĠEconom y
Ġpl ague
ĠRest aur
art z
ĠQuest ion
Ġto mb
Ġhero ic
ĠDian e
Ġgrab bing
Ġcan vas
ĠSh ia
Ġconver ting
c irc
ĠRhod es
Ġwor s
ĠCl iff
OU ND
Ġ10 3
ĠV as
S orry
00 3
ĠP ra
Ġfair y
ang ular
Ġunp aid
ĠO L
Ġworth while
sm all
Ġrehab ilitation
Ġhel pless
ĠE R
Cons ider
ĠS hen
A ud
ĠProv ince
ĠE ston
e on
ĠThrough out
Ġclos et
ĠCh in
ott est
P an
" );
ific ent
Ġcompos er
Ġcrus hing
ĠD iff
iv ism
it ures
Ġre op
ot le
L ondon
Ġex h
Ġt enth
Ġdiscipl inary
Ġd ess
ump ed
ĠT ag
ĠPir ate
Qu ery
Ġfranch ises
Ġrum or
ol ation
Ġon set
per ing
Ġpo orer
ĠKit chen
ĠM ega
Ġw olves
Ġg el
G ov
c ule
ĠP RE
Ġforg ive
og ene
Ġspec ulate
Ġlung s
N umber
al ong
ĠBay ern
l ate
Ġun authorized
Ġmar vel
ĠF X
ĠAm anda
ĠP ierce
Ġconting ent
ub s
ern ick
Ġlaw maker
Ġdraw ings
ic us
ĠAdd itional
Ġreject ing
ic idal
Ġab normal
4 50
ĠW orth
stand ard
ĠC oy
G ET
.. ...
Ġprint s
S k
ĠNort heast
Ġcoll ar
Ġpedest rians
ĠIntern al
ig ger
ave z
W E
Ġaspir ations
Donald Trump
D ue
ĠColon el
d eath
Ġzomb ies
F ort
- $
Ġsc outing
J es
Ġsu ing
Ġland sc
Ġkid ney
Ġad vertisements
Ġret ention
id ad
Ex p
qu et
Ġabund ant
Ġedit ions
ra red
ĠÂ §
Ġsm oked
Ġgluc ose
ĠMy ers
Ġinfant ry
Ġfore see
t ar
Ġspl ash
Ġg ays
Ġcl one
ris y
Ġv oy
Ġimag in
Ġmin erals
ĠM ate
Ġdi agram
ĠP am
Ġhe x
Ġl bs
affe ine
Ġreb ound
Ġinstall ment
Ġsuprem acy
Ġfall out
Ġreconc iliation
ĠH aven
10 3
Ġw inger
ĠHass an
Ġz oo
ĠT as
ĠM oy
ĠV ita
Ġver ification
ĠRe becca
h on
C ould
Ġtel escope
Ġs add
ĠGu inea
Ġplay ground
Ġchance llor
Ġalign ment
im an
Ġtelev ised
com b
ĠF ell
B er
ari us
ON D
Ġco erc
ĠP rest
i ya
R ather
Ġres h
Ġcomp ilation
Ġeffic acy
F un
Ġco herent
ĠD ance
Ġt in
h ou
ĠL akes
Ġ195 4
P ER
ĠStand ing
osp ace
g io
Ġt sun
Ġro gue
ĠW ine
person al
ĠQu ant
iz a
ĠJud a
Pr ice
Ġdraft ing
Israel i
Ġmortg ages
Ġexc uses
v s
c ano
v able
Con nect
ĠR SS
Ġsupp ression
l ich
Ġcl usters
Ġcock tail
ass ed
ĠAt las
Ġdis able
O pp
Ġsm ashed
f ocused
Ġsouth west
Ġl id
be y
Ġorganiz er
b ons
um en
Ġs aga
Ġfant as
Ġd ur
il ib
ĠP ine
d ies
ĠW it
Ġsc out
Ġst umbled
Ġblu eprint
ri o
ĠTest ament
Ġstri ve
umn i
Ġapp les
ĠR ating
m ag
r ice
Ġsuper star
Ġmon arch
ĠH av
Ġplag ued
Ġdictators hip
ĠM oses
P ath
d eter
J UST
ĠJ ak
m ove
udd y
Ġdisag reed
ĠD iaz
Ġcirc ulated
Ġgl uten
Ġcountry side
Calif ornia
ĠCom plex
Ġunanim ously
N P
Ġch orus
Ġunders c
Ġpro claimed
Ġumb rella
Ġroll er
ĠGu jar
he avy
Ġaccus ation
ĠCoun sel
tr ade
Ġpecul iar
ĠV ote
J ose
Ġmer ged
ĠRock y
Ġ10 6
p rop
Ġmanip ulated
ĠLe icester
W all
ĠPrem ium
J ournal
Ġdismiss al
Ġpersu aded
Ġstaff er
Ġaccomplish ments
t arians
Ġrecept ors
Ġt iles
Ġdial og
y ll
kins on
ĠUS S
Ġmult inational
Ġprohib its
Ġ ion
Ġost ens
eff icient
Ġaffidav it
ĠR ol
ãĤ Ĵ
Ġener get
Ġs omeday
ĠIs is
gr and
Ġm int
Ġcomp ression
ĠWag ner
Ġtor rent
ĠJack ie
ĠC AP
hen ko
Ġintimid ation
Ġinstruct or
De ath
T M
Ġlear ns
ĠLyn n
Ġl ith
ĠL ar
Ġm aid
Ġprem ie
à ¥
Ġl akes
x xx
pro duction
em er
Ġd ots
ĠPl atform
ĠHug o
Ġcontin uation
ĠNep al
ĠComp anies
ĠV ern
ĠWar rior
Ġunl ocked
ĠM ist
Ġprotest ed
Ġmess y
icult ural
Ġdr astic
rat t
Ġbrew eries
Ġ19 17
Ġcraft ing
ĠW on
educ ated
ĠS R
ĠIndust ries
ĠOs borne
Ġp anc
Ġst air
Ġinnoc ence
Ġb iblical
f iction
Ġn as
ang a
Ġm esh
z an
Ġrational e
Ġbell y
bour g
R on
ĠRe venue
in x
Ġsqu at
Ġbrows ing
wart z
ott i
if ax
Ġf ade
Ġd ock
Ġhead phones
ablish ment
Ġtherape utic
Ġstap le
ox ic
Ġc ant
ell i
bel ief
ĠS ugar
ĠMan ufact
N early
ĠF argo
ĠN OW
Ġmarch ing
Ġtele com
Ġfr inge
Ġcler k
Austral ia
= '
ĠÐ º
Ġmaj ors
Ġcommod ities
NAS A
ĠYork er
ĠN arendra
Ġby te
In side
Ġprogress ives
ve ment
reat ment
Prof essor
Ġb ark
Ġc ros
ĠA zer
S ky
ĠRep ly
ĠRef uge
real DonaldTrump
Ġsh attered
Ġswift ly
Ġfreel ance
ĠB ast
Ð ¼
Ġse gregation
Ġinteract ing
us ra
au f
ĠB ag
Ġne oc
Ġkill ers
Ġox id
ĠR unning
s or
Ġacc ustomed
ĠK ub
ĠIS O
rel igious
Sec ret
Ġadjust ing
Ġubiqu itous
Ġbad ge
ĠT IME
Ġund en
Ġresist ed
Ġprop oses
Ġins urg
ĠWat ers
Ġ7 50
Ġp uls
u ilt
Ġpol ite
w ild
Ġreprodu ction
Ġcar ved
lling ton
ĠN W
od ore
Ġneg lected
Ġdest iny
Ġind icted
ĠH uck
ĠM AR
ĠZ omb
__ ___
ĠH our
Ġsett ling
ab ase
ĠMan it
Ġw ax
ĠR ise
ol iberal
Ġopp oses
Ġscan ning
ãģ Ļ
et r
Author ities
Ġsk ies
Pro v
ĠStr ategy
Ġdecor ated
spe cial
ĠBur ton
Ġg ospel
Ġdilem ma
ĠG em
ĠKore ans
Ġadvert isers
Ġsol itary
ĠS ah
ĠFe el
ĠW ave
ĠEuro pa
IL E
Ġant it
ĠBor is
Ġback pack
Ġpoison ing
Ġharm ony
Ġco hes
ĠT ay
ĠInter view
ed a
Ġdisreg ard
ger ald
ĠA WS
enz ie
20 2
Every body
Ġaccident al
ĠLuck ily
gener al
ĠW ald
ĠLen in
ed ience
Ġunt o
io let
ĠOff icials
Ġsp ider
Ġshoot ers
Ġl iable
ĠLink edIn
yr us
Ġthank ful
Ġcross es
Ġadvert ised
at ri
ĠEug ene
oc hem
Ġmight y
Ġrep ression
Ġemer ges
ĠPun j
ĠCl aire
Ġmisdem eanor
ĠMour inho
W al
f acebook
Ġw aking
Ġrepl ies
Ġge ographic
Ġcollect or
ĠAng lo
ĠSt ark
ĠSh awn
ĠChurch ill
st ro
ij i
orm an
ĠG addafi
ĠCON T
ĠArmen ian
br ing
Ġy a
Ġgovernment al
wh y
Ġst alled
pher d
ĠAv iv
cho ice
Ġang el
ĠLe h
ĠOrig inally
ĠV ic
ci um
Ġwild erness
ĠNew man
Ġthank ed
ĠRel igious
art icle
Ġdoub ling
ĠSerb ia
ĠRe y
ĠMarx ist
od o
ĠPer u
Ġ195 7
D ark
Ġver ge
f aced
ĠB oot
ĠM ale
Eng lish
m t
ĠI F
s afe
Ġsub missions
ET A
ĠN PC
ĠS it
Pl ayer
Ġstation ed
Ġreprodu ce
Ġrem ake
Ġcyn ical
ĠSt yle
ĠAmeric as
ĠF ury
Ġric her
Ġa ka
Ġs or
ĠSh ut
f ashion
Ġ195 3
Ġschedul es
Ġexist ential
Ġtr aps
she et
ĠR ising
Ġdownload ing
Ch arl
Ġweigh s
Ġbr ace
r anking
Ġpar ole
ĠLab s
ĠHung arian
S ad
M ary
Ġm ansion
coh olic
f est
Mem bers
AC H
Ġspecific ations
Ġpir acy
Ġveget arian
Ġscreens hots
the ir
F und
Ġtrans plant
ĠD y
ĠPer iod
C BC
Ġant agon
Ġconcer ts
ĠDem s
Ġsystem atically
ĠO UT
Ġunanim ous
Ġcl utch
al ine
Ġproc ure
Ġgar nered
un ion
or ously
Ġrest ruct
Ġgard ens
ĠD ocker
10 9
Ġsurg ical
Ġl akh
n om
Ġv ow
ĠConst itutional
L ocation
Ġtum or
ĠFle et
Ġpsy chedel
Ġpolicy makers
ĠHe ather
are l
Ġdem ocrat
ast ics
Ġth riving
Ġdiv isive
ĠG E
IN K
Ġ} ;
Ġearn est
ord e
Ġl enders
Ġf ried
Ġcomment ing
Sund ay
m ia
Ġmedic ines
ĠS orry
Ġlog istics
ĠRes earchers
ĠHam mond
Ġcertific ates
Ġir regular
Ġrem edy
Ġexagger ated
m is
Ġchar ming
Ġbrand ing
og ram
M ont
ĠâĢ ķ
Ġdown side
cript ions
Gl obal
t urn
ĠOut side
Ġwas ting
Ġsent iments
Ġenfor cing
Any way
ace y
Ġp ac
ĠF eed
Ġmyth ology
Ġst igma
Ġinc arn
Ġc it
ĠM aid
I ron
Ġdin osaurs
ĠÂ Ĺ
Ġf al
Ġ< <
ist ence
Ġs ized
ĠRock et
Ġspons orship
Ġarchitect ural
ĠRe ich
product ive
Ġblog gers
ĠFor ward
ill as
ĠCongress man
l ove
ĠT ool
ov y
anger ous
Con nor
ĠSy nd
Ġign ores
Ġcommun al
Ġam ple
ĠNob le
f uel
Ġserv ant
U t
ĠL enn
ĠAn kara
Ġshort ages
Ġimp art
ĠF ri
z ip
he rence
Start ing
Ġ( #
Ġtweet ing
Ġdepict ing
Ġcl oses
ĠRap ids
Ġa rom
ich i
Ġarchitect s
Ġ19 43
Ġcongest ion
ĠCons ult
Ġp ads
Ġform idable
ĠSyri ans
ĠA ce
-- -------------
UC K
Ġret iring
ĠFreder ick
Ġse ated
Ġd amp
Ġanim ations
Ġconce al
Ġeven ly
ĠHig her
ass er
ĠRay mond
Ġpat rons
ĠNe igh
Ġcrack ing
Ġacclaim ed
u u
Ġ19 55
Ġloud ly
ĠWhe eler
com pet
Ġsoc ietal
ĠLeg ion
Ġdr ills
ĠCong o
Ġpath ways
Ġar ises
Ġaggrav ated
Ġne p
Ġbu cks
enc ia
ĠRE AD
ĠBr ing
Ġmass ively
Go vern
Ġmon key
Ġro oft
m oon
Ġbod ily
Ġincap able
f ounded
f ig
Ġinject ed
IC S
ruct ions
ĠWrit ing
b ishop
Ġref resh
ĠC W
Ġm um
Ġske let
Ġseiz ures
Ġenvelop e
y et
ĠKat ie
ĠA FC
Ġplum met
ong o
Ġcann on
ĠZe lda
ĠP owers
ab ee
J ason
ott a
Ġgoal ie
Ġdesc ended
old own
ĠVen us
ef ined
Ġover c
ĠM R
Ġsupp lier
Ġper imeter
Ġmerch ant
Ġevac uation
ĠC ert
Ġref rain
Ġimp ending
Ġdeep est
ik ed
Ġfire works
en za
Ne ill
Ġp act
Ġgrad ual
f ires
ĠGard ner
sole te
H en
Ġsc ans
Ðµ ÑĢ
D D
ip es
L oad
ĠS onic
Ġm ans
Ġiniti ate
Ġjurisd ictions
whe el
Ġlast s
Ġwhere by
ĠBuddh ism
17 0
Ġwho pping
Ġanten na
ĠSm ash
ĠSex ual
ĠS ikh
op ia
Ġc ough
ĠL anka
ĠRC MP
cl ose
ĠD B
Ġun identified
Ġaver ages
Ġmed d
Ã ¯
Ġann ot
ih il
gu y
ĠRel igion
ĠSaf e
ĠM Y
ĠOff icers
Ġpup ils
Ġindu ce
ĠEll en
G G
ĠPh ase
Ġreserv ations
Ġcompan ions
Ã¡ s
t ical
ĠCom bat
priv ate
d ependent
Ġproport ions
Ġcounsel ing
ĠHans en
as io
ĠJoy ce
C am
ic ular
Ġd itch
Ġfor ged
ĠP orsche
Ġde gr
ĠLaure n
ĠD re
Ġplay able
ĠHe in
Ġexplo its
.âĢĿ )
Ġpredec essors
Ġaffili ation
ĠVict ory
h m
Ġtruth s
Ġspect acle
Ġt apping
Ġrul ers
Ġnit rogen
ĠL SU
oh yd
Ġir responsible
Ne ither
Ġd op
Ġs ir
se ys
Ġrenew al
Ġrent ed
Ġfasc ist
ep ernick
pr us
Ġopp ressed
Ġbr akes
Ġsw all
mean ing
M ond
Ġbur ger
ĠF ighting
n as
) [
ĠL TE
ĠB rief
Ġmed als
Ġb ree
ĠIn come
ĠAp ache
Ġcl an
Ex pl
Ġsw ear
t arget
ĠN olan
Ġsens ory
Ġphil anthrop
ĠG ut
ĠAndrew s
R ev
E st
ĠSp ark
Ġcirc ulating
ĠMin ority
ĠCard inal
Ġreg istry
Ġphotograp hers
Ġ10 7
Ġca fe
ĠP u
ĠC ous
ĠSant os
edd y
Ġprolifer ation
Ġeleph ants
ar us
Le ft
Ã± o
Ġdem ons
Ġatroc ities
ĠS ans
ĠG ET
Ġtransform ing
Ġstub born
Ġund o
Ġgest ures
ĠKu wait
Ġ19 49
r ue
ĠT umblr
sc ill
. /
ĠRe ality
Ġv ou
Ġstr ongh
Ġrun time
Ġhigh s
ran ch
Ġbre asts
Ġ10 8
Ġf ier
ĠFro st
ĠE manuel
ĠN iet
ĠB om
ill ions
Ġo z
Ġhe mp
Ġdisrupt ive
Ġculp rit
ron ics
ody nam
Ġspeed ing
Ġch unks
Ġmem e
Ġal ley
Ġaw ake
at ra
Ġgood bye
Ġflood s
ĠI o
ĠProduct ions
Ġun in
Ġsuccess ive
ĠMah m
st re
Ġstri ps
ĠG ent
U B
ĠBra ves
Ġlim bs
ĠG olf
is man
Semit ic
T B
ĠNe o
ĠD ifferent
Ġhal ted
ĠMed al
Ġinad vert
c reat
Ġand roid
open hagen
ĠR aspberry
Ġmut ations
Ġalleg iance
B usiness
ĠC ultural
M ic
Ġrem n
Ġlau ndering
ĠS leep
ĠIns pector
ĠSav age
ĠRoy als
Ġst all
Ġmut ation
Ġgrat itude
ĠSuper ior
ĠCelt ic
et ics
Ġpo pping
Ġsl ope
ĠEn joy
Ġr ude
ld on
Ġrev ive
ĠCor nell
tt a
Ġexpend iture
W ed
Step hen
Ã Ł
Ġo m
Ġgrab s
Â Ĺ
its u
Ġplanet ary
Ġmemo ir
ĠP resent
ĠGar rett
ĠF en
ĠC OU
ar is
p resent
ĠElect oral
ĠJuda ism
Ġon ion
VID IA
C ru
Ġrespect ful
Ġsp ur
Ġcomfort ably
Ġsur real
Ġlim itation
ru gged
Ġrest oring
ĠD uck
com merce
10 6
Ġvill ains
ĠRel ated
ĠE cho
ad ic
Tr ue
Ġp oker
Ġchick ens
ett es
pict ured
ĠW enger
Ġh ug
Intern ational
Ġcontinu ity
ĠM add
com mittee
ĠD NS
re b
3 60
+ ++
Ġsad ness
Ġdepart ed
Ġcor related
Ġpseud o
Des ign
Ġundergrad uate
Ġtri angle
Ġ11 2
M R
ĠMed ium
Ġrob bed
ĠGree ks
ĠCamer a
Ġharass ed
ĠCharl eston
osh op
ĠPeters burg
r ath
25 6
ĠRes istance
Ġtempor al
n ick
b ai
Ġmicro bi
ĠK ur
Ġworld view
ĠB A
Ġpiv otal
Ġincorrect ly
Ġexcept ionally
Ġfor c
Ġauthent icity
ric ks
p ensive
ap i
Ġsu cks
ĠBel fast
aj a
Ġprofound ly
Ġinc ub
Mus ic
Ġgr ains
Ġinter ception
ĠP av
Ġge op
Ġbud dy
ass ing
ĠP ale
inc re
Ġsl ate
Ġdi ets
Ġel bow
Ġdisc rep
Ġsimpl est
ver ts
Ġsl iding
Ġdisc ern
re lease
Ġst d
Ġo v
Ġcommer cially
asket ball
it ant
Ġver te
ĠAl ban
Ġgener als
Ġge ek
Ġcamp ing
os lav
j ournal
ĠMarket ing
Ġun official
en ame
v on
s kin
M ag
alk er
Ġassess ing
å ¤
l ang
ex isting
Ġhit ter
ĠPre p
Ġs ins
Ġper former
ch in
ĠJ ail
s ince
ĠWe ight
Ġrem oves
ĠK re
ĠT ucker
Ġresp ir
Ġdis comfort
ĠRep orter
Ġincarcer ation
Ġam en
ĠT SA
ĠHar old
idel ity
Ġske leton
Reg ardless
Ġimpe achment
ĠPod esta
Ġl ure
Ġess ays
Ġall erg
ĠJo an
d ain
Ġnep hew
ut ory
ĠL un
â Ĺ
ĠExt ra
cent ric
ĠFl ore
B ad
Ġs ou
Ġhypoc risy
Ġdr ift
ãģ Į
st ant
ew orthy
Ġexecut ing
ĠE z
Ġspec s
ĠTechn ical
ĠSt ur
ĠMoh ammad
ĠÐ ´
Ġz ip
Ġinc idence
Ġequ als
Ġ19 46
Ġse af
Ġc ove
Å «
oh an
Ġsynt hes
ĠD uc
Ġpharm ac
Ġwork load
b order
Ġmis ery
ĠChrist ine
Ġbl oom
ĠPop ular
Ġspec ulated
Ġconf essed
char acter
ik ers
LA Y
ĠRevolution ary
Ġper t
Ġpil gr
Ġinj unction
Ġhall uc
Ġe lic
Ġtiss ues
act ly
Ġgra ffiti
ĠC aucus
in th
Ġrain fall
T en
Ġtest osterone
Ġprovoc ative
Ġdecre ases
ĠNic ole
Ï Ħ
Ġn ud
gress ive
Ġwas t
ĠSh ore
ĠSebast ian
ĠR ole
Can adian
ĠMult i
t im
ĠCol bert
ĠEth ics
ĠList en
any e
iss ue
Ġtot als
ĠMar athon
ĠM TV
ĠCom put
em on
Ġx en
Ġsit uated
oot er
Ġprep ares
Ġdec omp
ĠTe en
Ġbigot ry
w on
ĠCar p
Ġrail road
Ġcampaign ed
Ġdev ote
just ed
Ġinflamm ation
Ġsy rup
u ously
ON G
Ġcoll usion
Ġrul er
W ait
Ġboard ing
Ġsh ining
Ġinv aded
te enth
Ġtend encies
es que
Ġpuzz les
ĠDur ant
H H
threat ening
ĠPed ro
ĠBl ocked
Ġt an
ĠFull er
og o
ĠAm nesty
ĠRec ent
ub arak
Ġb aked
oy a
ĠStrateg ic
N F
at z
ĠPatri ot
cap ital
Ġinter vals
ĠApp lication
Ġst ain
T it
Ġun aff
ĠM AN
ĠTh ing
L P
ĠN D
W C
Ġnot ions
ĠD EA
ĠF actory
Ġper il
ĠN R
ĠJ ab
gl obal
Ġt abs
St ream
Ġschizophren ia
Ġsm ash
Ġdict ate
ĠDrag ons
r itional
k top
Ġvill agers
Ġnew born
ĠZh ang
auc as
Ġtheoret ically
Ġb aff
ĠV it
ĠP oor
10 7
Will iams
Ġk ings
ĠAr ist
B ase
Ġprol ific
Ġbo il
Ġre play
Ġpreced ing
ĠHe b
ĠBut ter
rain e
utter stock
Ġfil ib
ĠS ize
Ġspecial ty
ĠFly ers
het ics
Ġconflic ting
ĠS aid
ĠD HS
Ġqu ir
ĠTH C
ĠP retty
ous se
ĠSe vent
00 000
g ithub
Ġout we
sp ot
hard t
ir ling
OL D
Ġtoug hest
Ġsal mon
Ġr app
Ġpair ing
ĠLe eds
ĠAud i
m oney
Ġcoun ters
but ton
ĠArch ives
Ġ2 30
t aking
R o
Ġpref ers
ĠP itt
Ġd Ã©
Ġpro w
e us
not es
ĠU AE
ĠJ as
ĠB ug
Ġ-- >
Ġbra ke
K now
us a
ĠV ander
G T
ĠInf o
Sec urity
Go ing
e ast
ĠW itch
ĠPat terson
Ġstr at
Never theless
Ġinex pensive
Ġneighbour ing
ĠM echan
Ġsur rog
ĠNot ice
ĠZ ika
ĠV oy
ĠBul gar
d ens
Ġyear ly
Ġl ocking
Ġinv asive
Ġsm iles
r aining
ĠLam ar
ĠEp ic
Ù Ī
Ġf ills
Ġpl ac
Ġcl ing
Ġwh ip
Ġex pelled
Ġcl ay
ĠLie utenant
Ġexpl ode
Ġur ges
Fr ance
Ġpl ight
th ose
13 5
Ġsim ulations
Ġrot ating
Ġ10 9
ĠÃ ¢
19 99
Ġins iders
ĠLic ense
c ats
Ġem ission
ĠIndones ian
Ġrab bit
Ġgig antic
ĠMel issa
ĠFe atures
W orks
ĠCal vin
Ġrestrict ive
Ġadmin ister
ĠBrad ford
Ġpass er
ĠA id
Ðµ ÑĤ
German y
Ġconfig ure
ĠSt am
Ġexpl ores
hib ition
Ġste er
Ġmail ing
ĠGod s
be ck
Ġvoc abulary
Ð° Ð½
Ġche at
ĠS ara
iv or
cr ime
Ġapp end
IC A
ĠL ac
ĠX ia
Ġat om
ĠCu omo
Ġm as
Ġguess ing
ĠR ash
Ġgr in
ĠH oney
ĠMy an
Ġunivers ally
Ġinstall ations
Ġpack ing
ĠGujar at
Ġc ues
ĠWi Fi
ĠWh ole
Ġgl am
ĠGro ve
ĠCh ang
ĠAv ailable
Ġimper fect
M il
Ġde port
ym es
h awks
Ġscore r
Ġnow adays
Ġch olesterol
C arl
Ġgr ammar
Ġal erted
Ġcondemn ation
Ġam azed
c amera
Sen ator
Ġaccum ulation
bo at
Ġvacc ination
Ġimp aired
com pl
Ġperson a
Ġh ottest
ĠIss ue
Ġlif es
ĠG erald
ĠBill board
S ystem
F ast
ket ch
Ã± a
Ġh ates
M ajor
c p
Ġcommercial s
Ġappl ause
ĠFitz gerald
g ering
aw k
Ġcelebr ates
Ġdevelopment al
ĠJoh ann
. *
Ġpost ure
ĠDe V
Ġdefense man
Ġlect ures
ĠCh avez
att a
ĠN om
Ġrat ios
Ġbr ink
Ġpolit ic
Ġa we
IG N
Ġcommun ism
en h
Ġsal v
Ġdisproportion ately
Ġther m
och ond
Ġlaw ful
Ġjihad ists
j ava
Ġexp ire
ĠBay lor
Ġritual s
d uty
rent ice
Ġsmugg ling
ĠSol utions
Ġcris p
sw er
Will iam
ra its
Ġle v
Ġd ictionary
rend ered
Ġsubsid y
Ġdistur bed
Ġ/ *
nt on
Ġinsult ing
ĠU E
ĠNAS CAR
ĠKey stone
w y
ĠGu ate
Ġdescend ants
ĠW yn
ĠSor os
Ġremember ing
ĠChap man
Ġunder mining
Ġr av
Ġco ached
g ard
el o
ĠW ong
ct ica
ĠS ettings
ĠMar ijuana
T I
Sen ate
ĠMyan mar
Go vernment
ĠD ocument
ĠLiber tarian
ĠG amer
er ter
Ġch illing
ĠC oul
w omen
Ġoil s
Ġinfect ious
oc ating
Ġf ox
Ġexpend itures
Ġinsurg ents
P riv
Ġgl owing
ĠTw ilight
Ġrum ored
ĠLind sey
Ġfo am
Ġhorm ones
ic z
che wan
av ier
Ġexperiment ing
ĠW ash
Ġspecific ation
Ġdiscrimin atory
ĠNic olas
11 2
Ġair ing
ĠP P
man ned
ĠH os
k ick
Ġpractition ers
Ġconstruct ive
ĠPhilipp ine
ĠL B
C oll
Ġcler gy
ĠShe ikh
ĠOrig in
f ell
ĠW AS
Ġtra umatic
Ġimp uls
ĠStephan ie
od us
Ġfam ed
Ġmot ors
Ġext inct
ail ure
Orig inally
Ġtrans cend
Ġsle w
Ġb apt
ext reme
Ġ13 5
C ost
ber ries
Ġdefin ite
ĠS ig
Â ½
C ase
Ġdecre asing
Ġfr iction
ĠSh ir
ĠDis play
Sim ilarly
Com ment
Ġconfig ured
ĠW rite
ĠZion ist
li able
S ize
ur istic
en ary
Ġhands ome
d an
Ġpro se
Ġ----- --
AR S
ĠResp onse
Ġpatri ot
Ġd ynasty
Ġc emetery
Ġrest s
ĠFuk ushima
Ġ) :
T aking
! ),
T s
ĠM ental
ĠCom ments
if ts
Ġpe as
ĠP izza
Ġpet ty
ĠC ain
ĠW id
Ġpol ished
ĠR id
ĠPh arm
ign ant
Ġm ocked
Ġmunicipal ities
Ġexhib ited
St and
Ġnic otine
ĠSt rat
f at
ĠLes lie
ĠA CA
Ġconf ess
Ġo ri
ov sky
ĠC openhagen
Ġtsun ami
b c
Ġconsult ed
Ġfort unes
ĠOpp osition
ĠE ld
Ġunre asonable
Ġjud iciary
ĠFred die
Ġt ipped
ĠW ILL
ĠUnder ground
ĠCh i
ĠStand ards
am oto
ĠSol omon
Ġtr act
Ġrestrain t
Ġs ulf
Ġout doors
ĠC ed
ms on
Ġdwar f
Ġhist ories
Ġcontrad iction
ĠSS D
Ġins ign
ĠT yson
iv ities
Ġrevers al
ĠPsych ology
Ġsand wic
Ġphenomen al
Ġtr unk
Ġbub bles
ĠBe e
t xt
our cing
Ġcyber security
i very
E ff
ĠA W
Ġf aded
uper t
ĠHas kell
ĠHell o
Ġrecons ider
reg ulated
all ic
Ġdisp atched
Ġschedul ing
Ġl amp
Ġinterpret ations
sh ort
ĠAn s
Ġ15 00
a ude
L uc
vid ia
id as
P ack
Ġemploy ing
10 8
ĠTe ams
ĠOs ama
ob il
N ov
Ġ195 2
Ġt earing
f inals
Ġplug ins
Pal est
Ġcher ry
lu ent
ĠFr aser
ĠConst ruction
ãĥ ³
bro ken
ĠCy prus
ĠOper a
ĠBened ict
at hing
Ġmon uments
ĠTre nd
r Ã©
Ġinstinct s
is y
Ġprin cess
Ġcommem or
iov ascular
IS H
ĠTr inity
Ġmush rooms
ĠOb server
ĠI PA
Ġgeomet ry
ĠChar acter
Ġp ains
ĠBrig ade
ĠR um
Ġdistribut ing
Ð° Ð»
Ġesp ionage
E conom
.âĢĻ âĢĻ
Ġrent s
Ġra ided
E arth
Ġmillenn ials
Ġgrand parents
Ġge ography
Ġboost ing
ĠDog s
ĠAst ros
Ġs arc
Ġp ins
ĠN issan
Ġpart nered
ĠShort ly
ĠAss ass
Ġpenet ration
an amo
Ġfulf illing
w agen
medi ately
Ġouts iders
Ġblat ant
Ġ1 19
Ġuns pe
Ġsh ale
need ed
Orig inal
EM A
Ġcollect ors
ess im
Mat thew
Ġpass ages
ĠNon etheless
ent on
c ritical
ĠE VER
ALL Y
Ġmand ated
Ġkind ness
ĠM alt
man agement
am bo
Ġsl ash
Ġfemin ine
Ġdrag ging
ĠS ke
ĠValent ine
c uts
Ġecl ipse
Ġconc ussion
k t
ĠG ru
m aid
Ġsupp lements
c orn
Ġobst ruction
Ġoptim ization
ĠSh arks
r il
Ġdiscour age
ĠDet ective
P op
ar ations
Ġstart ling
az ingly
ĠM K
ĠUn block
ĠInnov ation
ĠUn known
ĠRoc hester
Ġpres crib
Ġs inking
ĠSh arp
h ma
. âĢĶ
ĠG C
Ġlong standing
tle ment
Ġrac ially
Ġstrengthen ed
ĠFranc o
Ġhome work
def ault
Ġregul ating
Ġclar ified
ĠB end
Å Ĥ
iv ist
Ġfront s
Ġs acked
Ġread ings
Ġin mate
ĠInterest ingly
ĠFront ier
Ġhe ars
Ġecosystem s
ĠC V
Ġconc urrent
ĠAs ked
im i
ĠMig uel
Ġfin anced
udd le
Ġmanifest o
Ġsort ed
Ġexcell ence
ĠArch ive
Ġ iv
r anked
Ġn ap
and ro
Ġright eous
Ġgun fire
st en
D M
Ġeth ic
orn ings
F lor
il ot
ip al
Ġbl ur
Ġstat ues
Ġmar itime
l aughs
E ast
ter t
Ġsub set
Ġgu iding
ĠR i
i ating
ak o
ĠKir by
Ġheavy weight
Ġgen res
iol a
Ġoptim ized
ĠJav ascript
Ġcompet ed
he ne
ĠSch war
Ġ19 33
pat rick
Ġm aternal
uc ing
Ġbl ues
ĠY ug
ĠMotor ola
ĠEx pect
Pre vious
Ġfront ier
ĠH ers
Ġjewel ry
Ġfat ally
ĠDecl aration
z ero
osoph y
Ġleg ends
Ġyouth s
ĠL ords
Ġoun ce
reat h
Ġindic ations
Ġch ased
ĠAv iation
Ġout going
ĠArt icles
Ġgate way
Ġfulf illed
Ġen cl
l ide
Ġh amm
ĠSpot ify
ach ine
I AN
ĠFr ances
Ġethnic ity
sh are
am my
Ġd wind
Ġarc ade
v ine
m ot
Ġproceed ing
ĠBar on
her ty
Ġinv oked
Ġinflamm atory
est ablished
ĠO dd
act ivity
Ġrun way
umb les
ld om
ĠAst ron
Ġcart oons
ĠJohn ston
N R
fil m
Bl ock
ĠCh icken
Ġpestic ides
Ġtrail ing
Ġsp un
Ġreal izes
Ġb ully
J udge
U MP
aid a
Ġad am
Ġopen ness
ĠArt ist
ĠAll ied
ĠL uk
ĠJac obs
ys ics
Ġdeploy ing
Ġpump ing
ĠCor rect
p sych
Ġworks hops
Ġunle ashed
ĠPubl ishing
Ġmis represent
Ġpen insula
ĠIs n
Ġun available
Ġimpl ication
Ġexplo iting
ĠPay Pal
mans hip
he a
Ġoblig ed
ĠN er
l ists
Ġoverr ide
ĠE y
ĠT ank
cept ive
Ġf eder
Bre aking
Ġorganiz ational
ĠAny way
Ġs unk
ĠCh art
Ġdef ects
ĠT ut
ĠCustom er
Ġ25 6
Ġt ac
To o
Ġrock y
ĠPre vious
: [
Ġnarc iss
Ġcoh ort
Ġastron omers
Ġpr aying
st ed
ĠMon roe
ĠIb rahim
Ġunexpected ly
ov able
Ġmoist ure
Ġbur nt
Ġabrupt ly
Ġoversee ing
Ġm und
Ġkn ives
og rams
ĠL ok
Ġhold ings
ĠAfric ans
ĠG ren
ĠDo om
Ġpar cel
Ġch ord
ĠF ry
Ġpe aks
Ġframe works
s end
bet ween
Ġparent ing
Ġob ese
Ġf erry
ing es
Ġbl ink
ĠV PN
Ġmod ular
Ġhes itate
Ġyield ed
ĠV on
H appy
Ġchall enger
Ġbi om
ĠSh annon
P rop
ĠAr ms
ĠCon nor
Ġwor m
Ġun ins
Oh io
old en
ig ated
Ġsplit ting
Ġvib e
Ġe ve
ĠOtt oman
f re
Ġtermin ation
Ġad missions
Ġvisual s
Ġas semble
ĠSc out
g os
R a
Ġw ishing
T F
ĠK ris
ĠInt o
r ag
ĠX in
Ġphilos ophers
ĠAthlet ic
st own
ĠStock holm
ĠCy cling
ĠSol o
Ġch assis
Ġnotor iously
Cle arly
ĠJan et
Ġto re
Ġnot ify
Ġsummon ed
m ort
Ġplant ing
Ġlabel ing
ĠWATCH ED
ĠH il
k ish
R est
Ġsn ipp
ĠC oc
oss ip
if ty
Ġill umin
A ction
Ġh iking
att led
Ġspont aneous
Ġp enny
us ually
Ġret ali
Ġk idding
Ġenerget ic
Ġc av
vis ors
ĠL is
ut sche
Ġwith stand
Ġgrand children
Ġcon ve
AN C
Ġens l
Ġdecl ares
Ġceremon ies
Ġmic row
Ġ( (
... ]
uck ing
Ġbroadcast s
p ires
Jew ish
Ġslog ans
Ġbacter ial
Ġfl ipped
ĠA ber
" ?
ĠKa epernick
å ħ
l ated
o i
ĠAN Y
11 4
aci Ã³n
Ġwand ering
ĠK ol
ĠCom mercial
Ġhand ler
t ree
Ġ17 5
Ġgener ators
Ġcontrace ption
Ġunder mined
Ġhom emade
Ġcos m
sm ith
Ġsil icon
L im
Ġmod s
acc ount
Ġcentral ized
Ġbl onde
Ġdemol ition
ĠAl bum
Ġper vasive
Ġf ixture
ĠOpp ortun
us ch
reg ulation
Ġs lick
ĠG IF
en o
Ġbe verage
Event ually
in av
Ġtrig gering
Ġmotiv ations
Ġexc luding
g ot
Ġescal ation
c ool
ĠBur ger
ra ven
Ġstr anded
Ġsoc ks
ĠGold berg
ut z
Ġw izard
Ġhe ap
ĠReg ist
it ious
ar ray
U k
olic y
l oss
el in
M rs
)) )
O B
Cont ent
Ġtom atoes
Ġl ent
EN S
uck land
V e
Ġdrunk en
Ġretain ing
Ġprogress ed
17 5
ĠS ally
ĠK abul
ĠAl v
ĠSw ord
ĠAur ora
Ġb ids
ĠSec urities
lu ence
Ġfil ings
ĠField s
ĠB ath
x imately
Ġsp rawling
Ġproced ural
Ġev id
Ġd ental
ĠS ark
ĠMac ron
p ng
Ġor thodox
Ġp as
bur se
ĠÂ ĸ
rec ogn
ĠPengu ins
Ñ İ
ĠSc and
V an
ĠD raw
Ġob solete
2 40
Ġdiss atisf
AN N
/ -
ĠH iro
Ġmet ropolitan
ĠN igel
get own
v d
Ġsat ir
ĠTor res
ĠO ption
Ġrespect able
Ġlos ers
ĠW ool
are th
ĠHann ity
Ġbureaucrat ic
ĠM Hz
Ġblock ade
Ġ19 14
ic ially
Ġdom est
Ġsid eline
Ġimm ers
Ġsqu ares
o os
Ġmis guided
ĠC ec
Ġsod ium
ĠSant orum
Ġpione er
V ia
ĠNew ark
ĠHor izon
j son
S ean
Ġresist ing
Ġcon quer
ĠD as
ag ent
ĠP ure
ĠP ixel
Sc roll
Ġd urable
ud get
che t
Ġbus h
Ġgl ue
j ury
Ġhigh ways
Ġdatas et
go ogle
Ġrese ar
dig it
ĠMo zilla
Ġreject s
ĠRut gers
ocaly ptic
Ġa isle
Ġstat utory
Ġl ord
Ġcancell ation
Ġmat urity
ĠÎ ±
Ġc affeine
ĠGuant anamo
ĠSt eele
ĠPer th
ĠLu cy
Ġrestrict ing
t ab
Ġsynt hesis
k an
ĠMad uro
on ial
om orph
ĠD ew
Ġimag inary
ĠBlack s
ĠA AA
Ġaw ait
ĠR andom
Ġmetab olic
at ible
avor ite
Ġund ec
Ġbal ances
uss y
go ers
Ġmon keys
Ġvan ished
Ġtest ament
Ġass im
ĠLaw s
R Y
Ġassist ing
Ġrespir atory
i ago
S ex
Ġcub ic
f orth
Ġ.... ..
Ġse ating
Ġle isure
ĠAdvis ory
AM A
Ġche ering
Ġalph abet
Ï ģ
Ġs igh
Ġlab s
Ġimp over
Ġsmok ers
ĠVol ks
ĠRes cue
Er ror
ĠP ip
Ġutil izing
Ġstress ful
Ġcan cers
Ġmagn ificent
not hing
Ġvis ions
e ight
Th ursday
Ġdisc arded
Ġar rows
ĠPTS D
Ġprev ailing
Ġarm ored
c hens
Ġconsult ants
ib o
onge vity
m ith
is ine
Ġsin ister
Ġrum ours
Ġdem ographics
M essage
Ġun for
ĠPod cast
Mond ay
Ġvers a
ĠBoy d
Ġre write
ĠH ang
ĠMo z
Ġth ieves
Ġce ased
ĠF usion
S at
Ġobject ed
ĠF ah
G ate
ĠF it
al most
cl air
ĠN I
Ġf uzz
Ġstandard ized
Ġlik ing
j ad
Ġlaund ry
Ġelect rons
ĠZucker berg
Ġab using
at ts
ĠJoe y
ows hip
Just ice
Ġinsist ence
Ġcirc uits
ĠPro blem
ĠA gg
ru ce
ĠF ul
re ally
d rive
Ġexp ands
Ġlive lihood
ud o
rac use
ĠQuest ions
ĠF i
Ġpro let
Ġarbit ration
ĠJ P
W in
ib a
Ġimpress ions
Ġ[ âĢ¦]
oper ation
Ġ195 1
Ġtele communications
Ġaut obi
ord ered
ve illance
Ġsc aled
ish i
ess ment
Ġne oliberal
Ġjud gments
Ġe in
ĠT witch
ĠP ool
ir rel
F riend
Ġrel iably
Ġad here
Ġac oustic
ĠWe ber
Ġa ided
ĠS ina
ĠCre ated
Ġ19 18
O A
ĠAg es
pe x
Res earch
CL OSE
Ġrehe ars
Ġpump ed
ĠF E
ĠDani els
Ġ19 38
ĠGreen e
oc re
bet ter
Ġpromin ence
Ġde ception
ĠM ubarak
Ġstim ulate
ev il
Ġswing ing
ĠSub ject
ĠR iot
Ġincons ist
ĠN u
ĠSad ly
Ġfear ful
ĠL I
ĠAntar ctica
ron ting
Ġcondem ning
mod el
ĠMon itor
Or gan
Ġdiff ers
Ġsacrific es
Ġg n
ĠPhys ics
ĠWhe never
Ġgrad uating
on el
Ġteasp oon
ĠMart y
ĠMar riage
ĠHoff man
ĠCom pl
Ġprov oked
Ġg ast
ĠM au
Com ments
ym ph
ble ms
Ġjihad ist
ĠAna heim
raft ed
ĠAl leg
F E
Ġdisrupt ed
ĠAC T
Ġrou ter
ment ia
ĠWol ver
Ġn ause
Ġdisgr ace
Ġtext ures
Ġb olt
ĠV II
ilib rium
ag netic
ĠStat us
Ġtermin ated
ĠR OM
Ġelev ation
ĠL inks
ĠHann ah
Ġpack et
d ates
Ġpir ate
Ġbull pen
let ion
j et
aa a
Ġconf ession
St ay
Ġori ented
Ġnostal gia
Ġhur ry
Ġcomp ute
Short ly
Ġtheat rical
Ġst ared
ĠSch wartz
ĠFinn ish
Ġcollabor ate
ĠTon ight
ĠS ou
ĠManit oba
ĠS uff
ĠI X
Ã ¦
Ġsubst it
Ġ11 4
ĠHist orical
ĠH ash
Ġhe fty
Ġconserv atism
ĠCrit ics
Ġun sett
Ġres umed
ĠG ust
M oney
ĠR NA
Ġsky rock
Ġpir ates
Ġpossess es
ĠWik ileaks
Ġpresum ed
Ġmel ted
Ġbur dens
Ġwheel chair
ĠS z
Ġdownt urn
Ġ12 3
Ġtro lls
A ccess
Ð¾Ð »
ang ling
Ġend urance
Ġing en
Ġc apped
ĠElect ions
fashion ed
Ġre written
Ġl ays
Ġoverse es
Ġmim ic
F M
Ġostens ibly
F re
Ġtempt ed
ĠB U
in ness
ad an
Japan ese
Ġconf inement
B on
ĠRa q
Ã ´
or st
L ow
Ġpun ches
Ġsc outs
Ġm og
Writ ten
Ġunfair ly
Ġkey word
per cent
l aughter
Ġw aving
Ġchrom os
ĠMic key
ĠDI Y
yr r
ĠOri oles
per fect
g ic
16 8
Ġmon st
Ġth igh
Ġinsult s
y g
indust rial
Ġrev ol
ĠV C
ere m
ff ield
ĠM H
in ion
ĠAr ray
ĠY ORK
ĠWill ie
ĠG ig
ĠR anch
ĠKaz akh
Sm all
Act ually
Ġfold ed
ĠID F
Ġgun shot
Ġban ana
ĠS we
ag i
Ġout ward
Ġentit lement
Ne il
D L
Ġt ones
ow ler
Ġviol ently
Ġrot ate
Ġharm less
ĠR an
Ġlegal ized
e as
ĠUg anda
OT H
Ġa ce
Ġguess ed
ĠBund es
ut able
Ġext r
Ġrec ap
ĠBook er
d ead
Ġgrav itational
Ġdr ank
ĠRe ason
ĠP ull
ier i
Ġd ar
ĠKn ox
Tur key
Ġpip elines
[...]
