h e
Ġ t
Ġ a
Ġ s
Ġ w
t he
n d
Ġ the
e d
Ġ b
Ġa n
Ġt o
Ġan d
Ġ h
Ġ f
i n
Ġ T
Ġw a
r e
i t
o u
Ġ l
Ġ d
e r
Ġ c
Ġ p
T he
a y
Ġwa s
Ġ m
o m
Ġ he
Ġ The
Ġs a
i s
a r
o n
Ġ n
i m
l l
i d
l e
Ġh a
Ġ g
a t
Ġ S
o r
m e
e n
a n
i l
t e
n t
l a
t h
i r
n g
o t
r i
n e
k e
Ġb i
Ġh i
Ġw i
Ġ H
a m
h a
Ġ it
Ġt h
Ġ o
r o
o o
u t
Ġd a
ĠThe y
Ġc a
i e
e a
ĠH e
Ġ in
e s
u n
Ġ "
Ġw e
a l
l o
Ġs o
Ġb e
o w
Ġsa i
Ġ u
Ġda y
Ġsai d
p p
Ġwi t
Ġwit h
Ġhe r
v er
v e
Ġ y
Ġ r
l d
c e
s t
S he
c k
Ġ She
Ġhi s
Ġ I
Ġs t
e e
Ġd o
ĠT i
e t
ĠTi m
Ġbi g
Ġ e
y ou
Ġ you
e nd
d e
Ġn o
ver y
Ġf o
o k
s e
Ġb a
l i
Ġ on
Ġb o
e l
f r
r d
in g
Ġm a
Ġm o
i end
r iend
f riend
Ġ friend
Ġ L
Ġp l
n a
Ġth a
Ġha p
Ġhap p
p l
Ġb u
Ġwa n
Ġthe y
Ġwan t
Ġha d
Ġpl a
Ġt r
t l
c a
g e
s he
Ġt i
it t
Ġno t
Ġo f
Ġ B
L il
the r
Ġfo r
Ġhapp y
g h
u l
Ġ M
Lil y
Ġa l
Ġ very
Ġtha t
O ne
r a
Ġsa w
Ġmo m
i c
' s
k ed
itt l
ittl e
Ġpla y
u g
l ittle
Ġ little
t o
c h
l y
Ġh o
h i
p e
Ġ she
Ġs h
Ġg o
Ġ k
Ġti m
Ġtim e
r t
m ed
Ġthe r
Ġther e
. "
Ġw o
a med
n amed
Ġ named
Ġl o
Ġ Lily
Ġs m
ĠT o
Ġbi r
Ġwant e
Ġwante d
Ġbir d
ĠTo m
r y
u p
u s
u r
Ġwe r
Ġwer e
Ġbu t
Ġfriend s
! "
Ġa r
Ġhe l
h t
Ġd i
O n
o g
Ġto o
v ed
y s
n ce
O nce
Ġw h
u nd
Ġhel p
Ġf u
Ġwe n
Ġwen t
Ġal l
ĠI t
Ġ A
u e
o p
Ġg i
p on
u pon
Ġ upon
Ġ is
u c
a s
Ġf e
w a
Ġf a
r k
o d
Ġfu n
Ġto y
Ġs e
Ġl i
Ġp a
p o
e ther
g ether
o gether
Ġa t
Ġ j
e c
Ġa s
Ġdi d
n y
c ou
Ġ cou
c i
t ogether
Ġ together
a u
e w
t s
r l
Ġso m
Ġsom e
Ġst a
Ġdo g
o und
Ġc o
Ġth i
Ġca t
Ġt a
Ġs u
Ġtr e
s s
n ed
Ġba l
m y
y ed
Ġm e
Ġgi r
Ġ ou
m o
Ġca n
Ġbal l
i nd
Ġgir l
Ġcou l
Ġcoul d
Ġhi m
Ġn e
Ġthe i
Ġthei r
Ġha v
w n
a d
t t
Ġu p
a yed
r r
l ayed
p layed
Ġ played
B ut
Ġf r
? "
Ġf l
Ġtre e
s i
r s
he n
Ġf i
u m
i a
Ġou t
p r
t i
m a
' t
Ġpa r
Ġthe m
o ved
Ġar e
a x
Ġbo y
Ġsa d
ĠS u
Ġsh o
Ġl e
l t
a c
o ked
Ġhav e
l oved
Ġ loved
f u
Ġsm i
Ġsmi l
o ther
o oked
Ġfe l
Ġb r
Ġba c
Ġbac k
a i
Ġse e
l ooked
Ġ looked
B en
Ġsmil e
Ġp u
f ound
l k
Ġ found
Ġs c
Ġas k
a p
e x
g r
Ġs p
ĠM a
ĠMa x
Ġfr o
w e
g a
Ġsta r
i g
ĠSu e
t ed
Ġma n
a v
g s
Ġpar k
re a
s h
Ġst o
f t
Ġbe c
Ġwo u
Ġli k
Ġlik e
Ġwou l
Ġwoul d
i ked
l iked
Ġ liked
t y
Ġ One
r ed
Ġthi n
Ġbec a
Ġfel t
Ġstar t
Ġ Ben
Ġ W
Ġma k
Ġmak e
Ġ But
n o
b o
Y ou
Ġask e
Ġaske d
ĠS a
ĠSa m
he d
Ġsm a
Ġne w
Ġca m
Ġstart e
Ġstarte d
a nd
Ġa g
y ing
Ġcam e
d d
Ġsc a
c o
Ġsmile d
n c
Ġca r
e p
Ġgo o
Ġ other
o b
Ġhe a
r n
k i
Ġwo r
Ġm u
Ġwa l
M om
m p
Ġsome t
Ġgoo d
Ġsa y
Ġsca r
c l
Ġsma l
Ġsmal l
Ġma d
Ġth o
d ed
i f
Ġtho u
Ġs i
Ġthou g
Ġthoug h
Ġa w
Ġaw a
Ġawa y
f ind
Ġ find
Ġsh a
Ġfro m
Ġwh a
Ġho m
Ġhom e
a ying
Ġh u
f e
l aying
Ġpu t
k s
Ġthough t
Ġwha t
Ġmad e
Ġc l
p laying
Ġ playing
Ġthin g
e ned
j u
ĠS p
r an
Ġwal k
Ġsomet h
Ġsometh i
Ġsomethi n
Ġsomethin g
l s
Ġtr i
Ġl a
Ġg a
ĠSp o
ĠSpo t
Ġ ran
n s
Ġag a
Ġaga i
Ġagai n
Ġ F
k n
m b
Ġbo x
o l
Ġb l
Ġwi l
Ġdo w
Ġdow n
Ġtoy s
n k
Ġ J
Ġwa t
c t
Ġscar e
Ġbe a
Ġtoo k
b l
a re
w i
p i
o re
Ġs w
ou d
i ved
Ġsu n
Ġar o
Ġaro u
Ġarou n
Ġaroun d
Ġscare d
l ived
Ġho u
Ġ lived
Ġwil l
Ġyou r
Ġhou s
Ġhous e
q u
d y
b e
a b
t u
e v
Ġp i
w hen
Ġ when
Ġ You
Ġthing s
t a
ll y
k ne
Ġ kne
Ġm y
, "
c y
Ġtri e
p ed
Ġ ro
o om
f f
Ġsha r
o s
s ed
Ġthe n
p ened
T h
d i
ĠM i
ĠMi a
e ver
t er
Ġbo t
Ġa b
Ġwh o
p a
Ġn i
e very
Ġ every
m i
Ġg e
r m
Ġtrie d
Ġgo t
g g
Ġkne w
Ġs l
Ġlo t
Ġsay s
ou s
Ġp e
Ġin t
n ow
k now
Ġ know
l ed
T im
Ġ red
id e
y e
Ġab o
Ġst i
e ar
Ġst r
a g
W h
Ġsu r
Ġge t
Ġabo u
Ġabou t
Ġ v
c are
Ġ care
e m
Ġlo o
Ġ D
Ġloo k
i v
Ġman y
r ned
r oom
Ġlo n
o c
n i
re s
m ore
Ġ more
x c
e y
b b
Ġ E
Ġfl o
Ġsto r
g hed
ĠL u
Ġ Mom
Ġhea r
Ġal w
Ġalw a
Ġalwa y
Ġalway s
Ġbe s
â Ģ
Ġsho w
Ġbes t
A nd
Ġle a
Ġbot h
i ted
Ġon e
ĠLu c
ĠLuc y
Ġ room
Ġan y
Ġta k
Ġint o
Ġwat e
Ġwate r
Ġbeca m
Ġbecam e
Ġout s
Ġtha n
Ġouts i
Ġoutsi d
Ġoutsid e
g i
a rned
e arned
Ġin s
a k
u i
u ghed
l earned
Ġ rea
Ġ learned
a ughed
l aughed
Ġ laughed
Ġt e
a in
Ġwi n
Ġda d
i ded
Ġbeca u
Ġbecau s
Ġbecaus e
he r
W hen
Ġfe e
A n
re t
c ided
e cided
d ecided
Ġ decided
Ġ And
k ing
ĠS o
c ited
x cited
e xcited
Ġ excited
x p
e ed
Ġshar e
l led
Y es
Ġni c
Ġnic e
n na
A nna
Ġ ea
Ġso r
ar a
Ġc r
t c
Ġthi s
Ġd r
ĠB o
Ġwh i
u st
L et
Ġlon g
h at
Ġs k
Ġfee l
The y
Ġsh i
T om
Ġta l
ret t
