  t
  a
h e
i n
r e
 t he
o n
e r
  s
  w
a t
  o
e n
  c
i t
i s
a n
o r
  b
e s
e d
  f
in g
  p
o u
 a n
a l
 t o
a r
  m
  in
 o f
  h
  d
� �
a s
i c
 an d
 t h
l e
o m
i on
l l
en t
  n
  l
  re
s t
v e
  e
l y
r o
 b e
  g
i d
u t
a c
o t
  T
  I
 th at
  on
a y
  S
  is
e t
i m
a m
a d
o w
s e
i g
 f or
� �
  A
v er
u r
c t
l d
  C
  u
 s t
  y
  it
  he
i r
at ion
it h
 w h
  M
c e
t er
o l
 w e
i l
 w ith
 a s
  B
c h
i ll
n d
  P
 w as
er s
 y ou
k e
  �
 c on
 d e
  r
he r
i f
at e
a g
 a t
 h a
  W
 s e
  H
o re
 p ro
u l
p p
m ent
r i
 a re
  D
  1
u s
es t
is t
 c om
an d
  R
o p
a in
 T he
  2
ig h
r om
  (
or t
o d
 n e
  F
u m
u n
 e x
re s
a b
� �
 n ot
  N
  v
es s
 ha ve
it y
e m
ou ld
 o r
t h
 b y
o s
an t
  G
i ve
 f rom
 a l
e l
' s
o c
ar t
 s u
  L
 s h
 th is
n t
q u
igh t
p e
u st
  le
i es
  E
en d
 c h
 s a
ou t
 a b
T he
al l
i e
ac k
re d
0 0
 � �
 h as
al ly
  J
 p l
 g o
ar d
i v
 h is
om e
a p
o st
g h
e ar
  O
 t r
ou r
as t
  j
a k
u d
 d o
 the y
 b ut
 w or
r ou
 c an
g e
 w ill
 sa id
 w he
  U
  k
ic h
 a ll
o k
  "
id e
 wh o
 in t
am e
an s
t her
i al
 o ut
f f
 the ir
on g
e ct
p l
ic e
u re
p t
on e
 m ore
ag e
ion s
ac t
i ke
 m e
 u p
ou s
in e
 a d
 ab out
at ed
r a
b er
 on e
 we re
 s o
 u s
im e
o g
  K
e p
i a
 h ad
a re
u b
c c
 w ould
 c l
 2 0
  im
 wh ich
in d
u e
a ke
 con t
i z
ver y
 a g
 t e
 of f
 com p
 u n
 be en
 S t
s o
  en
p er
ig n
a u
 T h
ar y
ac e
 y ear
i p
e w
 l ike
e re
v en
o ok
 in c
ay s
 m an
 p e
r y
o se
 re s
ab le
it e
 p er
as s
or d
 s p
i re
 I n
 o ther
m er
 s ome
i le
i b
en ce
op le
 20 1
k s
ation s
 o ver
ic al
 the re
res s
 d is
ul t
in t
 ne w
ow n
 al so
 th an
 a r
 be c
r u
 the m
an ce
ou nt
ou gh
 a pp
p ort
a il
 p art
 you r
 whe n
re e
 wh at
or m
on d
 pe ople
f ter
 s c
 C h
a v
as e
  qu
 an y
 j ust
 it s
  Y
ac h
 t ime
 I t
 k n
 he r
  3
en s
l ic
 re c
re at
 m y
 g et
  if
  V
i an
. ”
 int o
ou nd
 wor k
 t w
ir st
ve l
ct ion
 n o
d u
ing s
or y
ic k
or s
 o ur
it ion
id ent
o b
  -
 p re
o ve
 pl ay
an g
in k
au se
w n
am p
t e
ad e
h ing
at es
ar k
  ro
 p ol
 s he
ver s
 c o
, ”
 a fter
 f irst
 c ould
 h ow
 H e
n e
 1 9
i ous
nd er
i ld
 a cc
 h im
a w
' t
on s
 p o
 on ly
 f e
 at t
ic t
he d
 p r
 tw o
r it
o v
is h
 com m
� �
f orm
 s pe
 a ct
w e
er v
 b l
f t
 be t
 de c
. "
n ing
 b ack
 m ost
c es
o od
c k
 � �
 a m
o y
 d id
rou gh
if f
at er
rou nd
 ag ain
  4
u al
d ay
is e
 u nder
 d es
 w ant
u ll
se l
 con s
 � �
. .
 bec ause
 n ow
l ud
ent s
 year s
m an
ter n
ub lic
e c
 ne ed
 e ven
  $
is s
 in v
 kn ow
 W e
 se e
ment s
c ed
 ad d
, "
t ing
o ld
 in d
 se c
f ore
u ch
 e very
ur n
  5
 su pp
 m ake
pe ct
 U n
 e m
 the se
oc k
o ll
 whe re
j ect
I n
ation al
ver n
x t
 b u
 l ook
T h
 A nd
os s
 d on
 e v
um p
at ing
 w ay
 be ing
 re m
 r ight
i ly
 m ay
n g
ro w
le ct
ie w
 the n
 man y
  [
 d iff
 de f
as on
 re l
 c all
 B ut
 T r
on t
i ed
l es
as ed
 inc lud
 th ink
ak ing
 re g
) .
mer ic
 im p
 th rough
at h
it ed
ri b
 s y
 sh ould
 p res
 s ay
e ll
 f l
ur ing
 l ast
 th ose
ow er
  very
t y
ot her
 m uch
00 0
it ies
if ic
 st ate
 Th is
at ive
 sh ow
t le
he n
 b r
s s
ar g
 we ll
ot h
 p h
 W h
 c ount
al s
u nd
 do es
 d own
 o wn
ar ly
  end
 as s
 be l
 u se
ic s
an ge
- -
t s
 l ong
 A meric
ter s
in ce
 be fore
om et
g r
 m on
w ard
 go vern
 st art
 re port
ib le
  ke
u p
u es
 N ew
 f in
 te am
b le
 m ade
if e
ol og
en er
) ,
 su ch
re n
c om
 2 00
ou n
ers on
e k
i x
 s m
� �
l p
il ity
 go ing
is m
f ul
 wor ld
u ally
 st ud
ist s
 go od
 a c
t ain
I t
 su b
 e ff
in i
 s ur
 again st
it s
 g ame
 s et
or k
  6
 g u
 po int
  ent
y s
g an
ar s
l i
st em
 pro v
 st ill
rou p
 wh ile
ill ion
 he lp
 le ad
we en
e f
a x
an k
al k
im es
 s ays
 o b
m s
c y
 pro du
 g r
 in ter
 in st
 st r
c ess
 s im
sel f
 con f
i o
 c ol
 t ake
 m in
u res
ar ch
 s ame
 th ough
 bet ween
oll ow
 off ic
e ver
 c r
 diff ere
o ol
us s
ut ion
l and
 dis c
a ir
 o p
a h
  ed
 h igh
re ad
 n um
 l aw
 s ign
w ay
 govern ment
g g
 R e
l ed
n er
h ip
at ch
he s
am es
an y
 t er
 s omet
c ent
vel op
t ed
W e
 re f
 tr ans
t en
 in s
 r un
 s er
 f ound
 th ree
iv es
a ve
 m em
 a round
 he re
at her
 m ed
 re al
 us ed
ou se
 1 0
v ed
 ex p
a z
 A r
ce pt
o ot
 sy stem
 Y ou
c i
 re ally
 m od
v ing
c on
c er
 g roup
 supp ort
  7
 c our
et s
al e
n in
in s
 re t
 h and
 p ublic
 spe c
p r
 L e
y ing
 g reat
 c ar
en se
 ex t
. [
t on
ire ct
 c ur
 f am
 C om
al th
 ha pp
 f act
p h
 ex per
 The y
 Tr ump
 f r
 w om
 I s
 c ap
 b oth
 d ay
 f ind
 A l
ul ar
 re ad
in es
o h
ic es
 d et
 l it
 s l
 re p
ut h
e red
 d uring
 S h
 A s
  0
 s erv
 mon th
t he
is ion
 c re
 de velop
 b ig
m in
  8
 p erson
ak es
 f ollow
 C l
 is s
e x
 to ld
 s ince
a red
m ed
ic ally
 we ek
ag es
i vers
 w ar
 f ew
ort h
ord ing
 c ent
 le g
a j
g et
 pol it
v es
as h
 ex pl
 l ot
r ic
 S e
 bel ie
at a
 g ener
 to o
  9
d er
re nt
 o pp
W h
 re qu
 cont in
 pro t
i et
b ers
an c
 f il
ent ion
n ess
 c le
 res p
 p ut
iz ed
 I f
 an other
2 0
ch ool
 in f
 somet hing
 D e
 differe nt
 c or
 l oc
ut e
 inv est
 s oc
 p ower
 c he
u c
  '
 p ass
 comm un
 l ife
 F r
 pl an
od y
 re le
 he ad
i ence
 th ings
n ed
 f ar
 ar t
 p oss
 m et
th ing
o x
ere st
 c amp
ro ss
ar ge
 v ot
Th is
v iew
i er
 ch ild
ant s
 as k
  .
 m ight
 e ach
iz e
in ess
 de p
 ne ver
 ne xt
ie ld
 sec ond
 m ark
t t
 qu est
 b us
 ad v
i k
 A n
.. .
 de m
 F or
 com e
 g ot
 � �
 op en
 b est
i ent
it al
 all ow
 Th at
r at
 se em
 p ost
p le
n ce
 fe el
 P ro
 U S
u g
 p ri
gr am
 per cent
c l
 h ome
 d ist
 d irect
i red
 inc re
 cont ro
 R ep
s on
or n
l ess
os ed
 res ult
 h ard
 c are
ate ly
 m illion
ch n
 comp le
 pl ace
 with out
 in form
 includ ing
 im port
 a v
con om
 h um
am a
  ide
 pro ble
 bu ild
 to p
 num ber
 count ry
g y
one y
a im
 B l
re t
r al
ab ly
u ro
 st and
 g l
 e l
ri end
 f our
is hed
w ays
 part ic
 bet ter
 t ri
B ut
 rec ent
 int erest
 m ov
 le t
c o
r ation
 se ason
 l ess
e ad
 t urn
 lit tle
 be h
 m il
 app ro
r act
l ine
 b ro
l ing
is ed
 call ed
a pp
1 0
 c ase
 d r
 I nd
 re st
 le ft
 p op
 an n
  Z
en cy
od e
 m ove
 att ack
in a
 The re
 ke ep
 f ull
er ing
 did n
b e
 f un
 m ain
aj or
_ _
 eff ect
in al
le g
 pre v
 pro gram
 us ing
 t est
re m
 p ay
at ure
 e ar
t o
 v al
 pol ice
 w rit
 for m
 e conom
 d ata
 new s
 p os
 w in
 Americ an
 le vel
 s it
 ch ar
ain s
iv ing
u ck
 sm all
in ed
read y
H e
 s chool
 l ist
olog y
r ap
id ed
m it
pl oy
' re
g er
 e as
 pro cess
ir d
 ch ange
 wom en
 cur rent
 re ce
 p rom
 h ist
 d ri
  =
re en
 pres ident
 comp any
 S o
us ed
 m at
ru ct
 al ready
oh n
 Un ited
w it
 t y
 wh y
 b re
 u nt
 m oney
 s ol
 al ways
 l ater
 ex pect
 te chn
 bus iness
 H ow
 offic ial
r on
  Q
 O b
st and
ivers ity
 b o
 b ook
 P h
a ign
 th ing
 cl ass
 pro ject
as es
 cl aim
 j ob
 inform ation
 or gan
a ff
 S he
ard s
 t alk
 B e
 des ign
 st ory
 ch ang
 m ajor
 ab le
 pro f
 - -
le ction
iv en
er tain
 re se
 he alth
 v is
 p ast
ur s
 f ree
ou th
he re
 A d
 o per
pt ion
 a way
i or
 C an
 m ust
 c ity
amp le
i ans
r ist
s c
ur al
 happ en
uth or
 1 8
 import ant
ac y
ur ity
 k ill
 s k
  est
u red
 o ld
 p at
ur y
end ing
 does n
iss ion
 le ast
-- -
 g row
 ed it
 v ar
ain ed
S t
 c ost
 G o
ne y
id er
id es
el s
 d ays
 te ll
 h op
 st re
 camp aign
s ide
 1 2
 m en
 c ame
 a ff
 con st
res ident
 en ough
 v iew
cc ess
 k ind
 M ar
o ad
 S p
er n
 m aking
 l arge
 rec ord
5 0
us h
 f riend
 m ar
 fam ily
� �
le y
 e lect
d ed
er al
 pol ic
 t ax
is ing
r or
b y
pp ed
al ity
at or
if ied
A s
iv ed
are nt
 unt il
e e
ion al
 polit ical
 v ide
 de al
ri es
al f
au gh
  ve
 work ing
u ed
 Rep ublic
 to ok
 de b
b s
I f
is ter
 l ine
 J ohn
ain ing
 a ir
- --
  es
 in tern
 f ore
i ol
an e
oc rat
 bec ome
 act ually
ap s
on y
 me an
w ork
 f und
 S c
w are
1 9
em ber
 P l
 for mer
 of ten
 E uro
ot t
 w on
 g ive
an n
o int
 acc ording
 e ver
m ost
en g
y ear
w h
ar ing
 g ames
is on
 hum an
 b as
iz ation
 ret urn
 t imes
 or der
 R uss
 wor d
 b it
 D em
 n ame
1 1
 se ver
 A ll
 de v
ic le
ut ure
f or
it her
 p ar
 19 9
 M c
 w r
 C on
ra ft
 s ing
 per form
 S y
 mark et
 f ac
 char ac
The re
i qu
 O r
id d
 A t
 M ay
 r a
 do ing
 app ear
E R
c hed
 play ers
 l a
 n ight
en e
 le ar
ak en
ro p
at s
m ber
 to day
 e arly
 1 5
 se en
/ /
 ha ving
  ,
 p ot
 child ren
 ev ent
 med ia
 soc ial
 c rit
 P resident
 whe ther
 sever al
 contro l
id ence
 me et
s h
 mil it
 p ress
 w ent
art ment
 f ive
 you ng
or ies
 su re
 pro p
ious ly
 e qu
 be g
 quest ion
 o cc
 like ly
ver t
un e
 mem bers
b r
and s
 c ertain
 en g
 w ater
 Y ork
 ex ample
ot s
 C ol
 ar g
 s ide
 an t
 d one
  vers
en n
 inv ol
 M r
 St ates
 Euro pe
end ed
le t
 al ong
 sh ort
 su ccess
ent ial
 month s
b all
 h our
 1 1
i um
 se x
i ver
i ally
A nd
l f
em pt
 with in
 des c
im ate
 cour se
 f ight
st er
ur ch
ub l
 am ong
 act iv
u ff
� �
ag ue
 on ce
 f uture
 invest ig
ul ation
re w
 poss ible
 Ob ama
 ch o
n ect
 under stand
it ing
 con cer
 O n
  ]
on es
ort un
 proble m
 B r
 pri v
 me ans
 v iol
 C ar
 a uthor
it ive
 N o
gg est
 av ail
oc i
our n
m y
 kn own
 produ ct
 n on
iv id
 though t
 y et
g ress
 ac ross
 prot ect
 loc al
l er
 h old
 T e
 f ail
in c
 W hen
 St ate
 commun ity
 re ason
 or ig
ed e
 su ggest
  &
1 2
 m akes
ver age
al d
n ot
p or
b ack
 201 6
  i
b ook
 ask ed
ed eral
or ld
 report ed
Y ou
ag ed
ens ive
 g iven
 str ong
 pro b
 m us
 other s
 belie ve
 vide o
i ber
 b en
 get ting
 H ouse
an ces
 ann oun
 l ight
g ing
ore d
o ber
 Un iversity
 3 0
 C o
it ions
  ident
ir on
 s ent
 c ut
 l im
 c a
 Ch rist
iet y
3 0
ur ther
 s our
 c reat
 con d
  X
re st
am s
' ve
 n et
as hing
 b at
am ent
 n ational
. ,
 cl ose
ar m
 start ed
 sa f
 de ath
as ter
 avail able
 h ig
F or
 b ased
 iss ue
o f
 ind ust
 Dem ocrat
 l ow
 follow ing
res ent
 acc ount
 l and
u se
 C ent
 em ploy
 l ove
 201 5
  #
 hist ory
 ag o
ort s
sel ves
 m om
an a
 part y
 A m
ab ility
e b
 ser ies
 com es
 tr ying
u ly
ut es
 al most
get her
u ment
 to gether
in ation
A T
 Americ a
 ide a
p ro
ie f
 acc ess
 f oc
her s
il ar
 F l
re ed
ail s
 comm it
ition al
 is n
 S en
 cle ar
 1 6
 O ne
 tr ad
 M in
th ough
r ing
 Wh at
 pr act
 add ed
 imp ro
 exper ience
ere nce
 fil m
1 5
 h alf
ust om
g ed
 h it
 B ro
wit ter
r ict
 an al
int on
og rap
un ch
 201 4
 r ul
ivid ual
 look ing
 s ix
 l ive
 any thing
 are a
 comple te
er man
min ist
 m iss
ra el
 Com m
 E x
 f av
 r is
n es
 pres ent
a i
ot e
ru g
 say ing
ra w
a id
 Can ad
 v ict
I N
ci ally
 b ad
ow s
u ge
 t aken
ot o
 ent ire
 P r
at ors
 b ill
 comp et
a f
 m or
 E ng
 beh ind
i en
 a ut
 T o
' m
 cour t
pl ay
 tr y
e v
 milit ary
  z
 ne ar
os p
 m ult
Wh at
 f ace
ward s
  er
 1 4
 sec urity
 P ol
s y
 pro per
 disc uss
 th reat
 to t
er t
 stud y
 sing le
 r ather
 ind ividual
 A f
 B rit
 W ar
  �
tt p
 qu ick
 D on
 m ind
 S ec
le ment
al es
at ic
A n
 N orth
am ed
ap er
 p ubl
 polic y
 m ess
r is
p ar
 bl ack
 want ed
 f all
ir c
* *
o ff
 f ood
 s um
 some one
ll ing
id s
O n
  |
  /
 c ult
 spec ial
 com b
 ke y
 play er
 re du
 G r
 br ing
 1 3
 comp an
 1 7
p ly
 D ep
 att empt
 N ational
 t aking
 B ar
W hen
O N
if y
ol ution
  :
v iron
 f oot
 C al
: //
 el se
 pre t
 b ody
 sp ace
el t
ro te
o ver
 prob ably
1 6
ic ult
. )
 fr ont
 c ou
 not hing
 I m
 s w
ashing ton
 con nect
c hes
 W orld
 rese arch
1 4
 Cl inton
 C ity
m ing
 com ing
 point s
 Is rael
 how ever
R E
 desc rib
 j o
g o
 sign ific
 sim ilar
y n
rem e
c ing
 ben ef
li er
 M an
 A ust
 im m
 dec ision
 e ither
ac es
A d
 c oun
a ult
S o
 m ass
 H ar
 s us
 t arg
ull y
 fe at
Th at
 con v
 ex ist
ir l
 en c
 201 3
 right s
 serv ice
 S u
as ing
s w
I S
 f ire
 d oc
 w rote
 f urther
 h ouse
ro du
 f ig
 ch all
 b an
w w
 th ird
m b
 w a
 cre ate
 st op
 f ield
n ow
 p ick
A N
a pe
ive ly
 me as
 re pl
 com pl
un g
 W ith
 iss ues
pp ing
 beg in
 su per
am er
 st ep
e al
ri ed
ent ly
 who le
 rel ations
 seem s
  )
 compan ies
pe cially
 d ue
 ex ec
 c and
 every thing
 f ederal
 E d
 G u
 st ates
 e y
 ro om
a ul
 tr a
 w atch
o on
 G e
 c ustom
 lead ers
1 3
u ation
 How ever
p ite
 J an
 W ashington
C h
l am
 se lf
 ro le
r an
il t
 s ound
 l ab
at t
he ad
 d am
iv il
 official s
 st ri
 201 2
 t re
id ay
ib ility
 rele ased
l u
 In st
 be gan
 D av
 A pp
 S outh
 o pt
ob al
 stud ents
 t reat
 fin al
 charac ter
 pos ition
 mat ter
� �
end er
 en er
l im
 out side
er y
se c
ad es
 d ou
viron ment
 develop ment
 state ment
 him self
 201 7
 ab ove
l ike
 st at
 in it
 bre ak
 1 00
 am ount
 prov ide
 hour s
 it self
 them selves
 off ice
 rep resent
 a ction
 P art
 d i
 bec ame
 19 8
 gener al
 contin ue
 count ries
 In tern
 ne g
 add ress
i od
 2 5
 g un
ac ed
as k
 tr ue
 spec ific
ograp h
um b
ar ter
re g
 l arg
 signific ant
l ish
 sim ply
 A ss
 R es
 was n
' ll
il i
 inter view
ace book
 g round
 r ad
o id
og n
 diff icult
 run ning
 J ust
 ev idence
 ad minist
B C
 c op
1 7
re am
 d rug
 vers ion
og le
 b ar
 ag ree
idd le
e ks
 build ing
 Ch ina
 need s
 prof ess
ang u
 group s
r ight
 ty p
 resp ons
 comm on
 show s
 every one
 d om
 d est
 re d
 need ed
 b all
 wom an
__ _
 G erman
 l at
 bel ow
 t em
l ight
ourn al
 mus ic
 ex c
 rele ase
if t
 in j
 pret ty
 A b
A R
rib ut
 M ed
 includ e
 sa w
 de ep
 a p
b ody
1 8
 play ed
 qu ite
 indust ry
 ch arg
 m ag
 ener gy
 play ing
 m ot
 5 0
 cand id
 s ense
 ph ys
 l ate
 al leg
 wh ite
 H is
e g
iv al
 friend s
 g en
 leg al
at ur
b o
 an im
is c
y le
 A fter
om m
H ow
A S
w here
 ab s
le v
 inst ead
 b illion
 l ost
 es pecially
 val ue
 M us
 W est
 h ost
os ing
or ing
 h om
 New s
t ime
ag er
 p le
ist ic
 we eks
ep end
 N ot
cc ording
 for ward
 det er
 e lection
 recent ly
 j ud
 tr ack
 su ff
 vot e
 T witter
 ob ject
ir t
l t
med i
 per iod
 chang es
 opp ortun
 Wh ite
 O ct
 l o
 long er
ar c
e ed
o ke
 e p
 p ain
iqu e
 so on
 s ite
  {
h od
ri pt
ac hed
 ac cept
 C ong
_ __
ir m
 sh oot
 econom ic
 hop e
 mom ent
 dec l
le ge
 cons um
 W ill
 p ie
 t it
 che ck
op h
o e
 pot ential
 bl ock
 M arch
o le
 wr ong
du ct
n ers
i j
 Se pt
d en
 Dep artment
 hig her
on se
 c red
 on line
 foc us
 2 4
 cons ider
ke y
 ed uc
anc ial
 M y
n s
id ing
 c irc
 wor ks
 rel ig
 sh are
 p arent
c ial
 he ld
2 5
 p red
 D r
 w alk
 we bs
ul arly
= =
 re ve
 l ed
le ar
 st ay
 The se
ove red
 st ru
al t
 Republic an
 ris k
 word s
 A ug
 re v
 so ld
 re view
ic ro
 cont ract
 result s
 serv ices
 law s
The y
 c ode
c il
 M ich
 w ind
 fun ction
 a ud
 c e
 Sy ri
p ut
a ut
 tot al
f ect
 art icle
 a ge
 app lic
 min utes
 person al
il ities
 any one
u ary
i ents
it ution
as ons
 J une
ate g
 pr im
ang er
 targ et
f er
 d en
 ear lier
u le
 fav or
 exp ress
h aps
 de ad
 an sw
 up d
e ch
 pop ular
c he
 comp ut
 St e
 v ol
pr il
 ne cess
h am
 h y
 r ate
E S
ag ing
 techn ology
ap an
 res pect
v al
 en vironment
 201 1
P h
 rece ived
 expect ed
 S m
end s
ud e
 go al
 cre ated
 b ase
 sur pr
 ant i
 P ar
 J uly
et er
te e
 proble ms
u el
 w ays
 p ort
ip le
act ion
 priv ate
 D o
 sc ient
 incre ase
r ay
re et
 announ ced
 com ment
is l
 can not
 eas y
A l
 sh ot
 Cong ress
 quest ions
b it
 for ce
 P e
ater ial
 imp act
her n
 e t
 M ond
pl es
 p ack
  +
 p ur
 F acebook
 l angu
at ives
 G od
 E n
 invol ved
om b
av ing
ill s
6 0
le x
h ood
on st
 Aust ral
 d iv
ues day
 exec ut
ct or
 mod el
it iz
 s en
 spe ak
 st aff
 ex act
 c ivil
e es
i res
 ne arly
 ty pe
our t
ok es
 orig inal
 c ases
 cont ent
 19 7
 relations hip
 ter ror
 Go ogle
T o
 le ave
 Fr iday
 resp onse
 cap t
 ins ide
  <
 ph ot
ll ed
 f ans
 A pril
 intern ational
 co ll
c ast
 he art
 a verage
 bro ad
 ar rest
 us ers
 C ount
 c al
A t
re l
 c ell
 w orth
 E m
 so ft
  ur
 l iving
b or
 R ed
 n ation
ip s
k y
 kill ed
 report s
 201 0
� �
 bec om
 sour ce
 Mond ay
 T uesday
 sub ject
 work ed
at ural
est s
 est ab
 im medi
E N
 resp ond
 gl obal
 ass oci
j oy
ell ig
 cl ub
op s
 Americ ans
a el
 ob s
it es
 P er
 P al
 ch ance
 o il
 A ct
 ab ility
 t akes
rough t
 we ap
he l
 pr ice
 J apan
olog ical
 direct or
iz ing
 work ers
 ter ms
 ro ad
m on
 publ ished
 de l
e xt
 Wh ile
 t ou
 ph one
r ain
 col lect
 fin ancial
 m id
os ition
 dec ided
is es
O R
 Russ ia
 S ome
 m other
 s qu
 W ed
 l ack
 def in
ove mber
 4 0
 g irl
 st ore
 g ave
 bu y
 inf lu
 Cal if
 l og
 happen ed
 requ ire
 N ow
 e mer
in o
 f em
" .
es e
 cap ital
cl us
 fore ign
 current ly
 O ff
b ased
 S an
 go es
 B y
ov ed
 Ge or
vert ise
 sit uation
 ind ic
 off er
 who se
  @
 t al
 m aterial
 l ives
un t
 aff ect
ro wn
ough t
he m
 pl ans
nes day
 ar ri
 b ur
 mem ber
 p ict
urs day
 F eb
 partic ip
ru ction
 rec ogn
 turn ed
 met hod
 ev ents
 Jan uary
 H ill
 net work
O ne
 team s
 S und
 b ank
 meet ing
4 0
re ct
 n orm
 int rodu
 sim ple
f ully
 A g
 Is lam
  ill
 h uge
 Sept ember
 reg ard
 are as
 c y
ord er
 C or
 T V
 M e
b l
 cou ple
 appro ach
a ur
 care er
 Af ric
 G l
l oad
" ,
 de li
ou d
 r ace
 perform ance
 p age
et y
ap t
 N ovember
 to ol
 Dav id
 f elt
 quick ly
 m is
 num bers
o or
 em ail
 E l
 2 1
a ily
 or d
ist an
 administ ration
 h on
 Wed nesday
 vict im
 P aul
 v ia
 impro ve
 eng ine
ch ie
 f re
 p ull
 A ng
 r ound
 bu ilt
 2 2
 p ers
 Europe an
 d ig
 Th ursday
 f ather
orn ia
 l oss
av y
 th ous
� �
 h ttp
ruct ure
 produ ction
 b oy
um e
l in
 he ard
d own
S h
 econom y
” .
 en joy
 Aug ust
 tr ade
 S ch
f ace
 webs ite
im ent
 sec ret
 co ver
 reve al
 w ide
 bo ard
 m atch
 C ourt
A L
 allow ed
 hand s
 sp ent
 tra vel
 l ower
 re pe
at ory
 po ll
 includ ed
ce mber
 st e
 Oct ober
 ne igh
 leg isl
or ters
us es
 beh av
ict ion
 kn ew
 te xt
 want s
 to wn
ight s
 Brit ish
 se par
en ces
es tern
 vis it
 Canad a
an ks
ct ions
W ith
 per fect
 get s
ess ion
 move ment
 are n
is hing
ra z
g round
age ment
 tri ed
 c ause
? ”
g est
  }
 for ces
 Sund ay
 en s
A fter
for ce
ce ed
 att ention
 partic ular
 b i
ur d
] [
 ve h
 b ud
 f ear
 pop ulation
en ed
 var ious
 U K
 re ach
 look s
 2 3
 Calif ornia
 b rought
 v o
 K ore
 l ink
ib ly
) ;
ar ily
 I S
2 00
 prev ious
E D
 m ention
 Russ ian
 mor ning
 Q u
c le
ide red
' d
 f air
 grow th
ak er
 S w
und red
9 9
se qu
y ond
 pro gress
 fe ll
all ed
 s ong
i am
en ing
 C ont
A C
 tr aining
f ield
h old
u k
 s ize
 Bl ack
c ies
 De cember
ident s
 cont act
led ge
 h or
 H er
 dem and
Wh ile
 im age
 r ac
 h ot
ific ation
O S
 lead er
s et
ec ause
 rul es
 pre p
 l iber
z e
 se arch
  ess
 P ost
 c itiz
 up on
 stru gg
 St reet
 lat est
c ome
ond on
 ind epend
U S
u ments
in ks
ar th
 feat ures
 co ach
 P ark
i ant
 f ast
T r
o o
sy ch
 talk ing
 J ew
om p
 add ition
g es
 st ar
 w ond
 Sen ate
I T
 P at
 spe ed
 ex am
 cons idered
ra q
ic les
ar ies
 re b
 level s
et h
 T imes
 Count y
ellig ence
 sl ow
 investig ation
b ed
p s
il le
 con duct
ap h
 Part y
2 2
 K ing
 med ical
 m ach
 s n
im ately
v ent
 a chie
 langu age
atur day
 c ard
un k
 s ort
 crit ic
op e
 T ex
 Cent er
 p en
 u nd
 Ind ia
 p aper
w o
ys is
I C
 200 8
p ir
 cons erv
 parent s
 sex ual
m a
 system s
 pri or
u it
as c
im in
 do ll
 writ ten
u f
 b ox
 sp okes
ig r
 see k
 s ens
e ared
he t
 doc ument
id ge
 incre asing
 he ar
an i
at form
 d raw
 se ven
 s on
 Mus lim
 eff ort
ru ary
 job s
 I ran
 ext reme
 prev ent
 lear n
in ing
 ser ious
 reg ul
r ast
 in n
 r ange
  ...
ro om
 viol ence
 e ight
 M ark
8 0
our ces
 I raq
it ch
O P
 sur ve
 complete ly
 con c
 200 9
e ff
 mess age
ic o
t r
h a
  �
 ob v
 interest ing
reed om
S he
 sc reen
ab or
 opportun ity
 cl imate
2 4
 major ity
 K e
an ced
 partic ularly
 dou b
 j ournal
 des pite
 R om
 claim s
f ort
 answ er
 Ch ar
 soc iety
 L ondon
 def ense
 car ry
ent ially
am ing
 gu y
 ext ra
ens ion
 Don ald
is ions
 attack s
 requ ired
er ve
ren ch
ill ed
 big gest
vertise ment
 E ast
 exact ly
 p aid
m p
 M ore
i ers
ib r
. ..
 exper ien
ly ing
uc lear
ines e
is i
 mod ern
 rem ain
 qu arter
 offic ers
et t
 h undred
 c ross
 ex cept
ut ions
ar i
 t able
 pract ice
in ally
 n atural
 m iddle
er c
 2 7
 certain ly
n a
 d ro
os es
 S aturday
 st ories
 N et
 hist or
 g as
 product s
 sur v
 look ed
 somet imes
n ces
 st uff
 r out
 sc ience
 fin ally
 us er
 T ur
A M
 sum mer
 mov ie
 bl ood
osp ital
av es
 commun ic
 a w
ous ly
 l ay
 chang ed
 ter m
 on es
 lead ing
 describ ed
 S and
 im ag
 Feb ruary
f l
 pr ison
 con vers
n y
 det ails
ic ks
 start ing
 S pe
 qu ality
 occ ur
 p an
h ib
 show ed
 n amed
 g iving
 u lt
 rem ains
 Mc C
u ing
 reg ion
pp er
 prov ided
 cost s
ak ers
 S oc
ar r
 dam age
 m ob
 d anger
 f it
augh t
 T H
 ch ief
 po or
 p ath
 M or
id a
 educ ation
 mult iple
 contin ued
en ge
 I nt
 grow ing
N o
 dem onst
  *
 part s
 2 6
 writ ing
 com ments
 2 8
 m ent
y l
 main tain
 saf e
 ass ist
 think ing
 D es
in ary
 Republic ans
 E ven
 pur p
 requ est
 wr ite
 f ix
 it em
 p urch
ab les
 d ied
 Democrat ic
 C oun
F L
ar a
ag o
 read y
co in
 would n
 imp lement
2 3
 incre ased
 cult ure
 eff orts
 vot ers
u x
p re
 c amer
 m ill
al y
op er
 read ing
mit ted
im inal
 f ile
 us ually
 call s
 sp ot
I m
 effect s
 G ener
z z
 per haps
b an
 al one
ar ian
il es
 F irst
 al though
 to wards
he st
 Le ague
 cons ist
 B ill
 Tex as
 se lect
 gu ys
 stand ard
 Mich ael
 sub st
 ce le
 be yond
 direct ly
 pl atform
 Ch inese
 ( @
 h ous
us ing
it ute
 spe ech
 real ity
e gr
ic ated
 k ids
 J ames
 av oid
 through out
 foot ball
 stud ent
 t ur
 could n
B I
f ord
 un f
 immedi ately
ou l
 ro b
 N e
 includ es
 c at
 con cept
 cent er
 cho ice
 sc ene
 comple x
an ch
 add itional
s p
 M on
 chall eng
 C ons
 w ife
 cl os
 t ro
 rec omm
 rese arc
R e
 ep is
it or
A ll
  ver
 Min ister
 s le
 cor por
 � �
 design ed
 S er
ag on
 rem ember
 soft ware
 saf ety
 Ind ian
w ise
 g one
  il
ast ic
port s
 c ast
 se ll
 to ward
 ag ency
 t en
 offic er
ac hes
b ur
 fig ure
 pie ce
 br ain
om en
 bat tle
 J ack
 coun ter
m en
 deb ate
air s
ress ion
st on
 thous ands
ad em
 s we
ru pt
 a head
 op in
ing in
ic ient
N ow
im um
 rel ative
ir th
 let ter
 rece ive
 press ure
 B o
  �
 bl og
il ies
amp ions
  >
 s il
 mov ed
 la unch
 appear s
 o ption
 Pl ay
 pass ed
  ut
 pre c
 st age
ro y
o es
 6 0
 cle an
 S erv
ol ute
 I I
ate ver
ber g
O T
 proper ty
2 7
 help ed
 dri ve
 App le
j ust
 alleg ed
 G reen
 tw e
n ew
 dis app
 t our
 mean ing
 ro ck
 do g
  x
ur t
it ation
 cr is
 Ass oci
 sus pect
 d ate
 R ich
augh ter
 mov ing
 sc ore
 Democrat s
 organ ization
 s at
 cond itions
 tou ch
 d ark
 comm and
 The n
  ign
? "
 re asons
 bud get
 c row
 p ark
m ore
 n uclear
 my self
 n om
 de g
 happ y
 dev ice
 differe nce
ri ef
 S im
 may be
 begin ning
A D
 cop y
 n ature
 fail ed
w ood
 f an
 charac ters
y an
 comput er
 enc our
s is
 a im
 M art
 tit le
 w all
 comp ared
 le ague
ock ed
 Su per
e an
iv ity
 est im
ad d
 V al
 St ar
 col lege
 ey es
 sh own
 Eng lish
 cent ury
 power ful
 D ay
le ase
our ce
 b al
ain t
 lim ited
 y es
 b and
 cont ribut
 pos itive
 for ced
 necess ary
 C he
 ref er
 candid ate
 st ra
 dis p
3 5
ci ent
 book s
 tr ust
A P
 F rench
 larg est
2 6
 ar ch
ent y
 s al
 H ere
a ud
 conf erence
 R ober
 not e
 anal ysis
uf act
 sp ending
 president ial
4 5
 O f
 citiz ens
or ks
 school s
ig ration
 Syri a
 th row
 B en
ven ue
 a ware
 me ant
 execut ive
 event ually
M y
 phys ical
 follow ed
 fe ature
a res
 f irm
 treat ment
 T or
 W ind
 stre ng
 m ix
 conf ir
 b ott
er o
 cor rect
or ney
 2 9
 D is
 gr ad
 relig ious
 eas ily
b and
 aut om
 es c
 p us
bo ard
 co ol
et ro
 19 6
 fam ilies
 il leg
ress ed
c raft
c ul
r ated
 act ions
 over all
 A ir
 M ex
 allow s
 g ives
 fe ed
 � �
) :
 sus p
ub e
 your self
B y
I s
 d raft
k en
b um
 sm art
 app eared
r am
 det ail
 inc ome
ir ing
 anal y
 B el
 sign ed
N ew
en cies
 H am
 cent ral
 ide as
 an g
 Go vern
 sen ior
Ad vertisement
 fre qu
 weap ons
I D
 dis play
 h ar
 prom ot
 n ice
in n
 cred it
 dec ades
 p sych
 polit ics
D on
 B re
 cr ime
O M
E C
ch an
 us es
 do or
 dis e
ut y
 Intern ational
 un ique
2 8
 al tern
 l if
A ccording
 d rop
 s ales
m ar
 develop ed
** *
res h
 custom ers
E T
 benef its
 conf lic
ur ance
A r
 rel ated
 cris is
 S chool
 m ist
er ry
i able
 pred ict
 not ed
 C ap
2 9
 Austral ia
 E U
b ox
 tr uth
p art
 go als
in y
 individual s
 ch arge
 E arth
 be aut
 contin ues
on ents
 Un ion
 Ar ab
 obs erv
 r ap
 chall enge
qu e
 st o
n own
 app arent
 Ang el
ite ly
 Sm ith
B e
 l ic
 project s
 pe ace
 meas ure
 Pol ice
ot i
 int elligence
 Christ ian
 prev iously
 German y
 full y
 r ule
 man ager
 bro ther
 r ates
 adv ant
ch ange
 exp and
 cle arly
 re form
n et
 l ines
 success ful
ri age
 high ly
 larg er
ound s
U n
 tr aff
 sp read
i ance
 seem ed
 Coun cil
 stra ight
S ome
 cr iminal
 Com p
 min or
 em b
 Geor ge
 program s
ic ed
at tle
ow ers
 Fr anc
 inc ident
 res ources
2 1
 T om
 great er
 prim ary
I A
in ated
ant ly
 know ledge
P ro
 stud ies
wh ile
d om
 sa ve
or ter
 we b
ate gy
 ke pt
 att ract
k i
 Fl or
ol ic
 sp ir
 em ot
 col or
 fe et
se y
 r are
 re ached
 ar m
 A nt
sec ut
 H igh
lev ision
 Intern et
 Bro wn
od ay
id ers
os h
 favor ite
 C r
 pl aces
 R ec
r s
 reg ular
w ide
ot a
ve re
b on
 man ufact
 la un
 D ef
1 00
 s end
ter m
 pre m
ro ll
lic k
ic it
ing ly
 know s
 shoot ing
 activ ity
 p un
 sour ces
 norm al
ic ago
on ent
s er
 stat us
 fight ing
v ille
 vo ice
 r ise
oc ks
 f ine
 own ers
 ca used
 claim ed
 M ac
 en em
 lit er
 R ob
 U p
 Gener al
a ith
E O
 opt ions
 200 7
 int egr
eng th
us ion
 sp end
 G old
ad o
 c ities
m iss
 organ iz
IN G
 end ed
ww w
 researc hers
il ed
 call ing
 sh ut
 ref lect
 L a
or g
m ission
m ark
” ,
ol es
7 0
ro id
 pr ices
 E very
 al bum
 F rom
if ying
 employ ees
 fem ale
 Eng land
y a
 v irt
 crow d
 ha ven
 ra ised
mit tee
 e le
u ana
 j ump
3 3
 supp osed
it ness
 happ ens
 add ing
 polic ies
 n ames
 charg es
 pro s
 tr ou
ic a
rib ution
 bas ic
um an
N ot
iver se
ing er
 M ag
 concer ns
 trad itional
 wa it
 pl ant
 abs olute
 ac qu
 h ospital
 fund ing
 B ay
 pr int
 sl ight
ro l
 com mer
 pat ients
 author ities
 min ister
S c
 creat ing
 f reedom
 A P
 me chan
 sc en
 M o
 st yle
 see ing
 gr and
. ’
 be at
 l ik
d d
on a
ri an
 st ation
 Sc ott
se e
 p ush
ij uana
 behav ior
 le aving
 c ry
 im pl
 b irth
  ir
 act ual
E L
p en
 ens ure
 off ered
 agree ment
 Flor ida
 e th
so ft
 Hill ary
 post ed
 Re g
 go ld
 S un
 B er
 week end
 g reen
 M ost
 ad ult
al se
 we ight
O U
. '
ac ing
 deter min
 v ac
H ere
 reveal ed
 We ll
 applic ation
 most ly
 val ues
 prop os
it ude
 A lex
ab y
 will ing
ear ch
 r ank
 ad op
 A ccording
 estab l
 ey e
 record s
am b
ect ion
� �
5 00
 en force
h ttp
 pict ure
 belie ved
p ri
 m er
u ild
 b rief
 L et
 lear ned
 L aw
 inst all
 str ategy
 app l
ign ed
 cho ose
ist ry
g en
S A
 d ire
 wond er
 qu al
 mass ive
 dev ices
 benef it
 w ild
 part ies
 Ch icago
 law y
 Pe ople
 un s
c her
 c ars
 Tr ans
 P ort
c ont
 Ph il
 arrest ed
 m ount
 wh atever
 w at
 O h
 Fr ance
 stre et
  ;
 prov ides
 wh om
 ass ault
9 0
li ament
 ask ing
 influ ence
t ies
 jud ge
 l ose
 f at
 feel ing
 oper ations
 produ ced
 tem per
st e
 crit ical
 L ou
 Sec ret
 neg oti
p oint
 m ission
 ent er
 B ush
E x
 im ages
� �
 St ud
 confir med
 show ing
I L
 dist rict
ri ption
 run s
 pat tern
 t end
 M at
== =
 b order
 res idents
or ial
ra v
 deb t
How ever
  �
ak ed
 c ru
 te ac
 Com mittee
m ine
C l
 opp osition
 cele br
 W all
 He alth
 se ction
 def end
 et c
est ic
 produ ce
ic ial
 Comm ission
 dr ink
 independ ent
 M od
r ont
ce ll
 Wh y
 br and
ent ed
u gg
ag s
 c ore
 P ress
 t ick
 dig ital
 B it
 he ro
 adv oc
 doll ars
a e
 S am
oc r
ri al
 effect ive
 sol ution
 M al
 v ill
 interest ed
 Kore a
 hig hest
B A
ir g
ord s
 mem ory
 open ing
 wor se
 lear ning
 respons ible
 tri al
 d aily
 k ick
 the ory
 O ther
 off ers
 Pal est
m e
 repl ace
 rest rict
 m ur
 G et
 Off ice
 ag reed
 te levision
 Franc is
ci ence
 M icro
 B ecause
 occ as
S T
ill ing
C C
 tr ain
 invest ment
 v s
 typ es
i ation
 W estern
ic ians
 ch air
ak s
 mil es
 mill ions
n o
g ency
 che m
 Just ice
 D el
 gener ally
 bas is
 prop osed
 8 0
 M ike
 M il
 C up
The se
i pe
 he avy
 expl ained
 O ur
 m ap
ur ies
A A
r ad
 d er
o ly
 part ners
and er
 opin ion
 def e
 on to
 prot est
C on
G et
 associ ated
 l oad
r ig
az ing
 N FL
r ate
o om
4 4
w in
 F ound
 m ale
 becom es
 re ject
out hern
= ==
 Sec urity
v est
 co al
 ob tain
 dest roy
 advant age
 ass um
 L iber
 cond ition
 announ ce
 hundred s
 achie ve
 open ed
el ine
 understand ing
od es
 John son
com ing
ic ip
 sur round
ad ing
ber t
ort hern
we ll
u pp
 init ial
 A tt
 B ig
 sle ep
3 6
 sh ip
 mar riage
 man agement
 Wind ows
 th us
 lim it
 b orn
 becom ing
k nown
 ph oto
 eas ier
F C
 G reat
 r at
 legisl ation
 contro vers
 un like
 elect ric
 M any
3 2
 camer a
 M ad
wit ch
 acc used
 s pl
 neigh bor
 dou ble
  ice
 spec ies
 sh ared
l ant
 jo in
 illeg al
 3 1
 L ab
 200 6
M r
 h arm
 mach ine
 serv ed
 J er
G B
 extreme ly
ol f
 act ive
 3 5
 ser ve
 doc uments
 Islam ic
 fr ame
 stri k
le vel
z a
 D ist
 aud ience
B S
 loc ation
 A M
 scient ists
 bott om
or row
 victim s
 Ar t
 we alth
 profess ional
 res ist
 redu ce
 belie f
 n ine
 sol id
 win ning
 mar ijuana
ear s
 U k
 neg ative
7 5
if ul
i h
 commun ities
 return ed
ortun ately
 inc red
 P M
 Inst itute
m et
te red
 ch urch
P S
 dep artment
 Sand ers
 r an
 vict ory
re y
 purp ose
 9 0
 Comm un
 am b
land s
 veh icle
 intern et
 leaders hip
 H all
ist ics
 b omb
i os
 mob ile
gh an
 inst ance
i pped
3 8
 separ ate
 exist ing
 not ice
 he aring
 d ie
 expl ain
 doub t
 f aith
 te ach
h ouse
 Y our
at ically
 epis ode
 b ed
 watch ing
 com fort
 Canad ian
 B ank
 not es
 rad io
irg in
 E v
 f resh
 un c
 view s
 In c
 put ting
as y
 S l
 F in
 supp orters
 conserv ative
 p urs
 arg ument
om as
 m icro
ar io
ac ity
 laun ched
sc rib
w orks
O L
 app eal
ili ar
 item s
 commit tee
res p
wh ich
 defin itely
ad a
 danger ous
ill er
z en
 co verage
 dire ction
 O ver
 charg ed
 fl oor
 s un
P A
 m ax
ograph y
3 4
E M
 Car ol
 Ch urch
 F ox
 iss ued
 drug s
Im age
 t ask
i pp
 back ground
 compet ition
 tre nd
 st ated
v ention
and om
 traff ic
 F BI
 commer cial
 D irect
it t
 sp oke
 set t
in ct
 trans fer
 suggest ed
 st ructure
 sit es
 h us
 n orth
 S ince
 L ike
 rest aur
ampions hip
 lab or
 dec ade
 B ur
 repe ated
 G ame
 re act
om an
 c ards
 anim als
go ing
 no vel
ct ors
b ing
b ut
N A
rib ute
 d aughter
ant ed
 dri ving
 cl osed
 wor st
 cont ain
 entire ly
 d ed
 Brit ain
ic i
B l
ad y
 dri ver
 W il
 dise ase
 tell ing
il ing
 small er
 disc overed
 n or
ak istan
 ref ere
 P ri
A meric
 L os
 h ack
e qu
! ”
f erence
 Q ue
s pe
 f alse
 c ash
 concer ned
ul f
 pl ays
 sur face
se mb
ud d
 support ed
ann el
ul ated
 tool s
oy al
 comp ar
 trans port
 Ch ris
 exper iment
 find ing
n ight
 c ateg
� �
a it
 as pect
# #
 business es
 7 0
 U N
 far m
 ple ase
 old er
az on
h ow
 activ ities
 requ ires
ph one
C H
 g ay
 J ones
ibr ary
 streng th
4 8
 we l
d o
and on
 ins urance
 con sequ
3 7
 large ly
 mur der
N N
5 5
 ex erc
 c aught
 candid ates
k ins
 Israel i
 allow ing
ic y
 bl ue
 A re
 ann ual
 K en
 test ing
i us
oss ible
 str ateg
 S up
 ra ise
 st ock
ar ant
o very
 Rober t
iz es
g ers
 dec isions
 acc ur
r ick
 cont ext
 f uel
 A c
S P
os ure
l or
 Uk rain
 concer n
 aff ord
 belie ves
 const ruction
 tr uly
* **
 T y
 M iss
 g e
 just ice
igr ants
 gener ation
 high light
r im
 T re
 un it
 pres ence
 Jew ish
ang ing
! !
 S il
� �
ter y
� �
cept ion
 Afric a
 gu ess
an cy
 w itness
it able
 hold ing
e y
 G ree
 estab lish
 l ength
 plan ning
b re
av a
 Afric an
 se qu
ck now
 ref uge
 pl aced
 c atch
 Af ghan
 s an
 Associ ation
 tell s
� �
in ter
 sc ale
 spokes man
 t im
n el
 r ough
 att end
oll y
 V er
 cell s
 jo ined
 Ad d
 mention ed
 interest s
 ab use
— �
pect ive
 J im
 P re
M ore
 has n
 P C
L e
 init i
 k id
 enforce ment
 G OP
 introdu ced
 deli ver
 conflic t
 M er
 Micro soft
� —
 ph il
 upd ate
 miss ing
 prov iding
 wa iting
 can cer
l a
3 9
 recomm end
ocr acy
 establ ished
b our
is ation
 e at
 Y es
 occ up
 Fr ank
 J eff
 Angel es
 rem oved
 200 5
ul a
 off ensive
 F ore
 Inst ead
ic on
 inj ury
 sp orts
4 7
 f ant
 discuss ion
v ant
 oper ation
 down load
 use ful
 news p
 convers ation
 hom es
ron ic
 s outh
 c ook
 C EO
 ass ess
it z
 G roup
form ation
l ig
 ban ks
ont o
 sto pped
 St ep
 Con st
 obv ious
ic ations
 meas ures
 mod els
 K h
 four th
 M P
O ur
se ason
wh at
 b ul
D A
 201 8
and a
 fil es
 girl s
 Lou is
 st ick
c ks
az ine
m ail
um n
 man aged
it er
app ed
ot ed
 fig ures
om s
 T im
 Le g
 ident ified
 gr aph
0 00
 J ud
 S al
 fin ished
P l
 fund s
 P akistan
re al
 set ting
 conc lud
 pre fer
 ha ir
 commit ted
 Mex ico
4 9
 sk ills
 appro pri
 spir it
 R ock
 ve ter
 foc used
 arri ved
 TH E
 hous ing
 keep ing
 there fore
ro s
 a cknow
 det ect
ul ate
D es
 part ner
 ex clus
ig an
 And roid
ens es
r d
up s
 ear th
 trans l
pl ace
 t ough
k in
out s
 Japan ese
 2 000
 relative ly
� �
 Sup reme
ow l
w ing
 ident ity
 feel s
g l
 M et
 other wise
 surve y
 R yan
oc al
R A
ic ation
itution al
 protect ion
 ex change
 own er
 V irgin
is f
Tr ump
 tri p
 step s
 hus band
 In ter
ag n
 M ont
 twe et
 connect ion
 Ar my
 slight ly
 Pro f
e ah
 S ur
 we ak
 Govern ment
ver se
" :
 circ um
 ele ments
 cl ick
 Rich ard
 stri ke
 phot os
 me re
 def ensive
d den
 g ain
 f le
 dep end
uck y
 col lection
g ar
ony m
 kill ing
 ro ll
igh ter
hen s
G o
 cor ner
k a
anc ing
od ies
 suggest s
u ct
 ag gress
w ith
pro f
 gu ard
Ph oto
 g ender
m akers
 Col lege
 comm ission
 Al though
r ange
 d at
4 6
 I r
 D ec
 ment al
ic ide
re es
 am azing
 S ub
h i
 plan et
 Te am
ren cy
 O ut
 big ger
y m
 fail ure
 J ose
 supp ly
Wh y
an ia
 N or
 start s
 s ides
hed ul
is er
 fam iliar
 rem ind
 su st
 spe ct
il s
u ate
 spe aking
an o
 tal ks
 happen ing
gy pt
 organiz ations
 h ate
 wind ow
 ar my
 G ood
 J oe
 n one
u ke
 tax es
 plan ned
 Mart in
 P et
 than ks
 M ary
 st ruct
 p it
 dec ide
 su dden
 w ish
 cre w
 car ried
 app oint
ost on
 p et
m as
a wn
el ess
ag ues
yn am
 reg ist
T C
 mult i
id ering
 help ing
L ast
 a ward
 stand ards
 3 2
 F ire
 rev olution
 environment al
] .
 We b
ars h
 Th omas
ol it
 sc ript
p m
ol a
 second s
r un
 Res earch
g n
 scient ific
 imm igration
 B ern
 stand ing
 The ir
 4 5
st ream
oc ol
 qu e
 be er
 dom estic
im al
ad ium
 p air
ut ers
 Al so
 Secret ary
 U s
 ac adem
 co ld
 var iety
 mark ets
a ven
 s ch
H L
 ter rit
 dro pped
f e
 account s
! "
 At lant
 fil ed
er ous
ack s
ill a
 bal ance
l o
 imp ossible
 T er
 inter act
 neighbor hood
 deg ree
R ead
 turn s
it ect
 poss ibly
 app re
 oper ating
 pr inc
 altern ative
 un ion
 vot es
 v ul
ad er
 profess or
 t ack
 Serv ice
 increasing ly
ay er
ru it
 app ly
 fell ow
 cut s
ore s
 hon est
 Pr ime
 un ivers
 ser ver
 develop ers
ar ks
 Syri an
 apparent ly
v is
ste in
 l ived
 chang ing
 wor ry
rast ructure
 Carol ina
 test s
 un its
 r ich
 T wo
are n
c ious
ict ed
F rom
ad ed
 hum ans
I M
 Found ation
 M os
 ag encies
 sound s
as hed
 tw ice
 ult imately
ob by
 l osing
 phil os
 author ity
 sold iers
� �
 anim al
 Im ages
 set tle
 at h
 sc hedul
 m ut
 col le
 corpor ate
 absolute ly
 health y
 pay ing
o ch
 equ ip
i ams
g u
 develop ing
 se a
 T ime
 D en
 clos er
 inn ov
rel ated
 seek ing
 regard ing
c oh
 sk in
 exp ensive
ans ion
 poss ibility
 beaut iful
 relig ion
 ap art
 Cent ral
 fund ament
 exper ts
 sol ar
6 5
 y ards
 v ast
 writ er
 fl ight
 Dist rict
 L ast
 de ploy
 ad just
O f
 intern al
 t ast
 U nder
 L at
 P eter
ap ers
 imag ine
 J on
I V
 applic ations
olog ies
3 1
 v ision
l ook
st ate
os en
 Francis co
i ot
 Tor onto
 sit ting
 Pl an
 tr ail
 un less
 US A
 J es
ist ed
 he at
 200 4
I P
E ven
 respons ibility
 cap acity
at ures
 M iddle
 er ror
ain e
 sy mb
 f ol
p ire
 ar ms
 p il
 g ar
 c overed
idd en
i as
 fam ous
 C amp
 for ms
u zz
N D
 un iversity
 gu arant
 t ight
 present ed
ort ion
ov ing
en ced
 S T
 cl im
 E gypt
 ear n
 P ut
 conv ention
u nder
J ust
 P ublic
 surpr ise
 att orney
 elect ions
 estim ated
 f if
 M ur
 A ri
 te en
 inst it
 veh icles
rib le
 Am azon
ro ad
 int ended
 r id
 o dd
 help s
 occur red
p erson
al a
 stre ets
ust er
h and
 B oston
 S ol
 = >
rou d
 sp ort
= "
s en
 deter mine
ress ive
 Bit coin
 exper t
 sc hem
all s
 cons ult
ur ation
 bro ken
L et
le ts
 f ired
 t on
 fl ow
 dom in
por ary
ed er
L E
 sh all
 res erv
U p
 tro ops
I ON
 Th ose
 hy p
 n ar
ter day
 pie ces
 Ch ief
 prep ared
 M ass
 C ath
 rap id
or age
 J o
 loc ated
 Soc ial
 b aby
 con clus
 bring ing
anc he
 Pro t
 pro ve
 specific ally
 An y
 pot entially
 se ctor
 r andom
 j ail
O W
 se lling
 govern ments
 O nce
 equ al
A b
cl ass
w ar
 f aster
 he av
 S pr
 bo ost
use um
ve y
 propos al
ot y
 fact ors
 cl in
 G al
 pl enty
T H
 equip ment
 coun cil
 er a
 inf rastructure
D o
 st ress
ph as
 st ars
 J ournal
 R ub
end ment
 Virgin ia
 b reat
 pro secut
 vot ed
 off ering
 car bon
in ent
 express ed
 vul ner
 comb at
 bro ke
( )
ure au
 cl ot
 C ur
our s
 F ederal
 rul ing
 ret ail
 Gu ard
 ref used
 dr am
 elect ed
an ish
 O pen
 R iver
E very
 sec ure
ce an
 se asons
 conduct ed
, '
 Par is
h t
 challeng es
 rem ove
is her
 S ant
ro g
 method s
 weap on
n oon
 point ed
 Is land
 m aster
 rem ained
 Austral ian
 pr ime
EN T
 tr ig
 pos itions
 C ru
 d in
 M el
 critic ism
i pping
F irst
ock ing
 Med ic
 P lease
on om
I G
 s ale
ol ved
 F e
 cult ural
th at
 were n
 significant ly
 b row
et ic
 orig inally
ri e
 D uring
 affect ed
 appear ance
 c as
 t ourn
 fac ing
 great est
 fin ish
 Le e
 st ret
 you th
y r
 te le
 Wh o
 percent age
 Ph oto
c ol
 determin ed
 sign s
 invol ve
9 5
ce l
� �
 than k
 b ought
 5 00
ly n
stand ing
 chem ical
ash ion
6 4
 sh ape
 S ing
 reg ime
 g rew
p ired
 rem aining
 Ste ve
ly mp
 min imum
 S aud
re ens
 ind eed
 d ream
ri er
S ince
 m arg
S p
 B oth
> >
 mod e
 her self
 vot ing
 Col or
 obv iously
 For ce
 R o
 redu ced
 N ov
 w ood
 R em
ord in
 record ed
 arg ued
 199 0
 re venue
 t act
 we aring
al ing
igh ters
 lead s
ed ia
 h un
 polit icians
 pl us
 cont rast
 s witch
 hand le
 purch ase
 th r
 sub s
 con cent
 pro ced
� �
 ag ent
h ab
ar p
m m
 Will iams
 appre ci
 experien ced
 h urt
t op
 exc ited
 vide os
 http s
coh ol
 support ing
D P
 H aw
ow nt
 v ir
 F ree
 surpr ising
 min ute
 expl os
 bel ong
 consum ers
 ident ify
 cons idering
 P ac
 Cons erv
ll er
ap ter
 air craft
 re nt
 a id
C L
 pull ed
g ment
 bas ically
 differe nces
og ue
 B ook
 gl ass
 R ad
 after noon
 sh ift
 dis s
 dep art
 end s
ess ions
 tur ning
 b ound
 fil ms
 sp ring
 pros pect
ru ption
k et
 Char l
 m ort
l ife
 tre ated
 acc ident
, [
 mot iv
 list en
 se at
 P ower
 comb ined
 const ruct
I nd
 ser iously
 priv acy
app ing
 even ing
he red
h y
 opportun ities
as p
 strugg le
 19 5
 pan el
 enem y
 lot s
 comple ted
 D aily
 vis ual
H is
Ph one
p et
 talk ed
 c art
 hop es
ut s
 pass ing
or al
  id
 app s
os ite
0 5
g ent
P D
 cal cul
An other
 wide ly
ens ions
 emer gency
 H ol
am m
 Sh ow
 su it
 e lement
 a st
ang ed
S S
uc ks
al ed
 p owers
at o
 R el
 B BC
 O lymp
 b urn
T V
 disc l
P e
 pl ants
 fl at
 Sp ace
 liber al
ra ud
ob e
 opp osed
 s ad
W ell
 pro ceed
om pl
 copy right
 Pro ject
ok ing
 adv ance
 fact or
 dist ance
 200 3
ive red
 dis miss
pl om
 attempt s
 t un
 M att
A m
 R oad
ab ilities
st s
 I N
ribut ed
 trou ble
un ction
 h ol
 coll abor
 def ault
id el
 B et
 z one
 Jack son
 up gr
it a
ra wn
C ont
 re action
 st orm
 rep orters
 M em
 fr ust
P R
ne ll
 writ es
ad ow
m osp
m ond
ain ts
 typ ically
 T oday
l ines
resp ond
U T
 p ages
 inst ruct
in ian
tern al
ed s
 ref erence
 gr ab
z er
 pack age
 b odies
 mat ters
f ree
0 1
 den ied
c are
A pp
 qu ant
 disapp oint
 se m
 expl o
 N AS
 opt im
ac he
 qu iet
 ent ertain
 respond ed
 appro ved
 Tur key
 sat isf
ap ed
 broad cast
es ters
 instit utions
 ad vert
4 2
 stand s
 Direct or
 set s
est ival
 el imin
raz y
g a
� �
R ep
h ost
 val id
 re new
 Oh io
ell y
 spl it
 se vere
 Will iam
 s ac
 cap able
 P enn
 200 1
  //
 p itch
ani el
 capt ion
 l oved
 techn ical
 g iant
p ass
 trad ition
is ters
 can n
r ant
 prom pt
 b ull
 conf ident
u ous
 conf idence
r um
ab in
 num erous
 reported ly
 M a
 fac es
] ,
w rit
 we ather
 f ly
r id
 trans ition
 3 6
 Sy stem
 Afghan istan
 S qu
 cre ation
D e
 pers pective
 un able
 for get
 Lab our
 Y et
as tern
em ploy
ok en
 Med ia
ang ers
I I
un te
 c raft
 subst ant
 co oper
 viol ent
 suff ered
il it
 co ast
 m and
amp ion
4 3
 pict ures
 experien ces
 appro x
ab led
 rout e
8 8
se x
 fl ag
 adv ice
 And rew
us iness
 decl ared
 ord ered
 H uman
raz il
 cr imes
 co ff
S e
 p roud
is hes
 report ing
 mess ages
 circum st
 find ings
R es
ul ations
 ev al
 ex cell
O ver
 decl ined
 expl ains
 L in
 W al
 del ay
  \
 F ollow
 newsp aper
ound ed
 connect ed
il ty
 should n
 m al
ev in
ov es
 on going
c an
 cl oud
du le
 mov ies
 pick ed
ion ally
res ents
7 7
 ad mitted
 g ra
 del ivered
D uring
 gun s
 M L
 Sc ot
 walk ing
 ag ents
c alled
t ion
 pr in
 edit or
 though ts
 mar ried
 T ra
 a uth
 em ails
 appropri ate
ed d
 em phas
 R od
u ations
 ed ge
 arch itect
 Gr and
 le aves
 upd ates
 acc ompl
O D
 g ather
 for g
 Muslim s
ans as
 W ood
 quarter back
 s ession
o oth
 po ol
 Te chn
 S cience
c os
 inj ured
 public ly
ell ow
 S ov
 state ments
ar n
 per man
ar l
 leg it
 conf irm
ner gy
 L ake
 our selves
O ther
 real ize
 ro t
 dri vers
M A
 A v
 D ou
m ates
, ’
 ar med
ess or
 d ial
c ons
T A
 lawy er
our ney
 r ail
 read ers
re land
 cont ains
 arg ue
 Re v
 tal ent
 f illed
 S um
 alleg ations
 activ ists
 Christ mas
 d ynam
 198 0
 Mich igan
d ate
 B ack
 R on
 cr ack
 trans form
T ube
 Re ad
 I ll
 build ings
l ong
 we ar
M any
 s am
 terror ist
 t ree
 exerc ise
end a
 lab el
 effect ively
O h
 pract ices
 g od
 sub sequ
 J ul
 S her
 fl o
ul s
 f ish
T S
et te
ent ure
 sh op
 exam ples
4 1
 H y
 pat ient
 G en
 Se attle
 object s
 te ch
 Se e
 secret ary
g ia
as ure
 r ain
ur ning
 miss ed
 ca uses
ill y
 deb ut
 ess entially
6 6
 mor al
ord ers
ad or
w ord
ac ter
 W ork
d ef
ar ters
 Ukrain e
 cent re
am in
he dule
F ollow
 V ict
 I D
 inj uries
ic ing
 Ph ot
 St an
 mot or
 i Phone
 art ist
 cl ient
 b ond
 th inks
i at
az a
or se
ou ston
 p ure
 he ll
Al though
 Saud i
 fact s
� �
 des ire
ag ers
 s ke
or ry
 link ed
� �
 govern or
 material s
 perform ed
S pe
 fr anch
es ome
n an
 su c
 philos oph
 init ially
 S ign
 necess arily
 K im
 B at
 F er
 exp ansion
 schedul ed
w ater
ER S
 war ned
i est
 di plom
 adv anced
 expl an
  ing
 var i
 every body
 j oint
 dec re
 res olution
 incre ases
en ger
Y es
 accept ed
 inc or
 my ster
 fac ed
 v an
 b are
ill ance
 M ount
 announce ment
 follow s
 n ations
 play off
 L ife
 ab andon
 Sec ond
 I d
 rad ical
 ath let
 ne ither
 yes terday
 dat ab
 near by
 dist ribution
ot ic
 appl ied
ir ty
 mag azine
M ost
ath an
r ich
 m ir
 consequ ences
 do ctor
u y
 list ed
 for t
 Col umb
 at mosp
Americ an
 surpr ised
 off ense
Q u
it ors
 C NN
 R E
 sp ons
 beg ins
 We ek
 threat s
semb ly
 rep resents
 Jew s
 G M
 A ff
 en h
 mov es
 rem ark
 T O
 song s
 p ra
k ay
 ch art
 behav i
 D an
 r ide
 add s
 with d
C an
� �
 impro ved
 p hen
 Bl ue
 b ot
 war m
 a f
 al cohol
ri p
 A T
 out put
l aw
 fl ood
 De velop
 H en
w hel
ed y
 sh ots
 f ill
 V ol
 al t
 st ood
 br ings
 pus hed
 gu ilty
 Rom ney
 sub scrib
8 5
 ent ry
ocrat ic
 B razil
 dem ocracy
 boy s
bur g
 3 3
 ro w
 conf ig
 restaur ant
 N BA
 laws uit
 De v
 I reland
ac le
 manufact ure
 rece iving
 re in
 Bar ack
The n
 t rib
 tot ally
 On ly
 discuss ed
 s ought
 r ising
 ent ered
 IS IS
 Bo ard
 3 00
 consist ent
 histor ical
t witter
ide o
 st orage
 cor respond
 plan e
 comb ination
 sc ored
 in put
 symb ol
 br ight
 but ton
ird s
 suc ceed
st ood
 creat ive
 invest ors
 squ are
 art icles
 200 2
 is land
 death s
 sc r
 fun ctions
 net works
 class es
 unlike ly
al ty
 P rem
 head s
 b oss
ic ian
 n ative
ic ious
 l ie
 sa v
 L ib
 rough ly
 consum er
 St r
 W he
 W alk
f ortunately
 M s
 str ing
 May be
 heav ily
 An other
 fair ly
 temper ature
ard en
 k it
 exist ence
 It s
 As ia
 cont est
 pl ot
iss ions
 C ub
 res ident
us al
 targ ets
 B ob
 res c
 Kore an
ic an
du c
 l ock
 young er
 colle agues
' ,
 Sw ed
P U
ab b
 l ibrary
� �
 r ally
 par liament
 prot ests
 any where
ok ed
 S ports
 S ky
 b ike
z ona
 bre aking
 sy m
 store s
 express ion
 was te
 ch ain
 bl ow
 war ning
 import ance
 def ined
 bu ying
 man age
 pro hib
i i
 class ic
 c ere
 s now
 adult s
 ill ust
 E ach
S ee
O b
 market ing
 l inks
� �
b orn
 sh if
iqu es
and al
 Cl ub
 to w
 H ist
 f raud
O C
d is
 fac ility
olly wood
ere nces
 hard ware
 sch ol
 alleged ly
 3 7
 regul ations
p ret
 do ctors
 b on
 Color ado
 cur rency
 house hold
 repl aced
 ess ential
 R am
ag an
M an
 em pt
op y
on na
 some what
 D iv
p ress
8 6
 n av
p ower
 fav our
 prom ise
 D C
 B oy
 l augh
P ol
 R ights
en a
 hold s
 opp osite
ock et
 to m
� �
 mom ents
w est
 h at
ter ing
 opp onent
 bu g
 F ar
ch o
 camp us
 act s
 r um
etro it
 vers ions
 mot ion
 met al
hip s
 ev olution
omet imes
 v ice
 rele vant
 se es
 Im age
 b ag
 indust rial
 z ero
I R
 s ick
 d ownt
om a
 close ly
het ic
 emot ional
c hen
g ame
I F
 You Tube
 Y ear
 few er
 div ision
ol ve
 ad m
v a
 hard er
 custom er
 hop ing
olog ist
 Bro ok
Don ald
 Val ley
E n
 h ur
 mechan ism
it tle
in em
 G ra
 H ouston
m l
 E lect
 return s
N C
ate ll
 vol unte
 particip ants
 ext ent
 int ention
es c
al ian
el lect
 excell ent
 Sov iet
 acknow led
 sy n
ul ous
om ing
 M ot
 bat t
 G ames
 squ ad
 circumst ances
p an
 f ashion
 is ol
� �
ot al
g reg
 immedi ate
 E ric
 suff ering
 W atch
st r
 l ies
 t iny
 auth ors
 3 8
 g rown
ig er
 G ar
or a
p o
ef ully
 imm igrants
� �
pr int
 kind s
ut ch
 4 9
 D ie
 che ap
 m ine
 detail ed
 H el
ord an
n ame
 feat ured
ik i
ay ers
 me at
 S ar
 un us
 A ut
 I P
 compet itive
 describ e
 for med
 H ome
n ic
f riend
cer tain
 carry ing
 tourn ament
 tr ick
n am
 relationship s
 fundament al
ke l
 w ave
 cy cle
 c razy
 C y
 sign ing
 W ay
 ter min
 gu ide
 w ins
 Cath olic
 ear ned
 dec line
 reg ional
ens us
st yle
 em br
 str ange
 Palest inian
 Jes us
 An n
b ar
 L ong
 an cient
 frequ ently
 act ing
 Put in
 man ner
 eff icient
rom e
 pus hing
 C IA
 comfort able
 C ard
 p ip
 E r
O RE
P er
 sh aring
 w ire
 sk ill
 E conom
oc key
c hers
 inst ru
 E ll
 own ed
aw a
 commit ment
 along side
 O F
u ated
 L ord
an es
 Dav is
r ison
 controvers ial
 art ists
 refer red
we ight
 e gg
 m outh
 repeated ly
0 6
 4 8
 T op
� �
 3 4
F P
 attempt ed
 fem in
о �
um ber
 upd ated
f oot
 c ert
u a
 pre gn
 O ld
 sc hedule
x y
 P S
am ily
ad el
 ded icated
 A L
 sent ence
v in
 up coming
 R ight
 N Y
b el
 D own
 D i
 col umn
h us
 dep th
0 9
 pl ed
 virt ual
u able
 j ourney
 stru ck
� �
 des k
 stud io
 real ized
 E nergy
Des pite
ce ived
% )
ograph ic
u gh
 med ic
D S
iam i
 serv ing
 walk ed
ri ve
iven ess
 k ing
 r ing
k o
 rep ut
y ou
 ur ban
ph y
 C le
 Char les
 W ild
 target ed
 ch annel
 ass ets
lud ing
 t ort
 ins pired
 hot el
 Ari zona
0 8
 post s
 news let
L ike
T wo
 Su pp
 un iverse
0 7
 ag enda
 ca using
 wat ched
 su icide
 stre am
 over whel
 P y
 M en
 us ual
 surve illance
m em
 int ent
so le
Pe ople
 l iqu
 s ister
 opp onents
 chair man
 d u
 W ars
 Cru z
 main stream
 lat ter
 h all
 surround ing
 fol ks
 know ing
 ord ers
 In f
om in
ig g
 rem ote
 7 5
 s and
 liter ally
 J ava
 observ ed
 Ag ain
 subs id
g or
F r
 Def ense
 inf l
ob b
 V an
 appro val
ac c
im ents
 bas ket
ren ce
 teac hers
az i
av or
iz z
 win ter
ici ency
al le
 exc iting
az e
ay lor
 T al
 form at
b oy
 con gress
 protect ed
i ro
at i
 not iced
 sim pl
 deal ing
 You ng
r ations
 Ch ild
 prec ise
6 7
x ual
 deep ly
 communic ation
 g ang
 s ending
i pl
 for th
 J r
 f asc
 bat tery
 w al
m un
 sk y
 n arr
 fix ed
p ost
 as ide
 require ments
ab is
um s
I nt
 proper ties
r ors
 al ive
 nar row
 w ake
all as
 pass ion
 Ar ch
onym ous
 e ating
O r
ens ity
 mist ake
w oman
 expl ore
 coff ee
 197 0
 P an
 ra pe
 vol ume
 prom ised
 d iet
ack ing
 ris ks
 ex hib
 Pol it
 F ort
 swe et
M ay
’ .
 En ter
 W at
 ne ut
 invol ving
 w age
 se lection
 M ax
 test ed
et her
 fl u
ult ure
 defe at
 n orthern
 re ward
 wel come
 C ast
 ext ended
 put s
 territ ory
 phen omen
 un employ
 refuge es
 s ample
 he ight
 approx imately
 K evin
 bl ame
 Br ad
 any way
5 9
 D etroit
 destroy ed
ob ile
 sh o
 imp ressive
 Step hen
as ks
 pro of
 g ap
 d ry
� �
 cr ash
 un known
 loc ations
 select ed
ap se
 w est
ang es
ger y
st one
 F il
 attack ed
a ire
 max imum
 M iller
 Wil son
 T it
 prom ote
 she l
as er
 mere ly
 franch ise
ar ry
0 4
l v
 requ ests
 ret ire
 sudden ly
 slow ly
 prot esters
 dis ag
 teac her
i xt
 typ ical
og an
d ro
 W omen
 In s
ing u
 con ver
l ist
 ch ose
a o
 C amer
 Cl ass
 L u
 mat ches
 pro te
 lic ense
 proper ly
 ass ume
or ation
 disc over
 w id
 P R
R el
 M ic
 wor ried
 mod er
f ire
 ab ortion
ow ered
 all ies
 ob lig
 terror ism
 support s
  �
uild ing
Ã Â
ins on
ver ty
 arg uments
 ad apt
 them e
 conf ront
 fac ilities
 sust ain
g ender
 e ast
 p al
 recogn ize
ig ure
 f uck
Â ÃÂ
ÃÂ Ã
l ies
 equ ival
 obtain ed
 po verty
 r ub
 It aly
 nom ine
0 3
 de als
 fe es
al o
it arian
os is
 H ollywood
 under stood
 contro lled
V ER
 B est
 top ic
 D am
 crit ics
 Soc iety
 Ag ency
ax y
 F ord
 so le
 Jer sey
ar ity
 vill age
h an
 di agn
 Ad minist
ra id
 lik es
ce ler
 F our
st ers
6 8
 ev il
T e
 pun ish
 d ress
c ript
 Geor gia
 b unch
 Comp any
 journal ists
J ohn
 exp osed
 p ed
 reg ions
red it
oc ation
 communic ations
 schem e
 trans p
 st im
 lim its
 some how
 strong ly
 hon or
 dr ag
au g
 resist ance
ll s
 ch ampion
 Car l
 L abor
 const ant
 ph ase
 NAS A
ast s
p ool
 prof it
 tr uck
 cond em
 esc ape
 person ally
 N ight
 D un
rim ination
 L and
 b id
 N HL
 St and
 vac c
 dec k
� �
nes ota
if orm
 fall ing
m o
GB T
 Net work
 some where
c ers
 employ ee
 har ass
em s
ad s
C A
 be ar
 C D
in er
 compar ison
ort ed
ci ples
 poll s
ow a
 in qu
 L ove
pect ed
 s outhern
 dec ent
or ic
c ow
 Sp anish
 encour age
 em issions
 3 9
 V iew
 C am
end ers
 empt y
 M iami
 h its
ost er
 defin ition
 K n
 p ic
w an
 direct ed
p es
 f lex
z ens
 O k
5 7
 meet ings
 E nd
 B ell
 comp rom
 win ner
int end
a un
ick en
 got ten
 D aniel
 Tur k
 electric ity
 ch osen
 offic ially
 ben ch
 stret ch
 datab ase
 Des pite
 sp in
 int ellect
ig ation
 strong er
 de leg
 purp oses
 D NA
C om
 cut ting
 T urn
 f old
r ary
 ext ensive
 amount s
 des per
 tre es
 an x
 ide al
 As ian
 th read
 fif th
� �
U R
 good s
 col on
 develop er
 claim ing
un ning
An y
 re tain
 s oul
 capt ured
 Th ough
 find s
 dri ven
 pay ments
as ters
r as
C S
 t ies
 J ordan
 reason able
ol t
 dog s
� �
 some body
 end ing
0 2
 N ations
 cho ices
 b le
 p od
 se ats
 Serv ices
 Th ank
 eng age
 d rawn
 s ight
 par am
 D ar
C E
 threat ened
 rul ed
 Att orney
ep ing
 Ir ish
 Se a
 trad ing
ow ed
 prim arily
ur a
 aspect s
 f ighters
M L
 answ ers
 perfect ly
ir ms
 inc l
 Ac adem
 r ival
 park ing
 reject ed
 G all
 const antly
Ad d
f ast
 H un
 pay ment
 C at
 dist inct
 f lying
 U t
 r ig
 techn ologies
m od
 Re al
< /
 comp onents
Pol ice
 ad mit
 Scot land
 else where
 D ark
d it
 const it
 any more
ld er
  icon
 field s
 estim ates
E W
se a
 sol utions
 result ing
e z
7 8
 B ru
ur b
 aw esome
 enc oun
 prov ince
s m
 world wide
 act or
 reg ularly
 Mo ore
 cour ts
 narr ative
O nce
 b oot
 enem ies
 mix ed
3 00
reg on
 O S
 Dis ney
ic er
 hous es
 no body
 S k
in ations
 control s
 W ater
 let ters
ap es
ag ram
im p
ian a
 4 2
 may or
 lo an
 m urd
 out come
 M S
 cont em
se ll
S ec
v y
od d
s hip
 L ight
on ic
is an
 ap artment
 Ste ven
 coal ition
 contribut ed
 B as
 t ank
 conclud ed
 Ad am
 T w
 ex ists
 found er
 B rian
ear ing
 L ew
 atmosp here
 prof ile
 bre w
 sit uations
 Ch ampionship
 A uthor
r ates
 incred ible
 Const itution
 sign al
ot es
 R og
 accur ate
k er
 Vict or
ot ten
 un p
 W here
 S outhern
." [
 employ ment
 cl ients
D r
 keep s
in ity
 inform ed
 contin uing
 base ball
 gener ate
 tick et
 con ven
Al so
 Con f
 we ird
 t ied
l ock
adel ph
 categ ory
 inf ect
il arly
ack ed
 ang ry
 Or gan
 rout ine
ar on
 k il
 ra ising
if er
 mach ines
 regist ered
the re
 prov ed
 dem ands
 g aming
 It alian
 incred ibly
 cru cial
 st uck
 C ivil
 D allas
 ter rible
M P
c r
 feed back
 u pper
 pl astic
 im per
 new ly
 Jose ph
 consum ption
 do zen
 ent hus
 est ate
al i
r age
5 6
 inn oc
 man ip
 T em
 cons cious
 bill s
 C ross
 Sp ain
ific ations
T oday
 writ ers
 ex cess
ind ing
 aggress ive
 rep orter
 comp ens
 ret urning
 st ead
 program ming
 Th anks
 represent ed
 conclus ion
9 8
 r us
 B owl
M S
 A R
 orig in
 assist ant
adelph ia
 ro ster
 Min nesota
 organ ized
ri a
 pen alty
 drink ing
l ers
 pain t
 s atell
 g ro
 Pro gram
 capt ure
 cons pir
 inter pret
 explan ation
isc al
em e
 count y
isc ons
ess ed
m ont
  %
ann y
gor ith
em en
iscons in
 assist ance
 Rom an
5 8
 compl aint
im a
 r u
 n ut
 mag ic
 t all
 O per
 gr anted
B ecause
 Cont in
st ar
L A
O ff
 Par liament
 compl icated
 aud io
 ch ances
 ext ract
b al
ry pt
er a
 G i
 199 9
 he l
 E duc
 sh ares
 success fully
es y
 I T
 pil ot
z y
 E p
 H ot
 my th
  00
 rec overy
 T est
 techn iques
  iron
 C are
 Z eal
 S C
 scen es
 veter an
 F re
 W in
 ( $
 deg rees
act ions
 sym pt
the w
 law makers
k ed
 w estern
 oper ate
 ad s
r ating
 ha bit
 aim ed
In st
anche ster
 ph r
re p
re te
 tast e
id ency
 eng aged
 priv ile
 5 5
 r ating
 teach ing
 academ ic
 O s
 the rap
 pass es
 doll ar
he nt
 autom atically
it ar
 Pac ific
 mon it
 bl ocks
ab ama
 att ended
 perman ent
 surv ive
 ant icip
 ext rem
 en able
 L ook
 Fore ign
ch ain
% .
 mark ed
it als
 h idden
 acc omp
 tit les
 Sen ator
 N BC
 t aught
 Lin ux
 b om
u an
 ind ex
ever al
 el ite
ib ilities
f rom
 lawy ers
 dep ending
 val uable
 inst alled
 ch ampionship
 ro ot
 comp re
 B ull
 downt own
a ed
m al
 equival ent
 sol ve
r ific
 d uty
 Spe cial
 B usiness
 6 4
 p ace
H S
 reput ation
 un certain
 ph ones
u ine
 over se
 T aylor
 person nel
 p in
re ams
atur ally
 suff icient
 vis ited
 war ming
 S n
 prin ciples
 vulner able
 enjoy ed
 f ake
 N ick
 adv is
 negoti ations
ind er
 gener ated
 exp osure
 rec ording
b ro
 collect ed
 regard less
 d ict
E A
 e lev
 bit coin
� �
act ive
 K elly
 An th
 c up
 pattern s
Get ty
 T ake
) )
 A venue
 J osh
 dis aster
 c able
 6 5
 ch at
 work er
 main ly
 rac ial
qu arters
 Co ast
 V iet
mon th
 p ounds
 1 50
 C all
 port ion
 af raid
 ins pir
 A h
 b es
 def ence
 E astern
 T ony
 track s
 bus y
 gr ant
 sh it
 int ense
 Ser ies
 L GBT
or ne
 St ill
man n
ath y
 fun ny
 ap olog
 sur gery
 Mos cow
 C oll
 poss ession
 prom inent
 M ars
 com ic
 G er
as hes
9 7
ul es
 R ay
 th in
 engine ering
 trou b
 K urd
th is
 process es
 N ation
f all
 K ent
 C ome
 ent it
  ’
 unus ual
rap h
et ary
 describ es
d a
w orld
9 6
 result ed
 d im
 emer ged
 tax p
 g all
il er
 4 00
 prop ag
 I owa
 O regon
 co ordin
 cor ruption
 st ations
 In vest
y e
 f ought
 A D
 br ut
 ext ension
re f
 bl ind
 adop ted
pr ise
 compet e
 rec ru
 Zeal and
 had n
P r
 m ail
 every where
 B alt
 cry pt
R ec
C ol
M ean
he rent
ic ate
 A li
 contract s
f ront
 L o
 ne uro
 De ad
 R ick
 feel ings
 f irms
idel ines
’ ,
 minor ity
 sp r
c les
H A
 advert ising
 rare ly
 disc ipl
m aking
 N orthern
 san ctions
 V eg
sc ape
 Phil adelphia
up id
 camer as
 expl icit
 str ict
v iously
l og
 en orm
 fin ance
g un
 c ited
if ies
 Be fore
 short ly
t es
U L
 Pol icy
 expect ations
 implement ation
og en
 rec ip
cl ing
 Gree k
 th ick
 thous and
ant ic
 M u
ist ent
 l oud
 aff ili
ur rent
or ough
 N avy
 in ev
re ll
c us
 phot ograph
 med ium
az z
 H om
 W isconsin
 scen ario
 F ood
 L ive
 su p
il ton
 pl ug
 ve get
 h o
 vis ible
L C
 light s
 creat es
 prior ity
 v en
 br idge
el and
 ob st
ink ing
AT E
 ag ric
 per mission
 F oot
 al gorith
iz on
C o
e lect
 particip ate
ask a
 w ing
wh o
as ion
 brow ser
 Gl obal
 t ag
 O l
 H as
 m el
 ac celer
## #
 do zens
 King dom
 histor ic
 comput ers
 la id
 basket ball
e en
 loss es
te xt
 S af
 As h
og ether
 un w
: :
 t or
 Am endment
M ar
 strik es
 princ iple
 Develop ment
 form al
E P
ig en
 sc oring
7 6
ob s
at hered
 4 4
 coun sel
f ound
+ +
 sh ock
 wonder ful
 S P
 beh alf
ab s
 un com
prof it
ent h
 inter face
 establish ment
 to ler
 Hen ry
 G reg
am ber
c ar
 M ajor
 Th us
j o
U s
 g ained
 fe e
le te
 found ed
et ime
 found ation
s he
 E SP
ili pp
 club s
 cann abis
 j u
5 4
5 2
 air port
 Ke y
a us
y stem
 b orrow
we et
ol is
B O
 manufact uring
 re ly
 H it
 P ay
u er
 Al abama
 gen uine
 R oyal
rat ors
Be fore
 comp onent
 rid ic
ose xual
 whe el
r ative
 O ak
 journal ist
 rel ief
 sa ved
b ell
5 1
 h ole
 y ield
 head ed
 cy ber
 M oh
epend ent
 g ift
 f ault
 withd raw
N e
 indic ate
 draw ing
 un iform
um er
 R and
ar lier
 st able
 sh ips
 - >
 ban ned
 M id
 foot age
Mean while
 do ors
rou s
l an
 recogn ized
 19 60
 cont aining
p read
4 00
 F C
 V is
 r iver
m es
 strugg ling
am i
S ub
b a
 sp ark
 Academ y
 wall s
 achie ved
op her
oun ced
 neigh b
 pl ate
 ed ition
 H T
port ion
m ate
 move ments
 deli ber
u ce
te en
P ost
 sh arp
 A S
 S now
ul ating
 st ab
 Th ree
 epis odes
 neut ral
 Prem ier
 R et
 F und
 except ion
et ts
 produ cer
 F red
 dest ruction
 199 8
ou red
 belief s
 4 7
 Re view
 leg end
 p ump
 Mc G
 back ed
 lik ed
 h ired
ides pread
c ription
 ro les
 langu ages
 profess ion
 ent ering
os a
 V R
 interview s
 h ang
i el
is p
 to x
 philosoph y
em an
 Administ ration
 ar range
 K ir
o en
int erest
 fl aw
 N ob
Th ose
sy lv
im ore
 st adium
 Atlant a
 J ac
 redu ction
 din ner
bur gh
 b ath
 Rep ort
u per
 mag n
 Turk ish
it i
 a ver
 f inger
 N ote
 Con ference
 tack le
 ch a
 g onna
 Die go
 P oint
 c rop
 Cent re
 farm ers
 M anchester
 nomine e
 4 1
 Ar m
ach ing
 J ason
 bare ly
AT O
 struct ures
 cont ained
 sy nt
 O tt
 deli very
t a
% ,
 process ing
 disc rimination
 conv in
 inc ent
ri ers
 F air
erv ed
R S
5 3
t hen
 D ata
c a
j a
abin et
 intellect ual
E d
 Rad io
ams ung
 4 6
 B ry
 O K
 F ield
 D id
 up set
 Per haps
M e
 Educ ation
sylv ania
aw ay
 M ir
P resident
 challeng ing
ri k
 pro ven
 restrict ions
i y
 fore ver
http s
ol en
 elect ronic
 hit ting
 H ay
 e uro
h o
 un ex
 review s
 Christ ians
 4 3
 N C
 conv icted
St ar
 ill ness
 sm ooth
p age
D av
 H or
 ret ired
 indic ated
us ive
 h am
 produ cing
 Ab out
 Har ry
 rapid ly
 ro se
 h ide
 corpor ations
f r
 o cean
 R us
ay ing
ow ing
 list ening
 Re uters
 U FC
 S at
 techn ique
 m o
y ard
sel s
 l oyal
 N ic
 P en
 Me an
less ly
 rob ot
 not ion
 beg un
 ut il
 F ed
 recogn ition
ou ver
eng ers
 per pet
 associ ation
 mil k
 as ks
8 7
 webs ites
 re n
 desc ription
 P ack
in f
 tick ets
ach us
 fl ash
 suggest ing
enn y
 Jud ge
 exclus ive
 reach ing
 b ra
 prep are
 K ansas
Wh o
ion e
 b ail
 fr ag
 progress ive
im m
 ex ceed
 equ ally
 H ard
 hard ly
 w idespread
 A BC
 campaign s
 May or
 cont ribute
ud es
olog ists
 br anch
L ook
 R ose
 gr ass
 initi ative
 Mark et
 eth nic
 ex ternal
ik es
 C irc
um a
ri ent
 sens itive
 pract ical
ust ed
el f
 unc lear
 norm ally
R ef
 represent ative
p at
b ec
l s
th on
 we lf
 F ull
 redu cing
app y
l ad
 friend ly
 care fully
 Arab ia
 R ef
 L y
8 9
P M
 L uc
 rac ist
 inv ent
r ical
ou ch
P G
 C O
 N ext
 respect ively
sen al
rat or
 t ail
 McC ain
 Bern ie
anc ouver
 overwhel ming
 view ers
 Be ach
st ract
 welf are
arr ass
 F urther
 convin ced
U N
 sm oke
um es
 coll apse
 involve ment
 L ind
 th rown
pl oad
 connect ions
he ast
 terror ists
 B attle
 strateg ic
 h ook
 rec over
 Lat in
omet hing
igr ant
 O nt
 w ine
M c
ino is
 Mus ic
ro lled
 mind s
 v ital
 settle ment
 stat istics
 l ists
 v ary
 feat uring
 ESP N
ec ut
achus etts
 S ir
 behavi our
 independ ence
 D ig
w orth
 fant asy
 dev ast
es ter
ned y
c ore
ut ies
 inv ited
 compl aints
 jo ining
 score s
 f iscal
 deep er
d em
 Penn sylvania
if est
 st eal
 an ger
 dep uty
 el ig
 w ars
 Squ are
 investig ate
 T enn
 T own
 su gar
 const itutional
 II I
 schol ars
 P it
 i OS
 any body
 subject s
 A ND
 ar ray
 al ien
b n
F A
 U lt
 G ov
 l obby
 owners hip
 frame work
 unemploy ment
 Div ision
 trans gender
 S S
 improve ments
 men u
 pe ak
B ack
 sc reens
ih ad
 in ject
 l uck
ivers ary
 def ine
 t asks
 X box
 dem ocratic
 sc andal
ick ing
 j ury
ac on
 Ant on
 Min istry
C he
 c os
 compre hens
os it
 K at
 E s
 disc overy
un ior
 reg ister
ag g
 cas ual
 rem em
 citiz en
 f ab
R I
S m
U nder
 road s
 disag ree
 fail ing
 N ever
 L ittle
 J ay
 dynam ic
 serv es
 Camer on
 Bro ther
 M ah
 test im
 g athered
 St one
 In formation
 s oph
od ing
 implement ed
 controvers y
 collect ive
 tr ained
ann a
 N SA
 neigh bour
 fear s
level and
 sam ples
 f iction
 pro sec
 est imate
 Commun ity
 I ce
 Med ical
 199 7
 Ph ilipp
 refer ring
 t ip
 cap tain
W ill
 199 6
 sp aces
6 9
c ific
 t rem
 Walk er
 vers us
 leg s
 Sant a
 tem porary
P C
 no ise
' .
 H D
 over t
 incor por
 t one
 visit ors
 re ven
 civil ians
 w ages
 hyp ot
ak a
 s in
 rem arks
 aware ness
 O N
 Spr ing
 recomm ended
 st upid
 All en
 head ing
 hand ful
um in
 reg ulation
ick et
 A ction
 C ore
 platform s
 acc us
 Anth ony
m ad
 aff airs
g ener
 touch down
 r ural
 attack ing
 ext end
 ult imate
 att ached
 Veg as
 discuss ions
 R en
 hor se
 B rew
 rep rodu
 gen etic
 expand ed
 attempt ing
ph ones
 Mat thew
 r aces
inc luding
ir y
 Que en
 r aw
 ign ore
 Columb ia
s erv
 P ent
 Guard ian
h our
 C ook
 i P
ition ally
 g ear
 sympt oms
 Pat rick
 suff er
 sett ings
 M ake
all ing
 sal ary
c ase
 lic ens
m ary
G O
 tweet ed
ang el
 public ation
 br ill
 fact ory
 suspect ed
 purch ased
are t
 inter vention
 eas tern
 hol iday
ty pe
20 14
 the at
Ab out
 dis pl
es h
 rank ed
 ne ck
 Conserv ative
 Aust in
 M useum
ect ive
 R oy
" )
 c ro
 B udd
S en
 enorm ous
# ##
intend o
 c ogn
 log ic
ult ural
ict ions
 improve ment
 AP I
 view ed
 ing red
 entertain ment
A ss
 legit imate
 Prof essor
omm od
 pres um
 Al bert
 Mass achusetts
 B all
 201 9
 w ww
New s
 act ors
 substant ial
 human ity
 invol ves
 res ource
ar ms
 brother s
 liqu id
 r ational
 seem ingly
 s orry
 lay er
 lo ans
 ro ok
 investig ating
 abs ence
 prov iders
 tom orrow
 fall en
 b ureau
 ground s
 co aches
 st ake
 res ign
 out s
re c
 advoc ates
 H o
 � ��
R C
 investig ators
 conspir acy
W here
 medic ine
 dram atic
 f ulf
 mon itor
 Ch air
ES T
re pre
 over s
 ch apter
 Se ason
 c oc
ov al
G E
l ah
. -
 activ ist
ple te
 bo at
 Che ck
 Cont rol
 g am
 j ur
 susp ended
 p apers
Sc ript
 Gree ce
 opin ions
 S uch
 R oss
 miss ile
 Gold en
 cele b
 Rev olution
p ed
20 16
 R a
 He ad
 stay ed
 co vers
iver pool
 d iversity
oty pe
 b ars
P art
R uss
 emb arrass
x it
 offic es
 A cc
re ts
our se
cl aim
 P ot
 Iran ian
 dis rupt
co ver
 W W
 pre ced
 po ly
 fore st
we red
 care ful
repre ne
v ard
il a
 am id
 Hist ory
 m ad
h ot
qu est
 H ospital
ist ing
am med
 A le
 aut hent
 Ill inois
 C BS
 S ony
u ction
7 9
ge on
Rel ated
r ine
 transport ation
 V ancouver
b i
 G aza
 hand ed
 prot ocol
 consist ently
 mount ain
 5 2
 A p
 read s
 St at
 pre f
 clot hes
 att itude
i ability
 Sh are
 Ken nedy
 p orn
 princ ip
 F reedom
s es
 dep ends
 min ing
d es
 pet ition
 not ing
 war rant
 con ce
 col ors
 low est
 And erson
 T ri
 address ed
 F amily
7 2
un es
S te
 ent r
 St adium
x x
 throw ing
 j e
7 4
 f ruit
 virt ually
! )
 st one
 f oss
 guarant ee
 refere nd
in ch
B oth
? ?
 speak s
 Balt imore
 ste el
 cl osing
it ting
 read er
d ri
F F
 bu ff
 person ality
 C re
 appreci ate
 Iraq i
 sur f
 En vironment
 n erv
ien ces
m aker
ke ep
 hand ling
 prof its
ord on
 g rav
 k m
 mar ks
l ow
 tri es
 Bro ad
 contribut ions
 Eng ine
rop ri
 spirit ual
 convers ations
 fant astic
 T ro
z ed
 l ands
 con sole
 hor ror
pp ers
" .[
ic ity
 g ains
 cover ing
 te a
iv als
 Har ris
H er
 h int
 ast ron
av al
 should er
sc ale
 w rest
 gu est
 E xt
 acc ommod
ut ed
u its
 dep ression
 C A
  _
 Lew is
 l ucky
 B ang
 encour aged
fl ix
am ac
 jud ges
 inc idents
 C leveland
 d rew
 subsequ ent
 sp oken
ir a
 How ard
ann els
 B ad
 bro wn
 b acter
P lease
ix ed
 r het
 r anks
 Get ty
 phot ograp
 infl ation
 in ner
 Int elligence
 P o
m at
 B a
 m aps
ab eth
 Pat ri
port ed
ij ing
pl ate
 div ided
 199 5
 N ATO
 par alle
 dr ama
 Mex ican
 dist ributed
 g al
 innov ation
un icip
 c ust
 Un fortunately
 prem ium
 vot er
 per mit
 re vel
 K ong
 d ance
pl ed
 L as
 sw ing
 eff iciency
 prom ises
 Ind eed
N ote
 C H
 Wh ich
 ball ot
 5 1
ed ing
p ie
 Ad v
 temper atures
 S amsung
 port ray
 spokes person
 l ocked
 l ying
 impro ving
8 00
 th rew
 j oy
 d ump
Ar t
 mus ical
P P
 mist akes
d ated
 sh out
 St art
 hom eless
con f
 replace ment
er ies
 com edy
 che cks
 With out
 M oon
 instru ment
oun ce
 Con nect
 acknowled ged
 bar rel
 respons es
 protect ing
back s
 D et
� �
he im
 sil ver
 cop ies
 l es
 A C
 d ad
 break s
 Pl us
 B uff
 common ly
 le ts
 leg acy
it age
 mat hem
 prote in
 jo ke
amac are
er ted
ar re
 pass engers
20 15
 y ellow
 Mar vel
h op
 n aturally
Y our
 S cient
 nom ination
S ource
 meas ured
ap ing
al ia
 U se
 abandon ed
od ed
 Pr ince
 stud ied
 Foot ball
hel sea
 d iverse
arg o
 acqu ired
iet ies
 L yn
C ons
est y
 so il
 M arsh
 demonst rated
 bl ast
 re ar
 fund ed
 head quarters
hes is
 st olen
ini ans
 sc an
 count s
 t ape
 partners hip
 mid field
 N OT
y o
 ( “
 upgr ade
 C ost
 Atlant ic
 m arch
 gr id
 ord inary
 A ud
 N ev
 r om
aw are
 liter ature
 pl ain
 st ages
 � �
h igh
 ass ert
 199 4
 A I
 help ful
 arri ve
 ex it
 sc ope
 fall s
d og
y er
 ign ored
B M
 tw enty
et ers
 M aster
 cl ock
 com pe
in ction
 vir us
 T rib
 referend um
 in equ
 un ions
 Do es
er g
ass ador
 G un
 conserv atives
 r if
 sy mp
 f estival
 sho pping
 f ro
 wat ers
 P op
 cap abilities
 B ron
 a x
z ing
lah oma
 us age
 H ind
i ate
 Em pire
aed a
 Indian a
ile y
 trans actions
 hop ed
V E
 dist ract
 A st
 gu itar
 E ag
 Ab b
 st y
 r amp
 assess ment
ct ic
 univers ities
 D ave
 m oon
 monit oring
orm al
ack et
br idge
F acebook
 represent ing
 rat io
 De ath
en cing
ugh t
 Pro v
 convention al
com es
US T
or ge
 tr ave
ing ton
 S et
 track ing
d oor
nt il
 S ometimes
on ly
sh ire
 S us
 h ung
 rel iable
 t ie
 propos als
 ske pt
 He ll
 repl ied
 R os
f und
 critic ized
u h
 appear ances
6 2
ecut ive
 H a
 rac ism
el a
 L im
 ins isted
or gan
r imin
 introdu ction
 20 20
 appoint ed
d ney
 B ureau
ol ph
ag ic
 P ass
c ut
K e
 L ine
 beaut y
 conc rete
 rece iver
 supp lies
 perform ing
m ade
 b ub
 ex ch
r ite
 vis iting
 Techn ology
6 3
 Den ver
oc ument
E E
 J am
om es
 C apt
the less
R L
 let ting
 sw im
AN D
 def icit
 class ified
 Gal axy
ag a
 aut o
 re nder
 abs or
 Or ig
 accompl ish
 program me
 pres idency
H T
c rib
6 1
 block ed
 Swed en
arch y
 d ust
 Ut ah
 dro ve
 land scape
 can ce
 Port land
pl us
 dismiss ed
 L A
 hy per
 ab road
 bon us
 T our
h ar
 sequ ence
 predict ed
 sen ator
� �
 A ge
 dom ain
 C ode
 e c
 m useum
 Associ ated
ac co
 war n
 pers ons
N S
j i
 d ub
 request ed
 trig ger
 Ont ario
 h ockey
 Cor por
ian o
 art ific
 d ates
 testim ony
 cent ers
� �
 rock et
ir ts
 v es
 trans it
 congress ional
 entit led
ult ane
 spokes woman
 Fr ont
 N intendo
 Alex ander
 resc ue
 Co oper
m ony
 ass ign
 B on
 equ ality
 p atch
 ur ged
 b read
 Olymp ic
 document ary
 veter ans
 cl ar
f ol
 W ik
 � �
k ing
pt on
 rec all
 pop ulations
 L ow
 breat h
St ill
6 00
room s
 when ever
 viol ation
 tact ics
 w ider
ound ing
9 3
 target ing
Y et
th rough
 purs ue
9 2
 s alt
" >
 le an
A re
iz abeth
 f iring
9 4
 K ar
 M ill
 ac id
in ating
 m ole
is ons
 restaur ants
 comp are
f are
C omp
d y
or ous
enn is
 employ ed
 Rober ts
 cont rad
 B ible
 polit ically
a ver
 phr ase
 satell ite
 C ro
 surv ival
 retire ment
 bank ing
 F orm
 brill iant
 G irl
at ar
 ch annels
7 1
 ser vers
7 3
 Be ijing
 soc cer
tr ans
 M ach
the y
 bur den
 introdu ce
 exper iments
ene z
 prison ers
ra pped
 c ig
 W H
af e
j ud
 f ighter
 scient ist
O K
 Y OU
usal em
 L ist
 sub mit
 appro ached
 A ward
 month ly
 L iverpool
 design s
 represent atives
 tit led
ord inary
 qu ote
 popular ity
ol ves
 ab ilities
oen ix
 c ul
 P D
 members hip
 investig ations
 focus ing
 b ab
m ans
 h osp
 Br idge
Th ough
 Mary land
 sa ving
b ow
 r ush
 Govern or
 sh adow
ou ri
 H ur
 B ase
 object ive
ber ry
 T ed
er ts
eder ation
 m it
 pre par
 t ips
 W as
e le
em ed
 pip eline
Dav id
 child hood
 rat ings
 th orough
 ent reprene
ent er
a is
 V ill
 D utch
w as
bre ak
 act ively
 Har vard
 p ig
 demand ing
 lo ose
ast y
 unex pected
 sm oking
 sm ell
 den y
C O
d on
 univers al
ik a
 fore cast
 arg ues
 phenomen on
 overse as
 sett led
old s
w alk
 Be ck
 gener ations
 week ly
 ch icken
 prep aring
 9 5
 smart phone
 produ cers
 but t
 P A
 legisl ative
 anx iety
 H ave
 innoc ent
min ute
 C lick
 mort g
 celebr ate
 U r
 prov ision
D em
 D O
 ke ys
 m ini
 sh ame
 arg uing
 Just in
 Des ign
he ld
 question ed
 for cing
 C ow
 H op
omp son
ag h
� �
 broad er
 encoun ter
m ers
S L
 fl ags
 f ool
S im
 f ur
 m ac
 5 3
 dead ly
 re verse
o z
 we igh
 Ed ward
 Am ong
 t ens
  ~
 m os
 wealth y
 Ob amacare
 un pre
 t ab
 maintain ed
e als
 sure ly
 sh ield
 Pro p
ocol ate
ore t
 second ary
 sav ings
is a
ir lf
av ed
 ro of
 st ability
 civil ian
� �
el son
 Car ter
 reve als
m ind
 al arm
 ann iversary
 s orts
 B ra
 A k
vern ment
E l
 ton ight
 rele ases
 H on
 room s
irlf riend
 G ulf
 out rage
 prosecut ors
 Le ft
in als
 dis order
8 4
 w edd
 ex ha
or ious
is k
 sh r
 rel ax
 wind ows
 threat ening
 different ly
 harass ment
 qu oted
 health care
 sub mitted
 ar bit
 l unch
st ep
p a
 R un
 reform s
 tort ure
re ction
 f ate
 st ored
 Bel g
 o kay
 propag anda
 sp ots
 instruct ions
 Viet nam
 se vent
 round s
 odd s
it ter
 199 2
 a er
ht ml
ten ance
 er rors
 Ok lahoma
 hy dro
ic ism
G A
 de lic
ail ed
 Liber al
 sil ence
 Gra ham
 S ab
o is
act s
 War ren
 grad uate
 afford able
 circ le
se ct
 Bl oom
 cooper ation
 p icks
 se ar
it ary
 Sar ah
a a
 F all
est ed
ors hip
 Ex pl
 strik ing
 p uzz
 pers u
 stre aming
 comprehens ive
r ace
 important ly
 c ow
 poss ess
W atch
 f ing
 exec ution
 Rub y
l ined
 int im
 strugg led
 S om
 P erson
 ass ass
 Sil ver
 Le ader
ut en
ah u
 g ent
 Pr ice
Re uters
T y
ish op
 des erve
 Jer usalem
 land ing
 cal m
 al ter
 cere mony
 assum ed
 demonst rate
 difficult y
 ag es
 pr on
 d ying
 h al
 dist ingu
as ury
 ste pped
 b orders
 che st
et he
 W olf
 L t
 B ud
 adv enture
 point ing
b ury
ov a
 w aves
 kil omet
es see
ater n
ier ce
 Net flix
 aut onom
 T en
 precise ly
 architect ure
 great ly
 prom ising
 cons ent
 consider ation
 De b
 dri ves
 dial ogue
 M ain
 trem end
as ant
 newslet ter
 rook ie
 award ed
 Mean while
a fter
 repe at
 St ory
 cont ribution
 Te le
 bur ning
8 3
ie v
part y
 sim ultane
 Scott ish
 V ice
 don ations
 Ind ust
ak h
 inter f
it ol
 Mag ic
 vo ices
 analy st
 Bru ce
 Te ch
cept ions
 g if
 frequ ency
 Comm on
 proced ure
 want ing
 P res
 execut ives
 playoff s
o ice
 stay ing
ap olis
 b irds
 bi as
V D
 H ong
 A z
iz er
 inc hes
 tr illion
om y
hold ers
d s
 highlight s
 sem i
 remark able
 where as
E X
rib utes
 Palest inians
 kn ee
op en
 Jon athan
ra ig
 impl ications
scrib e
 form ation
 super ior
 strateg ies
 an s
it ual
 Ber lin
St ep
d iv
 L ink
st al
 Sy dney
le e
 M ORE
 categ ories
 Ar k
 f et
 follow ers
 cre am
St ory
port ation
F O
 contact ed
M s
 jud gment
ann on
 sm ile
b ered
 inf o
 emer ging
ig ious
r if
j s
ond er
v ision
 E ff
vertise ments
iff s
h att
 access ible
y es
T P
 phys ically
 ass igned
 5 4
 And re
 gu idelines
 defe ated
 cr imin
 w ounded
 tri als
 st em
 man aging
 spe ll
 min istry
 gr ade
 co inc
 r iding
 indic ates
 cent uries
Ch rist
c est
 Aff airs
 op ens
ak i
 ph arm
ll a
 meaning ful
om ed
 t iss
ere nt
 Mr s
 e ase
ch ild
 marg in
 St ore
 clot hing
 T es
 � ��
 S ix
 Cap ital
 particip ation
ced ented
M us
 re vers
ar ia
 po ison
 Bre xit
 1 20
 Y emen
 l apt
i ac
 compet ing
 mem ories
 C S
 the ories
 rec ipe
 g ross
um ble
a uthor
h ard
 pass age
 ag ed
 C redit
 b in
 dr one
 bl ank
 disp ute
v an
 dam aged
 199 3
 Ham ilton
 L am
b ase
 subst ance
 host ed
T ER
Go ogle
 C helsea
 promot ing
 fac ilit
 open ly
 Inst agram
 19 50
 V ik
V iew
 Child ren
 Cr ime
s l
 clin ical
O ut
 n ic
b its
ere my
 H old
e ven
 invest ments
 cons ensus
ig ate
 Le on
 F al
 9 9
 educ ational
con st
- >
 dis h
 man ifest
 cust ody
it o
we ek
 elig ible
 Haw ai
 leg ally
 miss ions
 end orse
er ia
 g ate
 mem o
 G T
 t ables
 P ict
 n in
 stud ying
H z
  ?
 char ity
ar ation
 address es
ad i
 ins pect
 disc ount
ri x
le ft
 batt les
AL L
 D er
 2 50
 As sembly
 athlet es
P re
 Tr ade
 foss il
 enthus i
 Man agement
 suspect s
 t ired
 he lic
A ct
 counter part
 n a
8 2
ac hel
 d ating
 E th
 spect rum
 M etro
ater al
 St ation
 B al
 present ation
 l ux
ge red
 bot tle
 t ap
art s
ri ors
 v ig
 fund ra
 enh ance
ass y
 Se an
 therap y
 W ales
 Ex per
 per ceived
mark et
 T ok
 domin ant
D ef
m ath
 back ing
 F estival
 under lying
 def ending
 Th rough
 rac ing
 discuss ing
 expand ing
 mus cle
 stop s
u z
 be ings
 Mar x
 E qu
 trans action
row s
 U ber
C al
 rec ruit
it udes
ac her
 G ary
 m ood
 pick ing
land o
yl um
play er
 man agers
or able
 gather ing
 hop efully
ang le
 S on
al ysis
 V ideo
se ction
 cr us
 Lib ya
 imp ression
 h ip
ol ar
� �
 scr ut
 ro y
 T ai
igen ous
 inst itution
 Bat man
} }
 st ere
 proced ures
� �
 p ocket
 creat ures
 comp at
 arri val
pt ions
ol n
w atch
 B oe
 e ager
 poll ution
it ure
 food s
 kit chen
oc ial
 rec re
 surv iv
ro ph
 organ ic
 Pent agon
 Mor gan
 sh ipping
 capital ism
 ins ult
 tim ing
od ox
 require ment
s ub
 unf air
ad ers
 m ice
 5 6
 Ass ad
 Rep resent
 M ess
 ML S
M od
R em
ative ly
 El izabeth
 O p
 dise ases
 indust ries
 Oak land
 b owl
 Mur ray
 C reat
 helic op
 div or
ag ger
 be ach
 punish ment
ab et
 she ll
 fl ed
 hosp itals
miss ions
 t ons
 K ick
 se ed
og y
A F
8 1
 Come y
opy right
 stat ist
 engine ers
 ob sc
 h ire
 mod ule
R eg
A Y
 coach ing
am ous
 s ed
oc a
 ans wered
r ac
S C
T R
 graph ics
 regul atory
 so vere
 st ance
alt ies
 b ow
 Ke ep
C lick
 expl aining
 rhet oric
 be ating
 t ut
 F riend
 Em ail
ri or
 Y eah
em ic
 M it
 acknow ledge
 Mic hel
 princip al
 pull ing
erv es
 sign ature
br id
ol ving
 conv ince
 R oll
 var iable
cos ystem
 p ill
 search ing
 O x
 d ies
 over come
 prefer red
du ction
 six th
 adv iser
 Tenn essee
  !
 trend s
 Rus sell
 ( "
 Th ompson
 mer ch
 reb els
 inter action
 period s
G e
 psych ological
M ich
 S ure
 Us ing
 econom ics
 Charl ie
 B i
 out lets
 G il
 Int el
 sign als
p g
 e cho
 Ex ecutive
 Kent ucky
 tem por
 bill ions
 line up
 m ath
 Y an
ur g
20 13
 199 1
 set up
 re nd
F inally
net ic
 egg s
C omm
 se gment
 ar r
u i
m ic
 bad ly
ke e
 L i
 sent enced
 every day
 Dr agon
 command er
 H oll
 A N
 l oves
unicip al
 gen es
N BC
 b old
 requ iring
 bul let
 inv asion
w ill
 part ly
 esc al
9 1
 inst ant
 g ig
 J ean
che ck
!! !
 ar ts
 g ene
 rem oval
 under t
 u pload
li est
 H art
 top ics
 I ron
enez uel
 inqu iry
 am endment
 weak ness
 R ather
 concept s
new s
 Mc K
P L
 sh oes
art ed
 S ound
re r
 fab ric
iz za
 Del hi
E arlier
ts burgh
 frequ ent
 se ctions
 occ urs
 Z e
ol i
 m igrants
 compens ation
 engine er
en ess
 l ad
h as
 F inally
 f o
 attract ive
 B ox
 un ve
c or
  ).
 c iting
 twe ets
 ut ility
aren cy
gr ade
 post ing
 ridic ulous
 block chain
 cl er
 Cl ark
 speak er
� �
 di am
� �
 cor rupt
 tal ented
 le ct
 coll aps
 m ask
� �
ne cess
sc reen
 not able
 There fore
 e lder
 gen re
in stein
 dead line
 ro lling
 car ries
 B M
T op
 F inal
v ia
 E T
ent al
 appro aches
 elimin ate
 Pri v
 analy sts
 s its
 c ens
St ate
 inst ances
 Sim on
 publ ishing
 unpre cedented
 col our
 ro ots
 Ph oenix
V P
 c ock
 b ene
 D ur
 P sych
 tox ic
g us
 collabor ation
 ar c
 inequ ality
 neighb ors
 ins ight
 dram atically
 Har per
 hom osexual
 town s
 pri ze
 extra ordinary
 per ception
 G ordon
 Whe ther
 Ph ill
 par ad
arg et
 g est
 main tenance
ows ki
 G O
 G ro
 che aper
is dom
 associ ate
d ie
 cou p
M ark
 E vent
 she et
 B ow
 Bel ow
 dist ur
 S av
 Cap tain
p ack
 cogn itive
 encour aging
 d reams
 P ers
 se ized
 interview ed
 deploy ed
 viol ations
 camp s
 com ics
 constit u
 Re agan
 gl ad
 reserv ed
 bu ck
 employ ers
at us
 aim s
 function al
 S a
 myster y
 display ed
P aul
ib an
 sp an
 lo op
ap ore
 de light
c re
 tr aged
 Econom ic
ixt ure
 5 7
ric ane
 occas ionally
 v end
 S ud
 ex port
T ON
 birth day
 hero es
w a
 fat al
est yle
og a
 correct ly
 St ew
 prompt ed
 st amp
 Co le
el le
 contem porary
 A ccess
 J enn
 prospect s
ot ing
 V e
 ir re
A B
 recommend ations
 diplom atic
th rop
 p a
igh th
m ir
 be ll
 paralle l
 exc lud
el ing
 const itution
on z
 disappoint ed
 manufacture rs
 ad equ
 int r
 St aff
 moder ate
 E ver
 D og
ol s
 e cosystem
 accomp an
T ime
 demand ed
v i
 8 5
 G DP
 Phot os
 n ose
 Mont real
 D ick
ail able
 inter pre
end ar
 ple ased
20 17
row ing
 lab our
 lif etime
 Brook lyn
 T ax
 E st
 Res erve
ro ck
 communic ate
 fight s
 mod ified
n on
 dr unk
 O cean
 s essions
 wedd ing
 kn ock
 explos ion
 L ibrary
 bi ological
 rep air
 land ed
 E PA
 5 8
 Author ity
 sub sc
 represent ation
 G iven
 artific ial
2 50
le ans
f it
F i
 rel ation
 own s
ix on
 Kh an
 Anton io
 Dig ital
 l ift
ag en
 design er
ro t
 rec on
Th anks
 em p
 conscious ness
 kick ed
 Or der
 def ender
 h anging
 less ons
h ist
 imp osed
 gu ests
 adop t
 an onymous
1 50
 s li
 concer ning
w ind
 pregn ant
 F ive
inc oln
 B ul
 under ground
 maintain ing
 ass et
ac re
 Al an
 p unch
 R ome
bour ne
 sh irt
 ingred ients
Up date
 che ese
 int ellig
is ition
 Ch annel
 Con vention
 pod cast
 inter ior
gr aph
": "
 emot ions
ch ing
h uman
 ab stract
 Ar gent
 cou ples
 less on
 creat ure
 res olve
 sh ocked
 opp ose
W he
 sum mit
 perform ances
 S U
 volunte ers
 B urn
D is
 B ol
 sold ier
� �
s ome
 stim ul
 log o
� �
app ropri
ist ant
 ter r
b en
 v ocal
 acc um
 g irlfriend
 Prot ection
ult y
 jump ed
 ann oy
 P age
w ed
 j ihad
 m ile
 n urs
S E
 L ear
d r
 6 00
 milit ants
ac les
us er
 gu id
 F ant
 Miss ouri
 profession als
G ener
( "
 An na
Inst ead
ik h
ial s
 but ter
 s wit
 ref ers
 desk top
 travel ing
 l ibr
g ets
 isol ated
 for um
 advoc ate
 exist ed
 opp osing
 Co al
 rec alled
… .
N ext
St ation
 C ase
Is rael
 integr ation
 describ ing
 box es
 Java Script
 Or leans
ear ly
 st ro
C D
 M ail
 min imal
 H al
tain ment
 conf used
 C ustom
 S D
ump h
 peace ful
 in herent
od ge
 surround ed
  vert
c al
s a
g ate
own ed
 Cap itol
hatt an
 H and
com mun
 h oles
 me al
 198 9
 integr ity
 K now
 Play er
s iss
 Bar b
 p m
 inspir ation
 config uration
 s ne
 Tr ust
 R s
he ro
� �
 exp ense
iss is
 cred its
 N on
ab e
 B an
 sub ur
 ide ology
 elect oral
 y ell
 sil ent
 d ual
 Mar ine
 Do ctor
 st ack
 susp ic
 bur ied
T E
 Nev ada
� �
im ize
 desper ate
 O cc
st arter
I d
� �
 sc ream
 cl ip
 cho osing
 bom bs
at ics
Tr ans
 C B
 b ands
 team mates
 fle et
 S H
i ens
 con vert
 accept able
t ra
 Or lando
ib l
 j er
G u
 W right
 regist ration
L ist
 Port ug
 Hit ler
 brut al
aw ks
S U
N et
 M ove
 sc ar
 an cest
 On line
 All iance
e lection
 subscrib e
 strugg les
ar o
 key board
 moment um
 Le ban
 Are a
 promot ion
 Ar senal
 V en
 ev ident
F l
 qu it
h ire
f ather
N ame
 organ isation
 wond ering
 Ind ones
 clos est
m its
to o
 embr ace
 Ste el
book s
is d
 Follow ing
 refuge e
 H amp
 te eth
AR T
 pro be
 H an
 ut ter
Spe aking
che ll
 at he
 W ord
 occas ional
 mon ster
str ong
 as sembly
 bank rupt
 refere nces
 journal ism
 exp enses
 subsequ ently
ou b
st op
ok er
 pr ide
 gu ards
 M un
 interpret ation
 V enezuel
 y eah
� �
h r
 rem oving
 or bit
 Ind ependent
 l in
G l
 W rit
 prof ound
ip edia
re tt
20 12
 Pit tsburgh
 comprom ise
 kn ife
 district s
 exclus ively
 surv ived
 S ource
 consider able
 st ating
 eng aging
 C ould
 ref use
 b ird
 character istics
 Mount ain
 R aj
 just ify
H P
 dom inated
 7 2
Q L
 brief ly
 N azi
b ound
ars on
 R est
 ch ip
 min isters
 pro st
gr ad
 elect ron
 tremend ous
 cont rary
re nd
 g ri
 sustain able
Sh are
 load ed
 fl our
 disapp ear
 nerv ous
 rout es
orne ys
 pro portion
 soph istic
at tered
 execut ed
oc ated
 8 00
el ve
 D uke
 as ylum
ut ter
 Every one
 game play
 sex ually
7 00
Th ank
He y
 B u
 p ir
 don ors
 conf usion
 D ream
 revolution ary
am ine
c ap
 A aron
 And y
 P ant
A g
 cur ious
 Tre asury
 h arsh
lim ited
li hood
inc ome
K E
 att ending
 Ad ams
im mer
 I M
� �
sec urity
U C
 speak ers
 c abinet
ó n
 now here
ree k
 fle e
 v oid
 br ands
 ch ronic
 print ed
 Tes la
 Sh ort
 charg ing
 eng ines
 phys ics
re ck
 H aving
f unction
 M ult
 concer t
sc ar
 Sher iff
 out comes
ing e
 A ren
 Off icer
M AN
ubl ished
ol id
ot te
 o rient
in st
 mir ror
 J un
 streng then
 G ib
th ood
 fail s
op t
 sp o
 obs er
 cha os
. ]
 pass enger
 iP ad
 Cur rent
 crimin als
 f el
 Sp ir
 stead y
 l obb
 Rob inson
 Net her
mer ce
 � �
 rob ust
 Man hattan
 C ON
wh ite
I E
 end ors
 spec ulation
 Ch ange
res hold
 cert ific
 de emed
 Tal iban
 dro pping
 h iring
 N orm
 Gi ants
 Sing apore
 A lp
 integr ated
 Per ry
 pres ents
 av o
 B and
 F A
 guarant eed
app er
 f ert
 ep ic
 le aked
 T s
 K ings
 pack ages
m ble
 ple asure
B N
 susp ension
 challeng ed
 pack ed
 check ing
� �
 b its
g ood
 v it
 eng agement
 rad iation
 sl ot
 bomb ing
 H u
 pat ri
le ep
 d a
 al ert
P al
ist le
 w et
r ics
 hun ting
 US B
 T el
ri v
� �
 produ ces
 witness es
 C raig
oph ob
 edit orial
 def ended
 rec overed
 H oly
ment ed
R ed
 develop ments
 simultane ously
 bo om
 L og
 bacter ia
 block ing
R ight
 L ater
 5 9
 attract ed
 6 6
 fig ured
 O pp
 H ung
 cor rel
 all iance
 researc her
 taxp ayers
 Enter tainment
 L es
 N one
 cap s
c ard
im b
 J eremy
 host s
 c inem
 pat ent
 Russ ians
iz arre
 exam ine
AT CH
 F uture
 vari ables
ast e
ER E
 L incoln
if ier
 o xy
 em bed
 j unior
lyn n
ate ful
Bl ack
 G h
ut er
 Chair man
 publ ish
 T ower
J P
 t ear
on ed
 6 2
t est
 met h
 bre ast
 V lad
D R
g ly
 v ent
 Pol and
 Ukrain ian
 Stud ies
ades h
gg ed
d ep
 en act
C ar
m ay
 D ak
 fl ights
om ic
 accur acy
 fl av
 W i
 dist ribut
 l os
 impact s
 surprising ly
 sol o
 ra ises
 burn ed
 K it
 r ic
 B or
d am
 S ci
 ang le
secut ive
 W ould
 ev ac
 qual ified
 decre ase
 C PU
o ft
n ie
 ev olved
v as
 fl avor
olit ical
im ir
 un necess
ac o
 as semb
 T otal
 intim id
w ich
 U b
 court esy
 O R
C or
 fing ers
 MP s
r ition
 product ive
 v oc
 bl amed
ethe less
 H IV
 depend ent
 expect ing
 transfer red
 R angers
 en abled
 ident ical
 vis its
 expect s
 l ane
d ict
 G ill
b ul
 ign or
 acc ord
 Gr iff
ter ror
is hers
an im
B ook
 Stew art
 v enture
b in
 C C
 b arg
 sh ops
 depart ure
 Comm and
B r
 Miss iss
 kill er
 repe al
 motiv ated
 rest ore
 agree ments
 D u
 conflic ts
th odox
 organ is
 sc ared
 forg otten
d f
 Th ink
id en
ick ed
ul se
 in her
 nation wide
 Ed ition
b ian
 cy cl
 influ enced
 crit eria
 N i
ern and
 occup ied
 anim ation
 B C
 trail er
 rank ing
 P ope
 Sh ould
 Th ings
  `
 back s
ah oo
 tele phone
 occas ion
T O
ab out
un ity
 anal ys
 Red dit
 function ality
 check ed
 concent ration
 Mod el
look ing
 household s
l ink
 re ass
ond uct
 algorith m
 cour age
ra h
ress ing
 Supp ort
 promot ed
 H ug
ou p
 imp rison
am ents
 explicit ly
 bat ter
 des p
 bab ies
i ar
 t anks
 o ught
 st atic
 Pro duct
 rele asing
 ant ib
 Pl ace
ri ke
 sub tle
For mer
IL L
 st ats
 b ases
 stri p
 do ct
l arge
u ating
─ �
 privile ge
 J erry
M B
 More over
ag ine
 E nt
G r
 War ner
 N O
 met ers
 entr ance
ipp i
 n od
 tow er
 investig ated
Th ree
 sen ators
z one
 C old
 Canad ians
ie re
 h ub
 w ise
 over l
 appl ies
 form ula
 Stand ard
oll ar
 E b
 Egypt ian
 m art
 Christ opher
 inev itable
bre aking
 uncertain ty
 prov ider
act or
 pain ting
 contin u
 mod est
 l ens
 influ ential
 dest ination
 Que ens
 M ap
for ward
iz ations
" ,"
 ch ips
be ing
S upp
 all y
 inf ection
 d imin
le ading
 Un ivers
 j et
k es
 sole ly
 bel t
 sc rew
 in aug
 6 3
 ins ist
G ood
Y eah
ry ing
 T R
 N iger
 the ft
u ccess
 M arg
 polit ician
 Al aska
 transp arency
 Play Station
 invest ed
 sing er
 imm une
 Ott awa
 prov isions
ist ance
 St ock
t own
 hand led
o vers
 p y
 uncom fort
amp a
 Olymp ics
 Louis iana
 imp ressed
 in box
 O il
 oper ator
S D
ard o
unt u
 Nether lands
E m
 ball s
 t ent
il ation
 J ane
 col leg
 sim ilarly
 lif estyle
 head lines
id al
off s
ol as
 bo ards
rif ice
? )
 Tre k
com p
 dis abled
th ur
 K r
ant e
ix el
 Stan ley
 oper ated
 regard ed
v ar
 Ty pe
 launch ing
 S N
 rel uct
 Ex p
ach ment
w all
D own
 M other
 b ol
 D rug
 vol unt
 photograph s
s uch
 kid n
? ’
 sa ke
c itation
 ke en
 det ention
tr ack
 con secutive
r c
Ob ama
 g ym
 Un like
in ite
m illion
). [
 Bl ood
 prosecut or
 fil ter
 D a
 prosec ution
ke ley
 su ck
angu age
 conv iction
ig e
ut her
 earth qu
 ro lled
 k iss
 T able
on ing
eral d
ar med
ist a
 in ex
 Mod i
or ate
 Corpor ation
ah a
 Capt ion
t arian
 Cor p
bit ious
 bul k
f irst
 Hamp shire
 m ales
 F O
J o
 un re
 t ears
 traged y
 ch ocolate
 m ouse
 po et
 pres erve
ll or
 guid ance
 F ather
 T am
 Be ing
 le ak
 Philipp ines
B el
 Fore st
ur ches
 n u
le an
ass ion
 b ags
 S everal
 rec k
bl ock
 dest ro
 exam ined
 sy nd
 accept ing
 el abor
 miss iles
F urther
 abs urd
 bene ath
 ne ur
 particip ating
viron ments
b es
 1 000
 H ans
 neighborhood s
uck er
 Stan ford
 compe lling
 reflect s
 W y
 compl ained
� ─
 ad ap
 b other
 contro ller
 lux ury
 Victor ia
 Ed it
 Mar c
 Gr ant
 M orm
l aim
ay a
 the ater
 Mar io
 en for
 N elson
 shel ter
st ra
boy s
 f er
 Medic are
 Cl oud
spe ed
r in
 f its
 Medic aid
 jur isd
m ons
ous es
 post er
ust ing
 < /
 K night
 cons ists
” )
o pp
 p ose
 signific ance
 po lling
b at
 Fil m
 sto pping
friend ly
 occas ions
ne g
 b one
v o
 D E
 Tok yo
 Rub io
 wire less
 real istic
 exc use
 L ocal
Am ong
  ..
E ach
 C as
 Im m
 Ch ron
 t ension
 accompan ied
 see ks
as m
 G ard
 back up
ot ion
 rese mb
 mand ate
 H ad
f ish
 S port
 the oret
 P a
 Contin ue
ell o
 ass ists
 poss ibilities
 Qu est
ect s
 bet a
 accus ations
 W inter
ia h
 adv ent
 cook ing
 C R
 Ch ampions
 Ab u
 supposed ly
 in hab
 Snow den
 emphas is
 fin ishing
 D al
p ing
 sust ained
Per haps
c at
 Mal ays
 beat en
 S EC
ite ment
 b ump
i per
 P ear
 d ressed
 a wards
 project ed
ism s
 Not hing
 t orn
 innov ative
 Every thing
 M ind
 affect s
 Ab d
 pol ar
 prevent ing
 construct ed
 K a
 Fl ash
 B ir
ber y
 long time
AT ION
th al
Follow ing
 S ection
 fuck ing
 V in
 er u
 g arden
 3 60
I O
 Organ ization
 speed s
 f ed
 oper ators
 So ft
il st
 g ut
 Fin ancial
 dr um
 man ual
 out standing
 pass word
 mortg age
 Ham as
 ent ity
 Py thon
c ott
 rec ession
 N ich
un a
 w isdom
 Ste am
 N ature
 document ed
 trad ed
 int rig
 I V
 g olf
 Jim my
 occup ation
 Kurd ish
 old est
 f ut
 document ation
 favour ite
io x
 pra ised
 resident ial
inc ial
 spot ted
 cop s
cent ury
B ar
eg a
ug by
 reven ues
 Comm ons
 Th ird
 lay ers
 wal ks
olit an
 M A
 interact ions
 Patri ots
 sur ge
ch arg
 b icy
 aw ful
 pan els
 the r
 calcul ated
 D om
 inf ant
 circ uit
c ular
i ated
 experiment al
 6 7
� ��
r ons
D C
 renew able
qu es
 autom atic
 C L
 myster ious
 d irty
any ahu
 L ad
 tr ains
 Other s
 th reshold
 t ale
 N ash
 6 8
 K al
 deal t
 R h
 review ed
 6 1
� �
l ied
 pain ful
 gl obe
 C itiz
le ted
m n
 co in
 tri ps
ir s
 Tr ue
 Air port
re qu
 Way ne
 cle ared
er r
om er
 F le
 earn ings
ard ed
~ ~
B en
 cross ed
 administ rative
 conven ient
 graph ic
 r iders
 E mer
 N ik
 l ady
 liber ty
 r anging
 b izarre
 p our
 it er
ut o
 or g
 he s
for mer
 displ ays
 icon ic
 en vironments
 rob ots
 mother s
Ch ina
 host ing
 am bitious
M art
 198 8
d ing
ow der
sel ess
 des ert
be at
 res erve
 sec ular
M on
 sent iment
 pred ec
 Mc Donald
P s
is ive
j amin
On ly
 conver ted
 Cl imate
 tiss ue
 Mur phy
 L arry
>> >
 t um
 A FP
 F OR
 drop s
 De ep
sh ore
k ind
D id
 explo it
 De an
w ords
 Red s
 Sum mer
 creat or
 res ort
c ount
 address ing
 V ar
 an ch
 s ons
 safe ly
 h iding
 att orneys
� �
 devast ating
EM ENT
t wo
 sp ray
 sleep ing
u ably
 cross ing
 S in
 p ension
 S ac
 restrict ed
 arrest s
 w ore
 scrut iny
IC E
u j
 unf ortunately
put er
 bur st
 P ir
 libr aries
 depart ments
 murd ered
 compet itors
 D rive
 wh is
 al ign
 contain er
 avail ability
 newslet ters
 fil ing
 Sing h
k ward
 adop tion
ail ing
 newsp apers
 m isc
b et
at ter
 product ivity
 to ss
p in
 re ign
 build s
 S E
 disc rimin
 pregn ancy
 N S
cel ona
 over night
 indic ation
 appear ing
oy d
 publ isher
 ear ning
ight ing
ar ians
 comb ine
 view ing
 d uties
e velop
AS H
 Man ning
o j
 m m
 f ishing
 reflect ed
is ode
 T an
ari os
 uncomfort able
 Mag azine
 t u
 Wh it
 reg ret
go vernment
 m unicipal
 Further more
n amed
Che ck
d ata
g ence
 N ative
ag u
d ev
U D
 hor rible
ac cept
b ably
o op
 chemical s
 rel ie
 an onym
 c ave
 separ ated
May be
u els
 sophistic ated
W orld
 r ivals
 re wards
 F ig
or ia
 v iable
 des erves
 pr icing
ell er
 act ed
 Ph ys
 W iki
 rel atives
 in du
 M and
 win ners
 re cept
 Mad rid
 sl ide
 prepar ation
 equ ipped
vers ion
 r itual
 limit ations
 Ch rome
 In n
ern el
 198 4
 complex ity
 among st
 Ron ald
 = =
 mechanism s
 pe er
 comm od
les h
 param eters
 F ederation
 fire arms
 car rier
 b ip
 to b
 N az
s ize
 suggest ions
 He art
i ors
g al
 N a
 delay ed
 HT ML
 Bl u
 expl oring
 me ets
win ning
 tou g
 198 6
 co ord
 Tai wan
 light ing
 cur ve
t it
 start up
 Coll ins
em it
 intellig ent
Un fortunately
 g host
 celebr ated
 Mississ ippi
 ab und
 ce ase
are r
 inter ven
/ .
 quiet ly
 ens uring
 P oll
X X
AT ED
b urn
 reb el
 L uke
 night s
m ap
qu er
 collect ing
20 11
 transl ation
 world s
 det ained
f i
 or ange
 McC on
prof ile
DA Y
 be ef
 employ er
 D VD
 Le vel
P at
 B ab
ac ies
 rad ar
 S ex
Wh ite
 install ation
 Bl ock
 deliver ing
a very
 design ated
 co ins
Mich ael
 m igration
 deb ates
 ) ;
TH E
 pled ge
 Mel bourne
od a
 cat ast
 E C
 gr ants
 ca ution
 off season
 not ably
 bug s
 table t
em in
hy th
 them es
R O
u ates
 Ex press
 w rap
n atural
 gold en
g ov
 deleg ates
Ad vertisements
A tt
 cour ses
� �
 count less
 Eag les
 D isc
 witness ed
 grad ually
 Que bec
al id
 comm ands
 Cub a
c ode
or i
 Coal ition
 t ends
 viol ated
 mean while
ect ed
 psych iat
med ia
 demonst ration
p ot
 dem o
 C rit
 P od
form ance
 comment ary
wit zer
 Swed ish
 ann ually
 for b
 p ending
ond s
 He at
 E ve
 observ ations
 th ro
or ical
ath on
 S aint
op les
ers ion
arent ly
 T oy
’ �
arm a
 remem bered
 f ires
 question ing
ren cies
 clim b
 Sm art
 N ap
 lapt op
F S
 ver ify
 imp ose
 highlight ed
 repl acing
ru p
 cor n
 L ady
 se eds
 cont ents
 h unt
 pre view
el come
M edia
� ’
found er
 frust ration
 Marsh all
 discipl ine
 pat rol
 supp lement
 poor ly
ond a
ude au
 com ed
 gra ve
 Pro gress
 pra ise
 t empt
 Pe ace
 Ar ts
 f urn
 bath room
 P el
ra it
pie ce
 act ress
 as pir
 happ iness
 K y
 expl oration
 gent le
 R ound
 cru el
 L ions
om ach
 st arter
out ing
 Hun ter
 prevent ed
 Bl ake
 ch amber
f ile
 L en
 W ard
 pr ayer
 cult iv
 St orm
 ven ue
 per mitted
 inst antly
 oxy gen
 H uff
W ar
 alt ogether
ur ities
Rep ublic
 bond s
at al
 amb assador
 Be at
 Mot or
. ),
 aren a
ug s
 con ced
 Ber keley
 disapp eared
 plan es
 7 6
 techn ological
M in
st ring
 A y
sh ot
ier re
 suggest ion
 Rog er
 part ially
 agric ulture
 O w
anc hes
 un l
 d il
 dr inks
oc ur
 Camp bell
fl ow
 Fer gus
 s izes
 incor rect
T witter
 protect ions
 F R
h ill
 fasc inating
 Environment al
 Christian ity
g roup
 vacc ine
am an
 Hawai i
 Add itionally
 log ical
 M as
 H ann
 par ks
 M uch
au cus
 sty les
at ical
 supp orter
 honest ly
 ad j
 al ike
 L aur
appropri ate
 NC AA
 pro l
 tob acco
 marg inal
en cer
 to ll
 sum mary
tt es
olog ically
 fle w
 G ene
 Kick starter
 adv ised
 G ab
 heart s
 comp r
 sing ing
Le aks
 w ound
The ir
 appoint ment
 Q ual
 For ces
 Congress ional
 eth ics
 J en
 st unning
es ides
 cap ability
 Mit chell
 trans mission
 enter prise
 C ry
 Vlad imir
 met aph
ch ron
 Spe aker
b u
 pros per
 p owered
 Man ager
 react ions
 Ed itor
 ess ay
 elect rical
 c ous
pl ing
 st ressed
 ha z
p y
 T odd
 fac ulty
 m akers
 G re
 Cor ps
 as h
 Aren a
 ce iling
 sk et
s k
 der ived
 Re id
l ast
 sevent h
 N ame
iv an
 mount ains
 celeb ration
 r ice
 press ing
 arg uably
 draft ed
 c rown
 dam n
lect ed
 dep os
 ra id
 J ess
 R T
 Or ange
 U I
N T
 end less
F e
 Im p
 travel ed
ut t
 compl ain
 B enn
 dr ones
 S essions
 Commission er
 Ox ford
T IS
 in eff
 Br us
 R ow
g ments
 aw kward
 bu nd
ore r
witzer land
 app lying
 Wat son
 sac rifice
 accompl ished
 shoot er
 B ah
g ary
( '
 bub ble
 we aken
ult s
T ake
 F lynn
 ep id
on ia
 mechan ics
 assum ption
augh ters
 advoc acy
 c ats
 host ile
im s
 bre ach
 reveal ing
B L
 fr act
 respect ive
hand ed
b ie
 scr atch
H ave
st orm
 Mod ern
S everal
 expert ise
 Dak ota
 dev oted
Sec ond
h ol
at oes
 Park er
 Ind ians
 B aker
 an arch
 circ les
m are
 strong est
at in
 R ap
 Ch all
writ ten
 focus es
D E
form ed
ip her
 sh ocking
 sw ord
 cal endar
ue z
o ard
 aud iences
 m ic
 - --
 l one
 K as
 citizens hip
 buy ers
ag raph
 confirm ation
 Medic ine
um ing
W S
E ng
 tr ucks
 7 00
 partic les
id th
 fr ank
 acqu isition
 conclus ions
 comput ing
 sa uce
� �
s ur
 Law rence
uer to
 unnecess ary
 direct ors
m id
D ata
 ro d
 l yr
 D ate
B re
 line back
act ory
G M
 pen alties
 dec or
it ate
h alf
 sp y
 long est
 respond ing
 Tem ple
ll i
li ver
v ol
v ious
n or
20 10
H ist
it ivity
and ed
 F ind
 bit ter
 E D
M en
b rew
by n
 st ir
 Res p
 H us
oc us
 histor ically
 ent ities
 Mor ris
at re
 ad vertisement
 inter rupt
 D or
 add iction
 y ard
 be ars
 pl acing
 Y ang
 contribut ing
 bound aries
 g reet
 qual ify
st an
 Fergus on
 understand s
 Sun n
 comp osition
 d uration
? '
j an
 quant um
bor ne
 Hot el
 convers ion
 sh ake
 frust rated
� �
 coordin ator
 Leg isl
 oper ates
 orient ation
 hack ing
 Saf ety
 P rom
z es
 Bar celona
M M
 c am
 st un
G iven
 R oc
P I
 Rec ords
 pri est
 femin ist
le ments
 His pan
ac ular
 Jac ob
In ter
 198 7
B ig
and y
… �
 dist ant
 motiv ation
 fast est
 t ar
mind ed
 gro cer
 pain ted
 pop ul
bo ards
 I an
S et
 Net anyahu
um m
out heast
 ped est
 F CC
lim inary
 over d
con nect
 R ain
 n ode
� …
IS T
 d ensity
 U C
PD ATE
 overs ight
 tun nel
 R y
 experien cing
 contro lling
 count ies
or ph
 m ild
L a
 saf er
 H end
te ch
 S ong
 t ill
f s
 v ague
 197 9
 div ide
b les
 F if
pro t
 B E
 Sw iss
k m
M ed
 trans formation
 direct ions
 B art
ast ed
 rece ives
 sent ences
 imper ial
le ton
d ec
m art
� �
F igure
 u gly
 sup rem
 illeg ally
com ed
 prob ability
ac er
 int ensity
 comp osed
ab ling
E uro
 enjoy ing
 C os
og g
 Abb ott
w estern
 he aven
 d ign
 S ide
s upp
 mand atory
spe cific
AC K
 conserv ation
 achieve ment
 g aining
 Rem ember
 Bloom berg
H ar
ry ption
 ins ane
 Again st
 agric ultural
P ar
 p or
 bal anced
 l ung
 6 9
 condem ned
 st omach
 198 5
 res idence
 dist inction
 L ie
 print ing
 p ione
 emer ge
 prot otype
 B eng
 C a
 w ings
he alth
 space craft
 invest ing
 accept ance
� �
 7 7
 tou ched
 R ice
 t une
 z omb
 to ile
 Te a
 initi atives
 B uilding
 exch anges
oty pes
 sc ary
 p ays
 D J
 ide ological
ay ed
 p ink
 Bl og
m ain
or ient
 scen arios
idd ing
 f illing
 manufacture r
 Be h
 Ste in
 Ben jamin
 T ampa
 Ev ans
 E lection
ro c
 ser ial
� �
 inf ring
 const rain
ock er
lam m
 rot ation
� �
 respect ed
 Mc M
w hen
ur i
 K u
 D raft
 press ed
 non profit
 pe ers
b ecause
 acqu ire
 c ake
 oper ational
 inc omp
 crop s
 l anes
m other
abet es
 K l
in itely
UT ERS
 comple tion
 La ure
 high way
 treat ing
umb led
 prior ities
 subsid ies
 explos ive
 anim ated
 res igned
ec onom
g t
 e ars
 l un
ortun ate
 sl avery
 difficult ies
 Ar ctic
ch i
ust ers
i ary
 M obile
d eg
 is lands
 Co hen
au c
 � �
st ory
 free ly
 ch urches
 Ch ance
w he
ock ets
 sh orter
 fr ight
ow ell
 form ally
 appro ve
 reserv es
 t el
 des ired
ol o
� █
 rif le
 qu otes
 G a
 R io
 respond ents
 particip ated
 ex em
 Br andon
 b ones
 discl osure
th ink
 b io
 F igure
 R ail
z b
r idge
ble m
 A wards
 crowd s
 19 30
 human itarian
 worth y
 volunte er
 Te xt
 s her
ic ut
 mechan ical
 tut orial
val id
ere r
 � �
 cle ver
 sec ured
 re hab
 h ier
 jud icial
o ons
 att ributed
 rum ors
 con j
 m amm
 cr ude
ch arge
 S aints
� �
 mon etary
 deliber ately
 Cent ury
 F ro
( );
ict s
 cult ures
pro duct
 ro cks
b art
 anticip ated
 in hib
 flex ible
erv ing
 econom ies
is en
 N eed
ud ge
K ey
 McCon nell
 inc ons
 b ass
im ens
 R aid
r ane
at ile
 K yle
 exp ed
 gr ateful
 elder ly
 consequ ence
 j okes
s ized
 her itage
 pan ic
 teen ager
 dis par
ab l
 spread ing
 inter rog
cont rolled
 disp os
 flex ibility
 to ken
 aff air
 Sm all
 altern atives
 ch ap
 F arm
ici ary
 T alk
Wh ich
 z ones
 n aked
 decl are
 Circ uit
d rop
 P ok
c rat
 vir al
gl as
 fin an
 abs ent
 K erry
ell a
 attend ance
а �
 T erry
 advant ages
az y
 trig gered
B est
 bu zz
 Albert a
iz ard
 techn ically
 re aches
 S witzerland
 M itt
 Ch ap
 t ensions
 p osed
 B uck
 detect ed
 inst inct
 kn ocked
VER TIS
 design ers
z o
 distur bing
C urrent
 prev al
 E arly
 Art icle
ll ers
 T reat
 pled ged
 T un
or ig
s ky
ul pt
 Brus sels
 Post s
ur se
 instru ments
A ust
val ue
 s ends
R T
 satisf ied
 I C
 process or
 w rapped
il ateral
 M ov
е �
are ttes
 T a
st art
 exc itement
iv a
 f are
 green house
 shif ted
 flu id
 equ ity
 break fast
N orth
ne ver
 flo ating
 do se
 remind ed
 Kir k
ere n
 harm ful
 P uerto
inc inn
 Part ners
 transp arent
urn ed
 tr apped
 rep ly
 wel comed
 n ull
d i
 app eals
 Camp aign
 Frank lin
 har vest
 res olved
 legend ary
 su itable
ation ally
 Ant i
 C row
b est
 I ss
 mag ical
 br ains
 ref using
 fit ness
 7 3
 avo ided
pr ising
 gr asp
 port fol
 ident ifying
est one
 Gr ay
 decl aration
 announ cing
 7 4
 rec y
 ab ol
it ably
 inn ings
P ress
 Am b
on er
f ox
 l ib
 h orm
 Lyn ch
 Buff alo
 ste ep
 prov incial
 Commun ist
 condem n
 ha bits
oc ate
 rus hed
 M D
 imm igrant
 mut ual
 em pire
 hat red
 Bar ry
st ock
 M aine
 hy brid
s ki
 assum ing
ra ham
 minor ities
 optim istic
 hope ful
 indic ating
 edit ors
 excess ive
 fro zen
 wh ites
 Phil ip
d ale
 brow s
 bel oved
incinn ati
 tempor arily
N G
 conduct ing
f old
se ud
 V ery
 O d
ver ning
ank ing
 presum ably
 trust ed
 deploy ment
 imag ination
 edit ing
 Dou g
 supp ose
 ear liest
 ass ured
 Christ ie
 st ocks
point s
e or
 tend ency
 Pr in
 pen et
 imm ense
 N atural
 sh ar
A V
 Rog ers
th an
N ever
 bar riers
 G PU
1 10
 M om
l as
 f est
 tour ists
p owered
qu ality
 dec iding
 head line
 throw s
 cast ing
 B ears
Th rough
es is
 wor ship
ar ound
 comp os
 r all
 infect ed
 Tr udeau
 J ets
 m ixture
b age
 ve gan
 social ist
H aving
 spark ed
 A w
 F un
roll er
keep er
 butt ons
 g rip
 wa ited
 dam aging
r ust
 struct ural
iff erent
 Occ up
 P ed
 War riors
 grab bed
 defend ers
 Al t
 colle ague
 B und
ab a
 d iver
 colleg es
not e
l ib
 crypt ocur
ot ton
pl an
 un ity
 athlet ic
V ideo
 arm or
s ign
per or
 tr ash
ig ers
ig hed
 H P
 plan ets
 O scar
ors es
ol k
 cart oon
ne red
 sc rap
 Ch uck
au kee
ous ing
 Br ady
 l ake
 G arden
 parliament ary
ll y
A nt
 Jeff erson
 f ru
 compl iance
S ch
 soc ieties
 F ried
 B ou
w al
m aster
 Liber ty
 purs uit
 dis g
L ink
 wh istle
per ial
 click ing
 a uction
f il
al og
 Gu ide
b ig
 tradition ally
 7 8
 att itudes
 J e
F ree
 surviv ors
 hum or
 B h
 approach ing
 wid th
 n ick
ab il
 ex ports
 res on
 Columb us
 Turn er
enn a
 Wik ipedia
p ublic
V al
N EW
Cl inton
 H ide
 legisl ature
 Is lands
 bar rier
 Ke ith
p ace
 wind s
 ch ampions
 dec ides
 purch ases
 m asc
ac ent
be it
 h oney
B R
 D omin
 pure ly
 lif ted
 det ain
 ess ence
 sec rets
 Cor byn
ruct ive
 purs uing
 observ ation
 text s
t ics
 U ntil
 Har vey
 Sh an
 Mor ning
T om
 in sect
 there by
 f ont
 eth ical
 rec ount
 bl ess
 under mine
force ment
G ame
 w ishes
 t ang
 ur ge
st ore
 grow s
 D ub
p op
c s
arent s
 al ph
AD VERTIS
 regul ators
 off set
 C rown
 f t
 ag greg
T ION
IV E
 meant ime
 Y ahoo
ur red
 don ated
 C orn
 Ch o
 t ong
s chool
 l aser
en c
 econom ists
 liber als
 met ab
 treat y
 S ep
 ex empt
w aukee
 7 1
 remind er
B et
 a est
 succeed ed
 n ons
 p ist
 squ ee
 rom antic
 bott les
 passion ate
 Nor way
 fl ip
  vel
S er
 hack ers
 fail ures
 J u
p ath
 WW E
 Un iverse
 emot ion
 W orks
 out er
icial s
 Fant asy
aren thood
 P ap
 break down
 E V
 M oney
 E X
un ct
ro d
 ident ification
d ig
 fr action
ple x
 Mad ison
 F DA
back ed
 t rop
 Cam bridge
 adm its
E G
 sac rific
 divor ce
 sens or
 per mits
 0 1
 R aven
 decre ased
own ers
� �
C NN
g ian
 D NC
] :
 exec ute
r ained
 ( )
 gener ous
 after math
 K arl
 E ss
 wal let
 comp ly
 draw s
 8 2
sec ond
 comp aring
M C
 unf ortunate
 arri ving
 t at
 ret reat
 fin ancing
th a
vis or
is ers
 str ain
 dis orders
 Ark ansas
 var iation
 P ur
af i
 Mil itary
 sl ave
 enh anced
 Wiki Leaks
he ll
 feed ing
 fem ales
 Rod rig
 E li
rop olitan
 N ort
t ail
 G host
 ver dict
 helicop ter
 account able
 conclud e
 un h
 Gu y
iz able
op es
 Dep uty
D B
 cre ep
 F isher
 Rob in
aw s
 RE UTERS
 che er
 treat ments
o a
 batter ies
 rec onst
ad vant
 und ers
 J ake
S outh
s ource
 Mem orial
 Ne il
m outh
 U RL
 pre ference
L Y
 Connect icut
ect or
 contact s
 s illy
 last ed
 mass es
 Pol ish
 embed ded
 Commun ications
 comp ound
 sequ el
 retail ers
 correspond ing
 M ission
 destro ying
 lack ing
 enc ount
 d aughters
g iving
ig ma
 Ty ler
 wond ered
d irect
 d ys
N Y
 capital ist
f ive
 encount ered
 econom ist
U E
� �
 re un
 R oom
 am pl
 vert ical
 licens ed
S y
on i
F our
 war fare
v ation
 I RS
 K rist
 Th under
 E mb
 found ing
n ormal
 Venezuel a
 Sc ar
 c ub
 sm ugg
 ag ing
 Mar ia
ir able
 h ill
 gif ts
 statist ical
h ave
in ning
 sl ower
 adv ances
 Pakistan i
are st
 grav ity
 f ierce
 Conserv atives
elt a
 care ers
W ork
 stab il
 Spe ed
accept able
 198 3
ard ing
 vill ages
ah l
U M
 intent ions
 organis ations
 separ ation
 Down load
Us ing
 king dom
 author ized
 Ad vent
é s
 count ing
 Luc as
h aul
 tr agic
 go verning
 P i
 warn ings
 dis pro
g i
 Play ers
  �
 S alt
 198 2
 Stud ios
 l ip
 far ms
 Sus an
 Mer kel
 diagn osed
 commission er
 taxp ayer
im age
 Spir it
ut ical
 lobb ying
air y
 ed ited
 dem ol
 transform ed
 clean ing
 f ib
 H ub
 stre ak
it bart
 suspic ion
 ele ph
 aw a
F ig
 Holl and
 c odes
 contin uous
it ative
 b oring
 B os
ank a
 C z
 Pri ze
 Sci ences
 mill enn
 cons iders
crib ed
 screen ing
 gam ers
 St ars
 cont am
 A th
 dam ages
ard less
ol er
writ er
ol ine
 ten ure
 N av
 Th or
ear chers
 de ce
 Z h
 Br and
 incl usion
 fun eral
 cl uster
 f ence
her ic
 a ired
 inst ruction
m i
ank ed
u v
 traff icking
 fe ared
� ��
 K le
r int
 don ation
 P interest
uss ion
f ly
 work place
 inv ite
 D anny
 cred ibility
 te ens
 inst itutional
 mon sters
 D est
O G
id ays
 collaps ed
 ' '
ck er
 just ified
S ign
pp y
 he nce
ham mad
 hypot hesis
ip h
claim ed
 n an
 susp icious
 den ial
 organ izing
 isol ation
 The atre
ad ows
. :
 gr ace
ue ller
 Morm on
 c ort
 sp awn
 With in
A G
in ance
 ste am
 boy friend
 novel s
 civil ization
 wrest ling
 ur ging
 inter ference
 doub led
 Islam ist
h ome
 Pet ers
� �
 th irty
O s
 real m
ch ar
 mag netic
. “
 r ib
 belie ving
 exp end
 out right
 soon er
 ev angel
█ �
 Int erest
O rig
 ind ict
 benef icial
 br anches
 dec ks
 cry ing
 comp iled
oll ah
 su ed
 recru iting
 m ock
 educ ated
 en ables
ool s
 le verage
 inv ented
 r hyth
 rus hing
 elimin ated
co ins
C ap
H ill
J an
Ty pe
ur able
l ive
op ard
 spons ored
St ud
D ec
 unve iled
 tra its
 be ers
 Charl otte
 Ub untu
 Stud io
M et
 tem plate
 C incinnati
 routine ly
 ple aded
 B ash
A h
 K am
 p izza
fe ld
US A
 B L
ADVERTIS EMENT
 lab els
 T D
Ref erences
 eval uate
 d umb
 solid arity
 tem ple
 ag rees
 Lt d
 breat hing
 o x
 album s
au x
 For mer
Whe ther
 med ian
rodu ction
 Brad ley
 lay out
 disc our
 Pr inc
 H ills
 F el
 l au
 8 8
re nder
 Gl ass
 ult ra
Gener al
 shif ts
amp s
 incent ive
 C ut
 direct ory
 Le af
J ames
 C arson
st age
 entreprene urs
 B uy
 v ibr
 Hind u
 magn itude
M al
 jump ing
A lex
ast ically
Is lam
 C ass
 smart phones
 O liver
k h
 compar able
 clim bing
w idth
 Indones ia
 arrange ment
 whe els
 path s
 termin al
 S M
ess ional
 pil ots
dri ven
 midfield er
 incent ives
 d irt
 M M
 spec ified
 except ions
 adequ ate
t able
 sn aps
 mon op
 coc aine
ace utical
U I
 psych ology
p ur
 pe oples
ord able
arth y
 pre liminary
 c ents
 Sen ior
 Mc L
 A B
 L ED
 part ial
 gl ob
 Ver izon
200 9
 Ver mont
ch a
 P ence
 scream ing
 lyr ics
 Sol ar
 vis a
ill o
 B JP
u cc
 transl ated
 firm ly
ir k
 ch ains
j ar
 gen et
 Trib une
G od
 introdu cing
 trans f
 reg ards
 connect ing
 counterpart s
 am end
 ac res
 cr icket
 b ust
 St re
 F ab
> >>
 J oy
d ad
an ium
 G onz
 appeal ing
amb ling
 un st
 Friend s
 me als
 un rest
W A
 Count ry
 wild life
b ull
é mon
M ake
1 20
 d ivers
 S ox
 : :
oc c
 trad itions
 threat en
 T ob
 p upp
 creat ors
l ie
� �
 vac ation
St art
 sens ors
 like lihood
 Book s
 determin ation
 comment ed
 an ime
ias m
 tri ple
 tr ace
 conv inc
umb ling
c end
 match ing
 Prof ile
 count ed
  �
 bet ray
iv ic
erv ation
 prec ious
res a
 P AC
 to y
 pl aint
ri en
 Belg ium
� �
 sc ulpt
 motor cy
 par agraph
 she er
 Leban on
ul ative
 invest or
 kill s
 le agues
 endors ed
N ET
 licens ing
 accur ately
 C her
 Ar thur
Russ ia
 tw ist
 shif ting
 AM D
 N ixon
O V
 fold er
 Cow boys
lud e
 B Y
W est
 disappoint ing
ian g
ate ur
 avoid ing
 comp assion
te es
at on
i ots
ack er
 j ew
 gr ain
 prohib ited
 19 20
 m erc
 Brazil ian
 G arc
 R osen
ugg ed
pr ing
 Argent ina
 work force
 account ing
U PDATE
 R ams
 H unt
 sp are
 N in
 n it
 proceed ings
p se
 Univers al
 f ict
 Eb ola
 r iot
 length y
 sl aves
 We iss
 Polit ical
ri ving
 dub bed
ur l
ell ar
 in mates
 ment ally
b ling
 sh aped
 fundra ising
 over look
O ct
 touchdown s
 celebr ity
w art
oc aly
 198 1
 she d
 mar ine
 ind irect
 willing ness
ke es
 d ivid
ale y
H D
aff e
 int u
 Bro s
 severe ly
ul um
OS T
 gener ating
 establ ishing
G reen
if ting
 should ers
 negoti ate
 Ser ge
 implement ing
t or
Euro pe
 p owder
 renew ed
 Fin ance
R ich
red ict
 consum ed
 swim ming
 b ite
 creat ivity
 Q aeda
 rel ating
J ack
 se ctors
r ament
v als
 fire f
 certific ate
 Gl enn
k g
 Ph one
� �
 M ort
 assum ptions
ss on
ak u
l en
ubl in
  �
D ay
pe ople
 interact ive
S ometimes
ios ity
 obs erve
au er
 P L
l ash
S ON
 trad em
 G ates
 accomp any
ull ivan
 aver aged
 ref lection
it ated
 h ij
RE AD
H igh
iox ide
 bra ve
u ced
 sa il
 roy al
 M ust
� �
 dis k
ant o
 An im
 affect ing
is ible
R ober
 L ane
out ube
d ays
 film ing
 wor n
at ers
 black s
 T ell
 fol k
Ch ris
 Ar men
 ind igenous
 earthqu ake
 p ub
qu al
 subsc ription
 t ub
 B ond
 consult ant
 mount ed
 adapt ation
 clin ic
 det ection
 7 9
ol utions
ro se
 An ne
 compat ible
 Mar co
 Mil waukee
 rep ublic
 Cl ar
as i
ac ious
eng u
 rec alls
 y e
 1 30
olph ins
 f uels
 cor ners
 special ist
B rit
 esc aped
 High way
 di abetes
G erman
 196 7
 wood en
 adjust ed
 M ason
 tri umph
 predict ions
 C elt
 sl ip
 imp ress
i ology
oot ing
 problem atic
 E c
 less er
 ad mission
 N ex
 liter ary
 far ming
 A ve
 trans cript
n ik
 mar ry
in os
 m aker
 laws uits
 aggress ion
 Bl ues
 orig ins
 C reek
 Col omb
ett a
 H um
ab ul
 he aling
 aud it
 contin ent
 Bull s
 tr ap
 Ger mans
 1 10
W H
 h oly
 Dou glas
 desc ript
 where ver
 music ians
ec hes
cl osure
 R C
 Gold man
iss a
he w
 v on
S uper
 � �
 B B
 under way
al ph
 mort ality
 Re ading
ne ath
et ing
 eval uation
bl og
orn s
 p ants
 ab used
ig m
as a
 Gall ery
 vulner ability
 bankrupt cy
 super hero
 del ays
 P arenthood
 res et
 le ather
 le af
W rit
 sh ore
 independ ently
mun ition
RE L
 ve to
oca ust
 sk illed
Russ ian
ig nt
h al
 tim eline
Mus lim
 Sp ider
T or
 le aks
ili ation
 inter cept
 V A
 resign ation
 in ch
 su its
act ic
 w reck
 cy cling
 S W
 Bron cos
 dark ness
 18 0
 organ ize
 sw ift
 Super man
 sher iff
ail and
 Bern ard
ather ine
ra pe
 after wards
 S or
9 00
 res ume
 se iz
 support ive
lev ant
es ity
P N
 shoot ings
mar ks
 S omething
 in appropriate
 J oh
 form ing
 19 40
 laugh ing
 behavi ors
T unes
se lling
iss ance
ah n
 altern ate
 I l
umb l
 S ad
pe red
light s
 un anim
 test ified
 Is a
 reb ell
 196 8
 pract ically
 es p
ugg ing
 Bud get
 broad band
 T ry
 thorough ly
 cr ashed
 ins ists
 teen age
 L ock
 s ie
 b ind
 dis advant
 labor atory
 pre st
row th
 John ny
 doct rine
 enc ryption
 un e
 Ex change
 cons olid
bl ack
 k ernel
i op
 Vik ings
 Al f
 loc ally
Americ ans
 out break
ur u
 exha ust
 G ate
 off shore
 sound ed
ke ys
et e
 exp ose
 ap ology
 Q B
 Re ed
 out fit
C OM
be an
IT Y
 colon ial
 M ember
ri el
 autonom ous
� �
 corpor ation
 cost ly
dis play
 pro x
 ne at
 photograp her
add y
 gr ay
 analys es
 kill ings
f our
 Sp encer
ill ery
un s
C ity
 demonst rations
 chart s
 L iving
 int end
ap y
 reason ing
 class ical
 dem on
 mob il
 ed ges
 Palest ine
 attack er
 W R
epend ence
ir i
 veget ables
 inf er
w er
 c m
 Se ah
 he d
 mat ched
 emb assy
 purch asing
 lect ure
lement ary
fund ed
 Ag ree
ID S
 swit ched
 F at
 K och
M ike
 loc als
 Wal ter
 In v
 D iam
 l ap
pro of
 r ated
 oblig ation
oc ity
j e
 gar bage
ab ad
 stat ue
 System s
 straight forward
2 000
 god s
it is
 elabor ate
 bus es
u um
 L ess
ã o
 fl owers
 territ ories
 portfol io
 197 6
 h alt
 B ased
 Bet ween
cul es
ocument ed
 10 1
 inf amous
 tra uma
 o h
le m
 L oad
 Michel le
 M erc
 unf old
 S oul
 or che
 air line
op ing
ion ed
oub ted
re ach
g el
 T ory
 priv ately
B it
az ed
cc a
ignt y
ph p
 Em ploy
 M MA
 s isters
 deal ers
 bes ides
 Hom eland
Every one
  ^
 K ind
 A qu
 S el
 pe pper
S uch
 l oving
 Un it
 f ame
 o d
 frust rating
 accommod ate
 Mu hammad
ik ing
 med ication
 ath lete
 for ums
 197 5
� �
 n uts
 att ributes
A v
 pred omin
h is
 V eter
 Den mark
As ked
 he ter
) (
ro lling
 B uild
M I
n en
 Com ics
 G ear
n ames
 rank ings
 clos ure
z i
ort ions
 lim iting
 mod es
pe lled
 strik er
 9 8
n esty
 sear ches
 s ink
v iol
 imag ined
 Cal gary
C R
 8 1
 withdraw al
 d ated
 e ighth
 qu ery
writ ing
 L uck
 effect iveness
resp ons
 st ays
 obser vers
 Sub scribe
 N umber
 int ake
 sp ill
 m ph
m ant
 d ioxide
oth y
 car riers
 Sh adow
 W ATCH
 enthus iasm
 gr at
 wh ilst
 unc ons
 con vey
p rom
 mis leading
 197 3
S M
 Rel ations
 publ ishers
 measure ments
 H at
 Move ment
 substant ially
 nom inated
sh irt
ig a
 histor ian
 Har rison
 H em
ov ic
 K el
 list ing
 Conf eder
Art icle
 str ings
 G PS
 qual ities
 B uzz
 delic ious
� �
 lock er
 respons ibilities
 d angers
 exam ination
 hung ry
B ay
 Br un
 diagn osis
 d ash
 ple a
 Pal in
D oes
 h ood
 d rought
 ex agger
n ational
 P T
 R ace
ro ots
 w and
 discl ose
ab el
 Te h
 A CL
 H ud
P oint
 rev ised
ul u
 rel ies
… ”
 diff er
 inev itably
S emit
 blood y
 mem orial
 vol umes
 ign oring
 c her
 Up date
 R ico
min ation
 loyal ty
he lp
 8 4
iz ont
 vari ations
 shut down
OR T
 maintain s
 Soft ware
 ent ries
 Carl os
 am munition
 197 2
Look ing
 J a
p it
 symbol s
 Bl air
 W oman
Ag ain
 p orts
A K
 your s
 friends hip
 8 3
w ear
ol an
 p ile
 class room
 c od
 al tered
 dem ographic
m ines
ins ula
 occur ring
 phot ography
 Vill age
 A my
L ife
 D ennis
 trib al
 qu ad
ING TON
osit ory
D ep
 algorith ms
ential s
 h orses
 former ly
ic he
 redu ces
 fundament ally
 brief ing
 fulf ill
 me g
 Plan ned
h ole
 p seud
 inhab it
 P as
 rap ed
 celebr ating
 ves sel
 hero in
d el
 Brook s
 desper ately
art isan
 gall ery
 met res
 Wall ace
 sk ull
 L isa
 D R
ft en
 mid st
li ent
 Trans portation
IN E
 b ikes
 GM T
 rein for
rep resent
 disp ens
 de leted
we alth
com m
 un limited
 197 8
 sac red
 M i
 out door
 sh y
 arch ae
 H ockey
 Sunn i
 new est
 decl ining
id ges
 belong s
A c
 P ast
-- ---
 ins ure
 spect acular
 pres cription
 f iber
 exerc ises
 G it
 ju ice
 express ing
AR D
 mod ules
R et
Q aeda
 account ability
 Liber als
 schem es
 A ld
 Raid ers
let ter
 Ter ror
 p ipe
 gar age
R ob
 govern ance
al so
 f lesh
 t ribute
 consum e
ur ring
Ind eed
 rub ber
IT H
h ner
 Ed wards
oc ide
 president s
 lineback er
 w ip
it ial
 arr anged
aret te
as se
 P ick
 M C
 ch ase
 sh apes
 fil med
RE S
 bed room
put ed
App le
 Pok émon
 R ou
 sol ved
 She l
 8 6
 Seah awks
rem lin
 a ide
 pro c
d b
 n odes
ag ging
 re ception
 M ueller
 conf using
 play back
heim er
uk i
 billion aire
 accident ally
 A gr
 man e
 Ch apter
oubted ly
pp o
 b inding
 Jenn ifer
p ic
al in
 B us
irt ual
C opyright
 l oses
 r age
 perman ently
uls ion
run ner
 W onder
b led
 to ys
200 8
S l
y d
 exhib ition
A ng
 un le
 Ser ver
 san ct
 Co ach
 Sil icon
 misc onduct
 spir its
ane ous
 9 6
 w ounds
 med al
 bo ats
L D
 th umb
work ing
 L ost
ch air
 fresh man
 F ly
 vig il
 l uc
 pre jud
 sell s
 F ame
 consider ably
 Phot ograph
 demonst rates
 D ublin
 g rey
 R ah
 last ing
 S i
 strict ly
 sh ipped
 man ages
 Sh ar
 chem istry
on ge
 regul ate
 fin als
ct ive
 milit ant
 label ed
 8 7
re ated
deg ree
C r
 fin es
 toler ance
 t ier
 Tr uth
 N PR
m el
om o
 skept ical
Ph ot
 except ional
 sp ite
L eg
 fan cy
 Malays ia
 sc ram
r ong
M er
ie val
 lin ear
 Ur ban
ung le
 stre ams
Pro f
 P ad
 Ch ile
 Aut o
 For um
 Z ion
 puzz le
 St ring
 reason ably
 P ere
 R oth
 ins ur
 tack les
 cance lled
 den ying
 J uan
S an
M at
pro v
 pit cher
M icro
 9 7
A ug
 process ed
 G and
 D od
 Her o
 love ly
sp ace
A uthor
 V iol
form ing
 R at
 mid night
 ret rie
 Res ources
 Oper ation
th irds
 sp ends
 rest ored
 organiz ers
man uel
 mon ument
 un acceptable
p x
 sub mar
 Y ears
 tun ed
 genuine ly
 teen agers
 qu o
olute ly
 Pal ace
 R ush
 Ar n
 facilit ate
 m ature
 C ond
 F ile
 f oul
 Represent atives
 d ancing
 rel ate
bor ough
 out lined
 T ill
 Bill y
 ad vers
 autom ated
 oblig ations
 sexual ity
 div isions
 ext ends
 tour ism
 surve ys
 McC arthy
ou st
ret ion
 le ap
 i Tunes
th s
 C art
 Th ailand
II I
E v
 success or
E arly
B ER
ow een
id o
 Ch arg
 Benn ett
 spot light
 Sh ield
 M ack
 � �
T ur
 anonym ity
in ery
 in ability
 defin ing
 ab oard
 N DP
 tw in
 Z ero
 Rich mond
eg u
 D M
 recommend ation
 under neath
in ate
 In valid
ai ro
 dr illing
ri pp
 Sp urs
� �
ex p
 gener ic
ist ically
 subject ed
 hear ings
 battle field
 p ound
 inc umb
 sn ap
ES S
clus ion
 Cz ech
 Griff in
 G ay
 se ct
 spe eches
w ick
ap or
 consist ency
 Ob viously
 vict ories
 F ast
 G B
S ur
 Bet ter
 Ret urn
 Bang l
head ed
 Ch amber
 p iv
 H ope
 contract ors
 Chron icle
 n ort
 cor rid
 Se ven
 l ined
 ris en
cl osed
 gu ilt
rane an
 tong ue
 over haul
 inc oming
 Com merce
m ile
ai res
ed ge
 ad verse
 M aj
 prem iere
 par ade
 S elf
 sal aries
 Rec ord
P H
 El sa
 trave lling
 con cess
 S ay
 Be yond
 Cle an
 L LC
 Bre itbart
m os
 ste pping
 Soc cer
M em
 name ly
 embr aced
 frank ly
 disc on
 render ing
hold er
 So on
w rite
” —
 transl ate
 F itz
 Tit le
 Acc ount
 S L
 m elt
 confident ial
out e
ant i
 pl ates
 0 2
 exhib it
 confront ed
 196 9
b ad
 Q atar
 Be g
 d ive
 b inary
 analy zed
  �
ic ers
 tact ical
 def ic
 art if
{ \
bs ite
 l iability
 Work ers
� �
 em power
 Pack ers
 Hur ricane
 Elect ric
 G P
f eed
 bureau crat
 P un
Down load
 stro ke
O H
 Sur vey
c ill
 un ited
 function ing
ag ged
 g ard
 C ape
 res ur
ier ra
os i
acc ur
 d ot
 arri ves
 B agh
 lic enses
 r ings
 Cub an
 part isan
 don ate
H ouse
 Pr int
 M all
 m ate
 back lash
 vend ors
 Bry ant
le tt
k ill
 M VP
 doub ts
g reen
uster ity
 H alf
te am
 steal ing
 sign atures
 c argo
 fel ony
 v ib
 I v
ling ton
 N A
 G reens
 grocer y
 S F
 ML B
ming ham
 cloud s
 j ack
 public ations
 casual ties
 9 11
 aut ism
 p ale
 negoti ating
 coast al
greg ation
IF A
 Stud y
 R AM
 G as
 object ives
 9 3
 ment ions
и �
 gl ory
d isc
 sovere ignty
 electron ics
 defend ants
ang o
IG HT
 ret ro
or ity
 H BO
= ”
 > >
 prem ier
? !
 Met hod
 liber tarian
 ind ef
 Tit an
 int ens
 S A
Fr ank
 Sh ah
 Ice land
 arrange ments
 AL L
 Reg ional
 p ad
ick ets
 ves sels
 art ic
 hon our
 K ill
ut ing
 enc rypt
 ac ute
i pt
 fl ows
 Def ence
 S ent
 discl osed
 sport ing
 lack s
 fort un
ocrat s
ron es
T im
f ar
B E
 pre season
 necess ity
 S earch
 prop ri
ul ator
 { \
EC T
 Brother s
 B obby
 u seless
 un ch
 pret end
 out let
 197 7
 cl arity
 he al
 convinc ing
ent ions
 legisl ators
 im pe
 catch ing
 T ib
orient ed
 Barb ara
 dign ity
there um
  **
 determin ing
 utter ly
 protect ive
 L E
az ines
 r am
 tw elve
 c ute
u ity
 stimul us
pl ess
 legit im
 character ized
 bl own
 d ense
ter ior
 market place
 Att ack
 s lic
S ports
 t ube
 spons ors
 theoret ical
 R ic
 Nob ody
 l ighter
 has h
S and
 spe lls
 c ure
raw l
 Be ast
 hun ger
Post ed
 Sim ilarly
Cl ass
 flood ing
 adap ted
 Event ually
om atic
 E rd
O O
 Phill ips
us hing
 Brown s
E vent
V R
uff icient
or us
W ind
 9 2
 gen ius
aug hed
 prev ention
 Fr an
 C OM
F R
 eru pt
z h
 se am
 Col on
k ens
 switch ing
W ashington
 evolution ary
 m all
 fore sts
 But ler
ak y
lick r
AN T
 B P
const itutional
 en abling
  __
 mus cles
  с
um ns
 T igers
 glass es
 comple ting
� �
pl ane
 qu arters
 M IT
 197 4
 Sh i
 sens itivity
 antib iot
 N ag
c ost
 Bry an
 O m
atic an
 M ode
 f art
 Al tern
ser ver
  ),
� �
cast le
 ca res
 w are
 J av
 barrel s
F T
ant ing
C are
 achie ving
 Sand y
 mal ware
em ail
 read ily
 explo itation
 mist aken
 table ts
 B R
 affili ate
 met a
 murd ers
 Cl ay
b uilding
 co at
 ad min
 ha ul
 he m
 w it
uten ant
) |
 L ang
 Cast le
 astron aut
 N E
 B ishop
 equ ation
 list ened
E r
 Ob ject
 St op
 jurisd iction
out ed
 deb ris
 dr ill
 subscrib ers
a ired
 reb uild
A FP
 h ind
cont rol
ne x
 Pant hers
 Never theless
 I b
vel t
G S
 trib e
 hold ers
IC K
 Plan et
 V i
 spons or
 c ab
 T ar
 l aughed
 O wn
min ed
 ext ending
ott om
 spec ify
 subscrib ing
 red ist
 In side
 A x
 refere n
 bip artisan
 cool ing
 f ond
 predec essor
 To o
 fr ames
 ins ights
 somet ime
M obile
col or
 Arab ic
 can cel
ri ages
 ref usal
 197 1
' '
 Ed ge
 be aring
 r ats
 cous in
 Im perial
 finan cially
 e leg
c m
 roll s
 up side
 swe ep
b ot
 synd rome
 end e
I X
 not orious
 night mare
 pers ist
 p airs
 du o
 fire arm
 Pr im
 Jam ie
l ay
 swe eping
 pro port
 business man
 Or thodox
ul k
 Le v
 sur pass
 cred ible
 arbit rary
 a ston
 Aust ria
S O
fr ame
 W ii
 B ird
r one
 attack ers
 C u
 F L
 3 50
 c u
 hard est
 N eg
 Ind ex
Con f
 mob ility
.. ."
 m igr
 D awn
 14 0
 re ct
 expect ation
res pect
 associ ations
re amed
 mem or
 neur ons
 Sp ot
 Dou ble
 glob ally
b uild
ash i
 or al
 domin ate
pro du
 review ing
U K
 hydro gen
am y
 new er
P ut
 viol ating
im port
 New ton
 portray ed
ASH INGTON
t ic
 sp at
 char ter
 tre asure
 l ately
 TO DAY
 tour ist
 ter rain
 tr icks
 separ ately
D irect
 inf lamm
agon ist
 endorse ment
 I BM
 deter ior
 v owed
pt ic
 troub led
 Sw ift
 re iter
osp el
 revel ation
� �
 R achel
 D aw
 desc end
 dis ability
 Sud an
n ut
 a ides
 R ud
f in
 apolog ize
 nation ally
 pos es
 nav igate
 bi ology
in ces
 rel ied
 Jul ian
in ho
B uy
t w
 G R
iz ards
am o
 Qu inn
os ures
 settle ments
G reat
 was h
 Mar cus
 p ockets
 Well s
ou g
 � �
 art istic
 Teh ran
h um
at ched
P ublic
 b atch
 commit ting
 c ache
 St ra
t em
he tt
 g au
ar cer
umbl r
p df
th ree
 tourn aments
 Laur a
 B order
 phys ician
 elev ated
 M ul
sy stem
ith ub
 st raw
 pers istent
 bl end
 Contin ued
 prov ing
 a qu
 short age
 decl aring
U P
T er
 C SS
es pecially
 pr ay
 inc on
 Gl obe
ade qu
 ident ities
ah o
AS T
ian ces
H ub
 C ab
ar u
b one
 inter im
 vill ain
 F ish
St ring
 st ark
 Bre ak
un ks
 a ster
 inv isible
 Mach ine
s im
 les bian
 distingu ish
 viol ate
 gal axy
 art work
 Ass istant
 grad uated
 var ied
 exclud ed
00 1
 D ue
 al iens
V er
 over time
S R
 d rown
 Leg end
 defin itive
 over see
 inter section
 K or
 8 9
 pron ounced
 g i
am as
aus ible
Americ a
M ac
ul ates
 run ner
 kick ing
 N ancy
 anal og
ro gen
 rel ent
 acc using
 T her
inf o
 assemb led
t alk
 Cl ose
IM E
 influ ences
 Card inals
 m ush
 ren ov
 pref erences
 Nex us
 ag g
 pre y
 sub way
 ob esity
 N at
 revel ations
U ntil
N ational
 Tra vel
 J ong
 Lad en
uc le
 fort une
ernand ez
 lay ing
 bul lets
" ;
 hel met
mont on
 p sy
 war r
 W ade
 bes ide
 d read
 Se lect
D et
C ong
 Ne ither
 se al
 risk y
 p p
 uns uccess
 T ru
 vary ing
 trib es
 hand y
 impl ies
 ve t
ine z
 sh ower
 toile t
 Aff ordable
 rent al
ose velt
it utes
 M itch
rament o
 B iden
 ban ner
 kilomet ers
 re lying
 B annon
 ne ural
 break through
 favor able
 L uther
 H orn
 Wh atever
 Mem bers
y ang
s cience
 p etro
alth ough
A f
 authent ic
 Dr ag
 tax i
 n urse
in is
 P il
 diss ent
 Fl ight
ra ke
 Class ic
 T arget
 analy ze
 recip es
L ong
 reluct ant
l on
 aim ing
 k icks
 Jo ined
 cred ited
 pat ience
 ins pire
 ur gent
 assass ination
G old
 fam ously
th ird
f ull
In f
L aw
 C M
rit ical
 un aware
 back ers
 p up
rib ly
 J obs
B ill
 Col lect
 prof itable
 cl ause
 W ire
econom ic
 H R
l arg
 volunt ary
 fact ories
 subst itute
 ca ut
 meas uring
 mass acre
 recre ational
Pl ay
 sum mar
omet own
as ma
ac hers
CL A
 pr ayers
off icial
 m ant
 express ions
 trick y
 min im
ü r
B ased
 C BC
lic ation
br aska
 mag azines
 P oly
 text ure
 cy cles
 p uck
 pass ive
 disc ourse
 C ant
app ro
 Yan kees
 V atican
 Ar c
 soc ially
 p ause
 al beit
e very
 Garc ia
 b out
 und oubtedly
ul in
 f isher
 Hispan ic
 star ring
 K remlin
 E ither
Ch ar
he nd
 W inn
so ever
 att ribute
ob i
EL L
om i
 pl un
 mos que
RE E
im ated
O pen
 rece ivers
 crew s
 st icks
 he ated
 prov inces
 M es
 Four th
 Agr icult
 wor ries
ur as
 M ans
se mble
 contract or
 defend ant
 intention ally
us ions
 load ing
 se min
 preced ent
 mem orable
 hy d
 Pet e
  ic
 G rey
 f oster
 Polit ics
 Hol ocaust
 broad ly
er ting
 fit ting
 our s
 satisf action
m us
atern al
J apan
 dynam ics
 blog s
 L ot
 Invest ig
 M B
ful ness
ell ing
 H ait
an ne
 l iv
 fac ial
 buff er
 B ed
he astern
 st er
 Nob el
 mane u
 Prot est
 De al
p ound
 sum mon
 L em
 N EW
 supp lied
c d
 val ued
 Agree ment
 multi player
 9 4
 initi ated
 Sn ap
 Ph D
 str anger
 attract ion
 9 1
With out
 Hall oween
 Al ong
Can ada
 ne o
 Al ice
 disappoint ment
ort ing
 Sam uel
 team mate
 � �
 stick ing
 Ch and
 Work ing
T ex
 Tra il
 A bs
REL ATED
 prov es
 C hen
 sear ched
 Enter prise
g s
K K
head s
 mart ial
 Bir mingham
 swe pt
 med i
 inc omes
S H
 p ars
  q
all ow
ast ing
 P ath
cer pt
 Girl s
 Nash ville
 un lock
 epid emic
á n
 fict ional
 dim ensions
 entreprene ur
 mis under
 Re form
 Chief s
 Fer r
 broad c
 m aj
 Engine ering
 Brew ing
 C our
ost al
 grand father
e em
c ulation
 Israel is
te lling
 param eter
 N ep
 interpre ted
F ire
 theat ers
ain ted
 F inn
ah an
 event ual
 achieve ments
C P
� �
 mod ify
am ation
 domin ance
 flaw s
 Com puter
em ale
 young est
 G A
In tern
 contribut or
 worry ing
 tr ump
terror ism
roph ic
 int act
 S ach
 po le
 D ays
ir med
 S pect
 w ard
 conven ience
 ar ise
P ort
 sub mission
 arch ive
 def ines
 K ath
F ox
 F an
M arch
 pred iction
 fin ale
ced es
d evelop
 sur render
 tact ic
 obst acles
 J oint
in formation
 disc ont
op ular
 philosoph ical
 Base ball
v ised
 mac ro
ment ation
cul us
am bers
 Al b
 bicy cle
 Al most
 en roll
 inf lic
 pr isons
un ique
 mal icious
 ban ning
 B ear
Un like
z illa
L ater
 reven ge
ange red
 nav al
int age
ov ich
 what soever
 K ate
 S old
 sk ip
 national ist
or o
 n er
 entertain ing
 c yn
 Diam ond
 div ine
l ation
 K az
 correl ation
 du pl
 bas eline
 n est
 N HS
 over r
 neighbour hood
 network ing
the m
 she ets
 R ing
 the or
 neutral ity
sc ript
 g aps
 ignor ance
 an k
 tw itter
l ass
ov o
 organ ised
 inter medi
 touch ing
amp ed
 concent rated
Rem ember
\ \
 regul ated
 consult ing
 R aw
 assault ed
ve t
on ies
 Portug al
 opp ression
 c ra
 le thal
c lick
 K os
 r ab
 L an
umb ai
 Be er
 ev olve
 cur s
 An imal
 hor izont
 euro s
ere k
 invent ory
 sa ves
G L
 c um
k n
rav is
le ased
 C ox
ast rous
G R
 ris es
 Pict ures
 design ing
 confront ation
 Hol mes
se arch
 n asty
U lt
Cal if
 dr ain
 import s
 I L
J on
 trans mit
 Mat ter
 to oth
sp oken
 sk i
 Mot ors
 Ro osevelt
 quant ity
 Car ib
 over ly
 crow ded
 G ive
 administ rators
 M E
 mer it
h u
G N
 script s
 US D
 var iant
irl ines
us cript
 inv itation
ok o
 Sur v
 br ick
 W ol
ne apolis
 off enders
 h ated
 don or
 Fire fox
ch ief
as ures
 se aled
 commit ments
 L G
im eter
 Hug hes
Over all
P erson
 b ay
col m
 R PG
 fix es
 196 5
 remem bers
 PD F
 w rist
 Angel a
 cost ume
 Ep isode
m ember
are z
oc o
 nav igation
 196 4
 N athan
� �
gg le
ed uc
 M O
 Rodrig uez
li ers
 comprom ised
 inc arcer
 Pal mer
 Fin land
s qu
 j am
 star ters
ic ating
 free ze
ide os
 c ord
 prec ision
 reject ion
 mathem atical
sh ow
 g re
 cur rencies
 flaw ed
 t ire
est a
 comm em
 belong ing
 Ob serv
our ge
ilit ary
 over th
 n arc
 Y e
 Occup y
anc ies
 Sh aw
 D ise
 cl ash
 pitch ing
 embarrass ing
 rob bery
 hol idays
h ots
 pro xy
 un cle
us hed
 Broad way
 ab uses
 question able
 F oster
 cur ric
 app et
 m ast
se en
ment ioned
bel iev
 present ing
 ble w
 n erve
 Queens land
E xt
 upgr ades
 en v
 dispro portion
 constrain ts
 S ullivan
 ad oles
S um
 Indian apolis
 m im
ri ved
Sm ith
 a pt
 Ch ase
 C op
 rend ered
 infect ions
 stead ily
 S ens
 Boe ing
 remind s
 Dun can
' :
 unc overed
 pharm aceutical
 base ment
 tradem ark
 b ats
 Rod gers
 cont ing
 ball ots
 E RA
 P ubl
Ke ep
ind ex
 C ris
C ount
as ive
W ASHINGTON
R eal
 dig it
 Mont ana
 dist ribute
 opt ed
 S O
 L ore
OM E
 beh ave
 un int
 out look
el er
orig inal
 st iff
� �
rit ies
 manufact ured
 ins ert
 boot s
 grand mother
 at e
 R acing
 an throp
V ID
 Moh ammed
min ster
 comple ment
 pack s
and o
 back wards
 tu ition
less ness
 a usterity
k now
esc ope
 su ited
 K ash
 per ce
 saf egu
 evangel ical
st ick
ic ides
 s ab
 contain ers
 nons ense
 make up
 link ing
 prison er
 download ed
 L l
 off ence
 extrem ist
 C abinet
 Ath let
 thro at
av i
y our
co very
 inj ust
 ch ron
do ing
 int imate
p ol
c all
ew s
j u
 shar ply
 prote ins
 A ven
 cred entials
 correspond ent
 In iti
r aged
Se pt
 C hem
Sc ott
 hot els
 secret ly
 col umns
pl ant
 track ed
 press ures
OR K
 inv alid
  �
 land l
 satell ites
ul ent
 option al
 Ass ange
 hack ed
 bud gets
 qual ifying
 Qu ick
 Bagh dad
G en
 to kens
 comp ounds
 P ink
 l as
� �
 b er
 r ivers
Hill ary
 pun ished
 who ever
sc he
s ocial
 emot ionally
S am
 pl ag
Aust ral
 surv iving
 inject ion
 sol ving
 c ups
iction ary
 res id
 ham mer
child ren
 elimin ating
 Niger ia
 cat tle
 aggress ively
pri v
 Chance llor
 o ven
M o
 manip ulation
 hor izon
 swe at
 laun ches
 lif ting
 Br ig
ll o
 de lete
E mail
et ition
 M ine
 S ierra
ibl ical
 met ric
 bo oth
 subur ban
 P H
com pass
 Stud ents
 Com b
 Ale ppo
se in
D I
 C ell
J une
 Jes se
 Pet erson
 P red
 Alp ha
 hor rific
 Brother hood
 nice ly
pr ises
 extrem ists
l ocal
 conclud es
 brew ery
er als
 amb ul
 mess aging
 : )
N one
 h ilar
 Sac ramento
 Citiz ens
 public ity
 G ot
] )
 President ial
 F IFA
 jo ins
 br ush
 H erald
 recon c
 compl aining
 Z immer
 vac uum
 prev ents
 Bangl adesh
zb ollah
 prem ise
 D A
 Cl in
 r ides
ens on
 dis mant
at isf
l iter
ab i
Up dated
 B elt
ag ain
  �
g om
 S em
 k g
 advis ers
 haz ard
ip se
 just ification
 Cat al
 under go
 anch or
 S ave
 trad es
 He y
 Leg al
In vest
 flo at
 dest ructive
 sle e
F ull
leg al
.’ ”
 o un
 neighb oring
 A round
oot s
 Her itage
 tur b
 ent ers
 M ong
 M I
V A
 pict ured
 An aly
 transf ers
 Sh in
 virt ue
 ref und
 troub ling
 Ch ip
 Cr iminal
 Col in
 fe as
iter ranean
 N ar
iz ers
 acc idents
 Over all
 cor ps
10 1
 sovere ign
 o k
 pur ple
umin um
 annoy ing
w ould
i ological
ertain ly
 record ings
H el
 troub les
 non etheless
 plug in
 un constitutional
 Ed monton
 le ase
 19 45
 ir rit
sp ons
 am ateur
atern ity
 by pass
 Jess ica
worth y
 dis astrous
et a
p ay
ie ve
ain er
 commission ed
clus ive
 MS NBC
U se
 dim ension
T able
gener ation
g reat
 g reed
 commit tees
 compan ion
 H TC
Be ing
 l iver
 Cost a
 te aches
per t
 C av
 C T
 den ies
 Re ally
 p el
 All ah
 0 3
 Z one
 since re
 j acket
 L ic
um atic
ur ious
H ead
 Pict ure
 Pot ter
 in accur
N AS
 D rew
v or
 M urd
 exam ining
oc y
Ob viously
 med itation
 cens orship
if iers
 R ivers
if iable
 Bre nd
 O z
eal ous
 legal ization
 Ant ar
 G round
 in adequ
 Ah med
 prom in
 deli vers
 Act iv
 impl icit
 FO X
b ank
 op io
 Inc re
” :
M ax
 random ly
 calcul ate
 G ore
in ner
T w
ia z
 Chall enge
 priv at
 Bar n
 boss es
 intern ationally
 expl ored
 foreign ers
 unemploy ed
op ic
 h ike
 F ac
 hand gun
 grad uates
o ven
vent ions
oun cing
 E arlier
 integr ate
 D ri
ur ry
 R af
 l azy
K ing
 � �
 cat ches
 cl ashes
 Ne braska
if ully
m ill
 Ar med
 b ans
 A irlines
play ing
at hetic
 for k
d esc
 disp utes
 Im agine
ific ant
 d war
 O P
 irre levant
yl an
augh s
-- -----
we b
[ /
 L ives
 Tele graph
• �
 B ald
� •
 accord ance
e ment
b oth
 retain ed
 def enses
 cig arettes
 adj acent
ophob ia
av ailable
F I
 e rect
r us
h ad
 comp act
uff y
 land mark
 Clar ke
ust ain
p os
B o
 H E
ig s
 encour ages
M uch
min ent
ver ted
l ength
 16 0
m ount
 Prin cess
r ams
J im
 Ev il
 sub t
 nin th
uff ed
Hist ory
 ch unk
 Current ly
 Comm ander
 prop ose
 � �
 terr ifying
 stri pped
 Z ach
 hyp oc
 int ends
AA A
 light ning
 W ing
 discon nect
qu ire
os ity
 stud ios
 K er
 mole cules
Te am
 real ised
 calcul ations
 M aur
L ear
 san ction
 Cub s
 Naz is
 campaign ing
 far mer
 enact ed
 R u
 over head
 toug her
omet er
 intrig uing
 cal ories
ig ue
 aff irm
 recru ited
 kn ees
B ron
N E
 sc are
 conf erences
 investig ative
 clar ify
 Pro cess
 econom ically
 dep ict
 she ep
 att ach
 subst ances
undred s
] ;
 pro long
 dr agon
ograp her
 symb olic
ar in
 r ugby
 prof iles
 social ism
 crit ique
 mor ality
 Week ly
 D ynam
 co pper
 gu ided
 We ather
 cent res
h or
 homosexual ity
 flow ing
 coll ision
 P owell
M att
 load s
 pres erved
 st ones
 F am
 Boe hner
 sl ice
 place ment
 V oice
 > >>
 unw illing
 assess ed
ond e
 norm s
 K an
it ations
 prosper ity
 n aming
 proceed s
 furn iture
 cou pled
anche z
p her
 C and
 Tib et
 Pro s
by e
 special ized
 hed ge
imp se
 not ified
 a ug
om ers
 Sen ators
V M
 gl impse
ok ia
 relig ions
 ple asant
 imag ery
ograph ical
 J ar
 subur bs
 Eff ect
en z
 T u
 sequ ences
 simpl er
 fif ty
 v ag
c urrent
 deliber ate
 crit ically
 Tr aining
 fav ored
 expl oded
 Be aut
ok u
 F ight
 ch airs
 porn ography
pe ction
 P ic
 Jo el
 ind ie
izz ard
 Steven s
 Carib bean
> <
 T ogether
J uly
 or b
 he y
 Alex and
ri ans
 drag ged
 U ser
' )
 sket ch
 cryptocur rency
 Hung ary
 pot ent
 mind set
 tri o
 ref uses
 offer ings
 encoun ters
 C ulture
 l ending
 h ometown
 M ana
 Med iterranean
 Any one
ident ified
 revers ed
at able
 pack aging
 12 5
 sc al
 emphas ized
i ably
 Z en
 incorpor ated
lin ing
 sc roll
 fl ower
 real ise
 G am
M D
 Mil an
 inc om
 en velop
os ph
et on
 gl ance
 0 7
imens ional
id i
 cur b
 gest ure
ues e
F eb
 disc retion
 dis gr
� �
on est
 st ole
E nd
F il
 bre ed
ost ic
AM E
 travel s
 tal ents
ul ously
ud a
 thr illed
 Erd ogan
u art
� �
 P in
d eb
oll o
 turn out
 cop e
ke ll
cont ent
 l ing
il ia
 a irst
 contin ually
 E ight
A pril
gh ai
 Min neapolis
 cance led
 indict ment
 any time
 strength s
ed In
 min ers
 Cons ider
a q
Un ited
 B ak
 M ull
 Imm igration
 � �
per ty
 der iv
ens en
 contrad ict
F eed
 m old
 K ay
mer cial
k ers
 father s
m und
 commun ist
 share holders
 Ed die
iber al
J eff
 Mus k
1 30
 cont empt
P ower
ous ands
and ing
 ha un
 M umbai
 GO OD
 A G
OS E
E U
rik es
 account ed
 res il
 rest rain
 flee ing
 des ires
yn c
asc us
 thread s
 decent ral
 Lu is
 Europe ans
 Priv acy
 D ian
 applic able
 tow ers
 ind ivid
 9 00
 g ambling
 te lev
 T ouch
B rien
. ).
 has ht
 vo iced
ug ar
 Id e
 reb ounds
e ep
ad ian
 T ask
 M eg
 lack ed
 su cc
 pract icing
us c
 Str ong
 Pal m
m atic
am pton
 order ing
 not ification
 d airy
 fact ions
 import ed
on al
 overwhelming ly
 habit at
 � �
 head er
 dict ators
it ted
 Look ing
P ac
k ar
é e
ol ics
 ref res
 critic ised
 W es
 man uscript
 el ites
 scholars hip
h at
 M ath
 ins pection
 Mc D
 dep icted
F ile
re cy
um ar
s ight
 D im
an ies
ask et
 sw ap
 B aby
T Y
 E thereum
 Th ai
 fru its
ny der
 Mart inez
sh aped
gr at
charg ed
 prec ip
ch ant
 M aking
 Gib son
on ut
 tr im
 predict able
 measure ment
 conv ictions
 J ared
Micro soft
 collect ions
 J ed
 Cast ro
 Hel p
ac cess
 Ch an
 sur plus
 femin ism
 ra ids
O kay
 was ted
 activ ated
 Co ff
 org ans
 Lat ino
 Un ity
 fe ver
 dist ress
tr ue
 su ite
ab lo
 column ist
 whe at
P ass
 ab ortions
 HT TP
 finger print
 poet ry
V I
 Wood s
s n
 l ips
 K in
 iss uing
 depos its
 E P
em et
um my
gh azi
 forth coming
 B att
 activ ation
sec ution
 be ans
 L akers
 C ou
 j ets
 un law
 appreci ated
 t ender
 le ver
 satisf y
xx x
C all
 purs ued
 off s
 B esides
 rall ies
 N ine
 const itute
 Y ellow
 we aker
 progress ion
 Adv anced
y on
Rober t
H ello
ON E
 ru in
 sup reme
 lit igation
 cons cience
p resident
 h urd
 fin ances
 ch ick
 Light ning
 comp iler
 Dem ocracy
 j unk
 amb ig
 An a
Sh ort
 Tex ans
J oe
 d awn
 fre el
 crack down
 Mer cedes
 be ast
 schol ar
 m g
gom ery
 post ers
 Jeff rey
otten ham
ib les
 efficient ly
 wh oles
 elect ro
 M ade
 D w
 Norm an
 E S
 H ig
ft y
 s id
 C urt
s omething
ce ans
 obsc ure
 kilomet res
s un
v oc
 hel m
 guarant ees
 car ing
L ab
 Sum mit
 Tra ff
 Mag n
 D I
n ia
200 7
M ad
 Ad ded
 uncons cious
 mo ist
 S au
 Vis it
 Labor atory
 start ups
 Point s
 activ ism
 Stud ent
� �
 neg lig
 Toy ota
ys on
b augh
iment al
 need ing
 confir ms
ateg ory
 O pt
 des cent
 F o
 K enn
le ague
AS S
 liber ties
 inf inite
 g ly
UL L
 concent rations
 b ored
 sc attered
 according ly
 threat ens
 install ing
 d un
 C it
 A ub
 0 9
 rock ets
 Creat ive
m ax
 ro oted
 sec uring
 wood s
 instruct ed
 hy pe
 pass port
 Hud son
 port rait
 dis hes
 NY C
 ir ony
 got ta
 Gand hi
 inf ilt
 B omb
p aid
 unh appy
 transport ed
 assert ion
 fix ing
 Fred er
D el
 Can cer
 Ah mad
 wat ches
 r abb
 d ining
ogen ic
 man ually
 ch im
ing le
 cry stal
 custom s
 int ensive
 cont race
 Stat istics
am mar
B ro
 profess ors
oul os
 pat ents
est on
raw ling
 Marg aret
11 1
 assign ment
os aur
 L ion
 You th
 und ocumented
 sp here
 C ool
ess age
 W alt
 remain der
 Mos ul
 I R
own er
AC E
 Spr ings
 He zbollah
 196 6
 B apt
 Boy s
 shout ing
 he ating
uck ed
ris k
 Ch ad
 Inter ior
 celeb rities
 S K
 W ang
 tra ject
 survey ed
 T ree
 project ions
 C P
 en vision
 sh ark
 post season
g ue
 ge omet
 react or
 dis gu
 c abin
arm ing
els h
 sl ated
 marg ins
 bull ying
 L arge
AC T
ys ical
 mix ing
 r ou
 l i
 t ennis
 system atic
 Squ ad
 N ad
 eas iest
 background s
ers ed
 vacc ines
 sound track
 gr im
 favor ites
 Mon ster
 min es
 ment ality
 Mov ie
 commod ity
erv ice
 in k
 B anks
 dig est
 conce aled
 academ ics
N on
cl ub
 apart ments
 Id ent
с т
Ind ia
 aer ial
 su e
� �
 be ats
 advent ures
 pr one
 d ug
g irl
 BM W
F ive
 w ra
 batt ling
 H im
 Com cast
h art
 forg ot
 L ower
 dress ing
12 5
 m ud
 m apping
ik o
 tou ches
_ {
 grass roots
 come back
Ph il
S il
 bl ade
 dis puted
 G aming
 Com ic
ach t
r ising
j pg
b b
 Pri or
emet ery
 met eor
A E
 0 8
 D rop
C re
 he els
 c aucus
 ( £
 promot ional
.' "
 0 4
 park ed
 fl ies
 ch rom
 H onda
 c ables
 sm iling
 shout ed
 appreci ation
 P etro
 Y ale
 Mal colm
 continu ously
 l ied
 dist urb
 Ne uro
id ity
ix els
 nut rition
 flags hip
 sl aughter
 ble eding
 s od
agg ering
 Oper ations
 indic ator
 gas oline
 ca f
ens ed
b ra
 hand les
ph is
 displ aced
 an om
 Form ula
 Te levision
 dep uties
st ud
 sc i
 remote ly
 mathem atics
 � �
 sc ales
 rhyth m
 Ken ya
 sh oe
 m i
 trop ical
 col ony
sh it
z el
es ville
M E
ab lish
 Ab raham
 F alls
 Ind ependence
 A K
at ility
 m ol
 str angers
 se gments
atch ing
 multi pl
 Col lection
 ( -
 mount ing
 w ield
 staff ers
 P ract
 gen ocide
 Dam ascus
S N
 ver bal
 Belg ian
 polic ing
 acc laim
ot er
mid t
 imm unity
 fl ames
 Fin als
 ill usion
 K o
 Ben ghazi
l isted
 Vin cent
 M ons
 l inem
w age
 Cry stal
 d ough
on gh
or ically
 stat ute
 dis reg
 cle aring
 unp redict
 St rip
 sh ook
 M is
Qu est
 Sim p
 pull s
im g
 dig ging
 prompt ing
 Some one
 ic ons
 compet itor
W W
 port ions
 inherent ly
 character istic
 g orge
 u pt
ig ion
 connect ivity
 compar isons
 br idges
el ed
 Car r
 bench mark
ipe g
ro v
ch t
AS E
 196 3
f ix
ad itional
 We ap
th reat
 affili ated
 M end
 Co in
 X i
 Wh ats
 amb itions
Christ ian
 W a
 to pped
 Br ain
 Raven s
 Br ight
 sh aking
 D elta
 certain ty
 small est
 cent ered
 M ini
w ait
r ise
ar se
 car n
 behavior al
 cro re
P age
 bl unt
 B ren
W omen
cific ally
 New castle
 Major ity
Ste ve
 d are
 Tom my
OU R
 synt ax
 dispos al
 Hop efully
 Initi ative
yn asty
lud ed
 applic ants
 Cont ent
ud ed
run ning
 pit ched
 fortun ate
 w ished
OR D
 music ian
 up hold
 W ITH
 Up on
Ed itor
 med ieval
 C ash
 wild ly
 impact ed
 reprodu ctive
 TH IS
gg ing
 A er
 Sat an
 storm s
 st ap
 dis ruption
 Sch olar
Ob ject
 pit ches
le en
ö r
 view er
 we ighed
 B ody
 contribut ors
C AR
C onst
 gl ac
 at op
 G raph
 C opyright
 ur anium
 Portug uese
s ay
we gian
 anx ious
 | |
 cook ed
 App arently
 foot print
 d ent
 be es
 h ipp
 R ank
he art
 amend ments
ot ive
c amp
igg s
 aest hetic
 Coun ter
n ar
 Wal mart
sh aring
T ext
 st ub
 A CC
 0 5
 aver aging
 W ere
 eat en
ean or
 H ERE
 st int
tit le
ich t
 adjust ments
” ).
é t
s ite
 we ed
 my st
or um
ong yang
 st akes
 Re yn
 prior it
 as leep
h h
 ve ctor
 W ings
 Em peror
í a
ur ally
 theat re
 Arch itect
p ical
 individ ually
 em pir
 im minent
he y
ow itz
 rep ository
s u
 faith ful
 pat ches
B as
 phys ic
 sh adows
 r ipped
 cinem a
 R ule
akes pe
 p und
G C
 advis ory
 e go
 des erved
 con grat
 attend ees
 St alin
et ooth
V is
 st aring
 Indust ry
 K i
 fe ather
 Other wise
Every thing
 D anish
3 50
 found ations
ra vel
 sp ont
 cru ise
 demonst rators
 r anges
b ach
d ollar
 Legisl ature
P eter
n c
 M ob
 H S
F ore
 recover ing
 Val ent
 Car roll
 cand y
 sufficient ly
 B ills
 dep osit
ope z
 M ann
 que ue
 distinct ive
 Crime a
} ,
 ju ven
 inspir ing
 car b
 legitim acy
 S id
 cl ue
ad ata
 p add
 bon uses
 jail ed
 S QL
chn ology
 j azz
 cert ified
,' '
 n ucle
 cr ap
 rail way
 que en
 Reds kins
 hier archy
T T
 und erest
 histor ians
” ?
 clim bed
 S ale
 K urt
 Im pro
bro ok
 al erts
 incumb ent
 metab ol
 n ail
 Colomb ia
 supp ress
 Gr an
 adjust ment
 pl ausible
gu ard
ould er
ult z
 un believ
om ore
 c age
 R A
 Met al
 par as
 Le ave
 suprem ac
Not es
 cr ashes
 Ult imate
 rein force
 ab usive
 Cons umer
 cook ies
 phys icians
pect ives
 Gener ation
 t ide
 e cl
um per
im ity
 explan ations
 B ent
 a fore
 min imize
 W E
 cont ender
 ut ilities
 she lf
erv ative
 amb ition
 imprison ment
 blow ing
op oulos
 neg lect
T est
% ),
 found ers
 H az
 D ame
1 000
S ure
 resc ued
 off enses
 position ed
 Id aho
orth y
 zomb ie
S w
 E t
 light ly
 consult ation
 R O
 vel ocity
g ow
 met er
 sc am
 direct ing
 Shan ghai
 cig arette
 elect orate
 deleg ation
 Cre ate
 Simp son
 Common wealth
 flav ors
M ENT
min ing
Any one
 gi ants
st ation
als h
 de ar
 Ch ampion
 Per formance
 motorcy cle
 West minster
 boy cott
 N ut
 answ ering
 by tes
 ( +
H ome
 educ ate
 sie ge
 K il
 G N
t ax
 box ing
 huge ly
 incorpor ate
� �
 V M
 The ory
! !!
 persu ade
 mor ph
 promot ions
 S witch
 u m
 explo ited
 Leon ard
ob a
 v icious
 al igned
 Col ts
 Lim ited
 p ork
 half way
uter te
n els
 row s
 S anchez
 M asters
ne ed
 F ix
 run ners
 ab rupt
an as
 f reed
ing rich
 lad der
 t a
osh i
 Arm strong
 K end
prising ly
 collect ively
AR K
 X L
 sim ulation
 M oss
� �
 ch asing
Sp ace
h aw
 off line
ason able
 app ar
 luc rative
 gener ates
R ad
 integr al
 Int egr
 S ie
 recogn ised
d est
 show case
am on
er ness
ash a
 W or
 dies el
C le
 consist ing
 P orter
 K ane
akespe are
 access ed
 absor b
 plant ed
 element ary
 autonom y
� �
l av
 W ant
 Es pecially
 sli pped
 fif teen
ere rs
 associ ates
 Sc he
 Social ist
I ES
 b ru
 opt imal
 O culus
 U CLA
 A F
 curric ulum
 M ut
ew ay
 milit ia
 Steel ers
 jer sey
 cere mon
 An alysis
 p iano
R yan
 low ered
Pro t
 mar riages
olit ics
 Confeder ate
 .. ..
 sp ike
al one
per m
 M ol
 Le x
 K aren
 Can n
 man a
 Priv ate
am iliar
 acc ent
 S B
ber ger
asc ript
I ran
ad ays
 negoti ated
 adv ancing
 s oup
 op ener
 ancest ors
 tri v
Ass ad
 po em
� �
� �
 w itch
ra f
 Em ir
 Str ateg
c ourt
ef e
 appeal ed
b us
He alth
 author itarian
 d orm
att ack
 eff ic
 D j
ie ce
 recruit ment
a que
M ap
 match up
 � �
 bl at
 quant ities
 br on
ale z
� �
 slow ed
 pist ol
 S add
 I Q
occ up
 port able
 satisf ying
 manip ulate
 Q ur
 imp osing
 inhabit ants
um ed
 � �
 quarterback s
 S ri
Cont act
And rew
 “ [
 T on
Tex as
 unp opular
 o w
 bl oc
il itation
 protect s
Re view
 per ipher
 illust rate
� �
 u b
 t ales
 J ama
 al uminum
def ense
 T ravis
b as
 loc ate
 p iss
 class ification
 Mon th
k it
 up s
 consist ed
 emb ark
 hon ored
 H ousing
 pay roll
reg ular
 hom icide
 fact ion
 ar rog
 treat s
 che ss
ment al
ir ies
 delight ed
Not hing
 res ent
OC K
 o we
 prem ature
 blog ger
 N ord
 Great er
 En forcement
ator ial
add afi
 trave lled
 K ap
 crus hed
ell ed
 p ond
 p estic
 M ills
 consum ing
il ight
 diam eter
 protest ing
 fert il
 administ rator
 p ul
 V ent
 log s
 happ ily
 F ace
m ean
road s
 S outheast
ik er
 D olphins
 inv ention
 met rics
 G or
 Orig inal
 academ y
 S nyder
 Pr ison
 prol ifer
 dec isive
 Amb assador
 t ended
 at omic
oun ter
ke eping
RE D
 art illery
 over view
el ong
 y oga
 pat ron
ball s
Cont in
 S eth
 inc ap
ant om
 v ic
 N GO
ret ty
 g ates
 sent encing
 instrument al
 Sal v
l iv
 uns upp
ep s
 no ble
ibl ings
 similar ities
ener ation
EN D
 clin ics
 recogn ise
 Cath olics
 detect ive
el ines
 Case y
Bl ue
 dri ed
 D erek
 c ad
 R ut
 qu ot
 S pl
 Sc reen
m ph
N ob
l it
H C
 dat as
 Del aware
 Gl as
it ous
 sl ammed
 liv est
ech an
 constitu ents
met ic
 contem pl
 H ence
 Ter min
ad h
 Dar win
ll ah
e ur
M or
 rest oration
F orm
 Richard son
ourn ament
 Bre tt
 yield s
 upgr aded
 prob ation
s ix
e ger
 incl ined
 � �
 L ate
 ven ues
 lad ies
connect ed
S cient
 O ften
 d ude
 prohib ition
 rif les
 Y u
 comb o
 Louis ville
 mark ing
 masc ul
k ov
W ould
 sp ying
 seek ers
 cat alog
 app le
r ational
 gen ome
� �
C ome
 enthusi astic
 show c
 G az
 incons istent
og yn
 We bsite
 Nich olas
 mis er
 breat he
 r ip
 fart her
 appl aud
 V a
M ain
 196 2
 sl ides
 Hus sein
 r ider
 exp ans
 W elsh
 frag ile
 investig ator
 Dise ase
 l ion
 bi ased
 thr ust
 Gene va
 No ah
dep th
 N okia
 Hop kins
 T rip
Ch ild
 hum ble
uff le
 lic ence
ig o
 pr iced
ns ic
 post p
 h ref
 cor rection
lev ard
 remark ably
-- -------
 imm un
 Par ks
T otal
is le
 Mont gomery
 Represent ative
 advis or
 spe ar
 Load ing
 con form
 Matthew s
 vari ants
 C rew
" ).
 ex cerpt
 Lear n
 recip ients
 synt hetic
 shel ves
om on
 dep ressed
 A br
 un related
 North west
A ir
 weakness es
 W rest
 n ostal
 end angered
 t ires
 bail out
 cl ips
 catast rophic
 c otton
asc ular
 tro phy
 Huff ington
 Ell is
 P ierre
 tight ly
 jud ged
b ane
 o st
 g ren
ID E
 nic he
 C airo
he ster
e ous
 o ath
w ent
ourn als
 L oc
v ance
 ev olving
p ad
 Leaf s
f inal
 util ize
 un con
 Eag le
serv ice
it ially
amp ire
 B O
 alleg es
 st aggering
 col ored
 B ach
 air ports
d ist
 gang s
 up ward
 p oured
 nurs es
c ond
Q ue
 pract iced
names e
 down s
 bre wing
 for ty
 sec urities
he arted
e i
o ir
 mon itors
 cooper ate
 T ak
 D oc
D ate
 Veter ans
p ose
and als
on o
 r iots
 interven e
 V ideos
 H appy
 m a
 An onymous
reat ing
 W ait
 As k
 sl im
 coinc idence
ans om
 T ab
 Sur face
 camp uses
 pros pective
 encrypt ed
U G
 K ids
We b
 book ed
f un
 extensive ly
 rel iability
 hor r
 chap ters
 St ories
 ank le
ot ics
 optim ism
ach i
q a
 interf ere
 echo ed
b ast
 monit ored
 CD C
 H A
iat ric
 rem inis
 P ew
a uth
Q U
 prop osition
que z
 US C
il ers
 Y am
 predomin antly
 flo ors
 Mun ich
 Thanks giving
 J in
 Ber g
 separ at
 war ns
 ang les
p ically
 m igrant
 symp athy
oy le
 Vis ual
B B
 S ter
 task ed
 IS BN
 H ass
E s
� �
 int oler
 insect s
 defic its
F ar
 genet ically
 A FL
l ance
 well s
ent ry
 we ars
 re nown
 V illa
 A pr
i ott
 Gr ace
 Ag ent
 bound ary
 ver b
 enfor ced
 fore most
 Arn old
 S r
r ays
p res
 w ives
 B eth
 U P
b ucks
 Pr ide
U ser
 ste ering
De velop
 ne arest
 ACL U
 pract ition
 Som alia
B rown
 fil ters
 whistle bl
 Tun is
 J ays
in ers
 E sp
 P ub
 nav ig
 coord ination
r ar
 He brew
 ext inction
Spe cial
 inher ited
 cl iff
d imensional
 K ush
st ated
ov an
 bre eding
 E le
 positive ly
 R ot
 Budd hist
pro cess
ard i
 Kurd s
itz er
ir us
AT H
 comb ining
 fe ud
 partic le
 incl usive
 for wards
 sh ine
 Act ually
 s acks
 Tri ple
 10 5
ir ation
 For bes
 cul p
m ake
 Sw an
os c
s uper
ann ers
 scar ce
 d ip
ey ed
 Reg ion
 e ld
h all
 reward ed
 pri ests
 assist ed
 P engu
 d oses
 atmosp heric
 emer gence
iet h
 descript ions
 hand ing
 Get ting
I ts
 che f
is co
s an
 t ense
 School s
acer b
B ox
 obtain ing
 sens ible
 relax ed
 afore mentioned
 input s
 Mem phis
 C amb
 Winn ipeg
y outube
Aug ust
 Fl a
 T X
 Cl int
cons cious
c ock
 g rief
 Cy ber
ator ies
 ener g
 Abd ul
 W AR
am ount
 kind a
Don nell
 w oke
 bureau cr
an cer
ek ing
 ins ufficient
Col or
 bo asts
 Hend erson
sex ual
 K enny
 z oom
 ther mal
 caut ious
 commer ce
 impro per
16 0
 candid acy
 P aper
 deb ts
 respect s
 illust rated
 conv entions
 c oding
200 6
are a
 uncom mon
 dys function
 R alph
 L um
 st airs
 H ack
 pl um
 personal ities
het ical
L ine
 light weight
 real ities
 slow ing
� �
od er
 real izing
 belong ed
 overlook ed
r ina
 upload ed
 12 8
{ "
act iv
� –
 bo o
 add ict
 exp osing
 cycl ists
id y
 Cur ry
 F ixed
 nurs ing
 D ust
M iss
Europe an
 c ensus
display style
 th rive
 test ify
 intu itive
 b od
sh adow
 perform s
 P HP
l anguage
O p
 autom ation
 Val ue
f illed
 add itions
 Bar nes
 tour s
 po ised
 unsupp orted
 Py ongyang
 quick er
 Bash ar
 enjoy s
 ord inance
 circ ulation
 adm ire
 outrage ous
 H off
 St rike
 Reg ister
 c ripp
 blank et
play ed
Int erest
 N uclear
an throp
 bas ics
 tat too
 se ize
 red es
 Re lease
 ass erted
 Step han
st rom
 agg rav
 t ags
 B ark
 orig inated
er ie
 subject ive
 paint ings
 Pre vention
 Kle in
g rown
?? ?
 recip ient
 196 1
� �
 je opard
 ty r
 a in
ane y
 vibr ant
 no on
 K iev
ile m
 vol t
 g em
 comb inations
 cas ino
Rich ard
 wond ers
 Re act
 b ent
 Sil va
 coord inated
 Mc N
Re illy
L ocal
 repe ating
 gu ides
 Un less
 gr ades
ins ki
 Wild life
f air
 redu ctions
 awa iting
 Sh akespeare
un al
et z
Wh atever
 l oot
 Kas ich
eng ine
 monop oly
 liqu or
 wh ales
 H ook
 particip ant
ch at
 C raw
 fl own
 eval uated
 A j
 spr int
S un
 Word Press
 B ec
L L
 s way
 Sch ne
 Tit ans
 im aging
g on
Pl us
 Nor wegian
 M atch
 Hold er
 Ad rian
Ge orge
 red irect
cl ock
 deal er
 J ur
 Fal cons
 cl ues
il ogy
 hilar ious
 V I
 Com plete
mit t
 E aster
 mention ing
 trad ers
 reflect ing
 Budd h
 0 6
 h obby
amer a
 Al z
p ict
 tast es
 Emer gency
 detain ees
 abund ance
 Dod gers
t i
 Nov a
 sc iences
 merch and
up iter
 never theless
ener gy
.' '
 an ten
 buy er
ag le
 Rand y
 soul s
 C ort
os ion
 wh ale
 pick up
A AA
 J unior
f amily
 s i
ine a
 dev il
S al
 inher it
iz oph
 C I
 H ob
 triv ial
~~ ~
 T ories
 F aith
 Em ily
az or
 H ost
 c ared
 R ust
 Pear l
ec d
 R ules
 bot hered
 G ang
u ber
gg y
 lit eral
 form ats
 fl uct
 G oth
 At hens
 watch dog
T L
 Ba iley
 Isa ac
L ove
 Gab riel
 Agricult ure
 opt ical
L og
 sl ogan
us p
 K id
ruct ed
 datab ases
W elcome
 u mb
h it
 dist ances
g ay
 man ga
cy cl
 under grad
 bl u
 E ye
b illion
 sam pling
s ens
S ources
 C ob
l at
am ples
 c ivic
 aston ishing
 T ottenham
 rece ipt
 dark er
 obs essed
 demonst rating
 gr ams
 �
ou ble
 Er n
 hur ting
 Met ropolitan
st airs
 sun light
 inadequ ate
 ins isting
 exha usted
rop he
 writ ings
 Th rones
 S ite
 under water
 emp athy
 p unk
 U l
ut ton
 Ferr ari
 fin est
 Josh ua
 cou ch
 lobby ists
it ime
ep rint
ac i
S ocial
 s iblings
 Ev an
 Pere z
 overwhel med
 organ isms
 Hy d
 diplom ats
 e ternal
 Jen kins
 st agn
 vast ly
 serv ants
es ar
ad os
C ON
 Austral ians
 T win
 protocol s
 micro sc
 m es
 M UST
 Dep ression
" ),
 con gest
alk ing
en es
 sn ake
 sm iled
 C F
 B our
us k
 St uart
ear th
 horizont al
 premium s
 assault s
 de portation
 pus hes
dri ving
 ex acerb
 mole cular
 w olf
 en compass
 P oke
 J ob
 prox imity
 met ro
d id
 understand able
 conj unction
W as
 Le aders
 Her oes
 craft ed
 S weet
 pay load
 A IDS
 spin ning
im edia
 T iger
 S gt
 He avy
o at
 bank ers
 proceed ed
 F uk
 barg aining
rell a
 work out
 capt uring
 b og
 jew el
N O
xt on
 adv ise
 en light
 N y
 ver ified
 prim aries
ophob ic
 g ases
 19 48
 inaug uration
 b ounce
 Prop het
 med ications
 St range
im ination
v id
Current ly
 apolog ized
 st aged
inent al
 l ingu
osa urs
 shall ow
 k et
 activ ate
 accompany ing
 Pro bably
 ax is
 D ylan
 sec recy
G P
 A ur
 surf aces
 eleph ant
t ake
c ur
 injust ice
 Not es
 imprison ed
 Sc ript
D isc
 promot es
 sus cept
 j ar
 impl ied
 Kash mir
 Viet namese
 Sach s
 supp liers
im er
r ab
 rebell ion
 She ll
izoph ren
 B io
i u
 M ix
 Ap ollo
sh ine
other apy
 un named
 ind ul
� �
 national ism
 B in
 L av
D ear
 firef ighters
 alph a
h ouses
 sp am
 G ingrich
ig el
е н
 comp ile
 N um
 He aven
 E A
ise xual
 lo oph
 Sh op
S QL
 disapp ro
int egr
 state wide
 in ning
le um
H and
 who lly
 rele g
or p
 be am
 tra it
 administ ered
 Re x
 past or
 gener ator
f ood
 not or
 tr ails
 incom plete
R ub
 retail er
 dr astically
 Econom ics
 compl iment
 D ow
 shot gun
 assum es
 N am
– �
 F ew
 b aking
 en rolled
s ic
Sand ers
 sl ots
 b rib
 to ggle
 hur ts
 cont ention
 pop ulated
 Cro at
 fit ted
 Mar ie
 hint s
 Ind y
 pa ired
 borrow ing
q l
 d uck
 TH AT
 new com
 l amb
 p ets
 highlight ing
 P ul
 R B
 bat ting
 stab bed
Con clusion
ind ust
 vit amin
 so y
 ar row
 par a
the ning
7 50
 f lick
 lot tery
 am ended
 l enses
 Ins ider
 int ro
V C
 gra pp
 athe ist
 Fl int
Th us
 b ang
 T PP
aw i
 Gl en
 plaint iffs
 Indust rial
 object ions
 R ab
 contest ed
 affect ion
 back ward
author ized
 comed ian
 st ing
 C AN
intend ent
 ext ensions
if a
 E ug
 W ag
 phenomen a
 m asters
 prob able
 parad igm
 out line
g one
 ro pe
 c ites
 Arab s
ie ves
AR Y
In s
 D at
 pen is
 th y
 j aw
// /
Cl oud
ou x
 un equ
 Or d
step s
 sub urb
 gorge ous
ro e
 Cole man
uss ions
Sh ould
rig er
 IM F
 Ash ley
 mot ive
re a
nd ra
 rev is
 respond s
 c ater
osp here
 In g
 r h
ish a
is se
 tort ured
 main land
ourge ois
 pass words
� �
 emb ry
 inter ventions
 helicop ters
 H alo
 g ently
 popul ist
 mat rix
 analy tics
sec ret
 self ish
 admit ting
 obs ession
 an them
 Ell iott
c iously
R un
 co h
 cat aly
 S ask
 p ills
 contro llers
 stand point
 M ak
 App eals
 sum s
ci ation
os oph
A ut
ot ine
 Bur ke
in burgh
 territ orial
iet al
 ware house
 Pat rol
 explos ives
 D ad
 Ch a
 P or
 conf isc
 cast le
 hur ricane
 M our
M ass
B erry
 J os
 un ified
 GT X
 concent rate
ump s
 cry st
 fig uring
 P and
it ational
conf ig
 col ours
 V irtual
 V el
 syn chron
You ng
 log ged
 Ind igenous
 Off icial
ut ral
 ens ures
R P
о� �
F ixed
D ev
ar ious
ook ie
 symp athetic
 log ging
 val ley
ib al
 prot agonist
 min ors
s um
AM Y
 se as
C ent
 o wed
 privile ged
 * /
200 5
 Sh o
 D rake
 erupt ed
 N aval
in v
igg ins
 Qu arter
 cons oles
Sub scribe
az ar
 App ro
uk a
 s atur
 E sc
 ide als
 Treat y
E p
O k
 L anc
ut ic
 an ecd
 prosecut ed
 ad ul
 St ream
 sad ly
 des irable
 psychiat ric
oint ed
 surf aced
 emphas ize
 SC P
 rev ision
 pl ots
man y
p olitical
d et
 wel coming
an ing
Th ink
 Em ma
r ill
du llah
 U FO
 feed s
 def er
 Gu ild
commun ications
 � �
 soph omore
pe ace
ant on
 to pp
 F ocus
Off icials
 week ends
ick er
 stret ched
 can on
 mos qu
d eep
 sand wich
 Pel osi
oc used
M arc
 cal culation
 Go ing
  �
 T ol
year s
� �
14 0
S ix
 T at
 distingu ished
 W end
 mag net
ract ed
 incomp et
 constit utes
 W alsh
 conf ined
 g ru
 corrid or
 select ing
 Roberts on
 en rich
 d ice
m and
 intern ally
if le
In c
 Sim ply
 correct ed
 N RA
 hack er
 J agu
 pool s
b ird
 inform al
 sens ation
 M t
ri um
 greet ed
 Bapt ist
AN S
 L anguage
M ult
 at roc
at tering
 cool er
 partners hips
 under cover
 defin itions
 react ed
 process ors
 Circ le
 gau ge
 V ersion
 traject ory
 Kn ights
 home owners
 c el
 Con cer
p al
 Re b
op ath
 prov oc
bu ilt
Oct ober
 flood ed
 L opez
 vend or
 compl ications
 jump s
 O mar
 H od
 cont ests
 R idge
 ass ure
St op
 cur iosity
 F u
hol m
 la wn
ne ys
ant a
IT E
 fin ed
 conced ed
 sk ate
 pedest rian
 ball oon
 D ale
 hom eland
 up rising
 Ll oyd
 o ceans
 l od
 S ak
. (
stan bul
com mon
 liber ation
� �
o qu
C BS
e pt
 command ers
w ald
 compe lled
yl on
ind uced
 syn c
 max im
 Con n
H y
 prop osing
 D iet
 deb ated
 B ot
 mach inery
 propri etary
 fair ness
 St ay
 W A
 Advent ure
 all ocated
 h ills
” ),
 sh irts
 reck less
 o ct
g mail
set t
c ue
 NS W
ans on
ela ide
 buck et
 U g
 Eth iop
h l
 har ness
 Dub ai
hed ral
 arm ies
do ors
 Gu ant
 compr ised
 pres cribed
 He ights
 Alz heimer
is ite
� �
Ad ded
B ob
 success es
 unlaw ful
 sex y
 En c
f its
 � �
 color ful
 Inn ov
 pur ported
 N early
 C inem
 delic ate
 Trans it
 be e
he res
f a
od ied
 var ies
 sing ular
 sl am
 cell ular
 air plane
Pro ject
 was hed
 stere otypes
 c ried
 cho oses
� �
ic ans
 C ensus
re v
 We instein
 nick name
 ment or
 The resa
 S HA
 E M
 ub iqu
sp an
 suff ers
 not ifications
iff e
 Mar ines
aze era
\ /
 story telling
 prompt ly
 19 00
 femin ists
 th a
ar ak
S IS
P T
 qu eries
 Greg ory
 pl ural
m ut
 project ion
 ambul ance
 L amb
 debut ed
load ed
 Alf red
 F ine
 L O
 parad ox
he ed
 V o
 C li
rist ol
 W el
 connect s
 broadcast ing
 after ward
 Sh a
 un b
 recru its
c ision
respons ible
 strateg ist
 ten ants
 Fal con
 mor ally
Res earchers
ract ion
 H ood
 exem pl
 ha w
 compet itions
 var ieties
S aturday
 Sch umer
 K ell
p ark
 gri ev
az er
 vis ibility
 cl oth
 pot atoes
 U T
 trans mitted
l ain
ry s
 prest igious
 sen iors
 stun ned
 Har bor
 Sol id
D an
 Polit ico
 method ology
 D uterte
 maneu ver
 perce ive
uff s
 voc als
 comment ators
 alarm ing
 T E
che m
 gl oves
 eleg ant
With in
 obst acle
 bur gl
 out reach
it an
 mil estone
 struct ured
 mis dem
M ORE
 D ana
 co vert
asp berry
be cca
ustain able
 pit chers
re view
 colon ies
 Championship s
 system ic
 unpredict able
se at
 fool ish
IC O
Al ong
-- ---------
 weigh ing
 E arl
aun ting
 sw orn
 sm ok
 hasht ag
a ic
 ver se
 b acon
 N as
d ess
 cr ush
 yell ing
! ).
 max imize
 host age
ov ak
 Lib yan
 exclus ion
 he ck
" [
I B
p c
 ignor ant
 bless ing
ld a
 Post ed
vert ising
 rom ance
 renown ed
 insure rs
L ive
D am
 M aterial
gg er
 N FC
 Imp act
 R BI
it ches
W ant
 Or acle
 lo vers
 interrupt ed
at ivity
 consider ations
 F ortunately
 imp ly
 min us
ri ents
Th ings
 teach ings
 Bou levard
m ajor
 impro ves
 gar lic
im en
 hum ili
 C able
 infer ior
 time ly
 rel ates
 l ining
 hold er
iv ia
t ag
 brut ality
 unsuccess ful
 barg ain
ocaly pse
ian i
 dest inations
 prem ises
 l ament
 acceler ate
ownt own
 p ixel
 fin ishes
 bund le
 Charg ers
 preval ence
 e Bay
 br acket
 an nex
 C ele
 B rent
 k its
 incon ven
 vulner abilities
 cr ises
 p ap
 s ore
 neighbour s
 T roy
 B ever
 discover ing
n ull
 C rypt
 works hop
 l ur
 out law
 uniform s
Republic an
 M oto
 Lear ning
 Win ston
 F ear
 Bro ck
OL L
 mer ger
f ax
 Par ad
 D h
ag ne
 LGBT Q
 exceed ed
 P le
 st ew
it ives
 r ust
 T weet
 down ward
 Aut om
 L ag
 privile ges
 exc av
 discuss es
 St age
J ul
Sh ow
 phr ases
 embarrass ed
 Mor rison
 Gonz alez
 Glas gow
 appet ite
 el imination
re ra
 ball istic
C T
 J upiter
ri ad
ang led
 n g
 " [
IN T
 toler ate
 I van
 H ab
 Blu etooth
 unw anted
 av iation
 grad uation
 Th om
hy d
h n
em ption
Sept ember
 brows ers
N or
 tw isted
 mar ched
O per
b ps
 The ater
 cle arer
 L ux
 T i
 Aven gers
 sol ic
 championship s
 H app
 enjoy able
b ard
 accept s
red ited
id av
 L iqu
it as
 recogn izing
 per secution
B ern
 mis ogyn
 W ake
 gun man
 g ad
x on
al iation
 a kin
 bl aming
 X P
 specific s
 shut tle
 10 80
ol ith
l al
 bed s
 wrong doing
og s
 resist ant
 dis respect
 typ ing
 a u
 appropri ately
com fort
 Pri x
 Spr int
 vol can
 con ceived
 A verage
 Ser b
 GOOD MAN
] ]
 l end
 F ighter
 U pper
 vac ant
 Reyn olds
c ot
 re per
 cul min
 b ore
oci ated
Cong ress
 dis abilities
m g
Jo in
 desp air
J S
 ric hest
 J eb
G I
an ity
 Fil ip
C ourt
 N ode
” ;
at ism
 extrem ism
 M ik
 E rik
H op
 nomine es
 thought ful
ard on
int o
R edd
 notice able
 Ins urance
 pip es
 ingred ient
 diam ond
 ded ication
with out
 M ets
 corner back
 Sat urn
work ers
 thr one
� �
99 9
 tw ent
 right ly
 num er
in yl
ev al
ric anes
 prohib it
 id iot
oo o
 perform ers
 advoc ating
 E L
 condition ing
 M aps
 } ,
t z
L ead
 tun nels
ra ve
An n
 ex otic
 pr ag
 fuel ed
 Trans port
 rep ay
 an at
ins ky
 t il
 meth ane
den ly
 ste alth
U TC
U RE
 Turn bull
 the sis
 fr acking
 sens es
th ouse
 � �
 critic ize
 T ap
 L ogan
 war rior
 l over
 entire ty
 detail ing
 pl asma
 I gn
 display ing
 out field
 artif acts
Republic ans
ex cept
 C el
 Rep orts
 g rit
 � �
ci pl
nder ing
 un just
achel or
ine ment
 K on
 super f
 sing les
gu ided
F ind
 recogn izes
 Scient ology
 Fre eman
 Ad vis
C amp
 kn ocking
 F a
ish ment
 bar red
 loc ks
~ ~~
 Bas ically
10 5
 dis asters
 Leg ends
ion age
 prejud ice
 Cont act
 influ x
C ode
 Sing le
 Per l
 head set
 met adata
 adop ting
isp here
 mer its
 mar athon
red dit
 sur g
ic able
 fur ious
 acknowled ges
ic ularly
 rest art
� �
 Sadd am
vas ive
 p ixels
 mer cy
 story line
 PC s
 tr aces
 cort ex
p arent
OU T
 w ary
sh irts
 wip ed
p aper
c ro
 Ed inburgh
li ber
 dil ig
 band width
 Pers ian
 B uc
ah ar
 pun ct
 v ivid
 inaccur ate
 inst itute
al ion
 l ag
 illust ration
 alt itude
 un m
 off ences
 Frank en
 man kind
 occup y
 det r
 att ain
 U nd
 Start ing
200 4
 v est
cent er
w ere
Get ting
 de er
 c ows
 preval ent
 L ith
� �
 Aud io
M el
  �
 St ef
 round ed
 prolong ed
ind a
 G y
o an
 Kn icks
ram id
 bl essed
 inaug ural
 exem ption
 FR OM
A round
 sett lers
 gl uc
br and
D aniel
 R ange
Pac ific
 coc onut
 Burn s
 Mill enn
 d y
F in
 freedom s
 season al
ch anging
 ab st
 P os
I Z
 ph osph
Th omas
E lect
US E
 sm arter
b usiness
in el
 SU V
 A RE
 c raz
 indu ced
 unst able
 Pr adesh
 warr ants
 p ave
 er ad
 car pet
 cap ita
 refere e
 exped ition
 b ourgeois
Al most
D en
 f ist
p ers
 mot ives
 gr ind
 aggreg ate
 fact o
 Dev il
 B uch
oy s
 program mes
 Emb assy
 accommod ation
atin um
 1 11
 h over
 comb ines
 Fif th
> </
 c ite
viol ent
 St o
 SN P
E nt
! ’
 C aval
g rowing
c ourse
 R ift
For ce
 Spe aking
 st ems
 listen ers
ac a
 C ad
 t apped
 19 44
 defe ating
com plete
G H
Ex per
 diet ary
 con qu
k ara
 benef ited
 mir acle
ing ham
ab we
B Y
 program mers
 coun cill
f light
 enthusi asts
 cr ust
 Hait i
 I CE
t les
V ery
 R hod
 A A
 recomm ends
 T C
f act
C rit
 W izards
c ig
 def ect
port ing
 D ash
 bureaucr acy
 st yl
 sanct uary
 criticism s
 hous ed
 symp ath
/ //
 rig orous
op hers
im ag
 N ak
 E isen
Rec ently
 reb oot
 concess ions
ick y
 prost itution
 paper work
am el
 upd ating
Pr int
 sne ak
ic ates
in qu
 bom ber
 Progress ive
) -
 statist ically
 unf amiliar
ren ched
sequ ently
r t
 length s
 pred ators
 S ales
 un a
 det on
 Bas ic
 G L
 ru ined
 me ga
 for fe
 Star bucks
R ock
av an
er k
W R
 host ility
 heav ier
 d ilem
 char itable
 Sch midt
imb abwe
 Hy per
ount ain
 Elect ronic
 R uth
p i
 K ob
 Jul ia
 I stanbul
 O t
 N L
 philos opher
 uns afe
i ov
ess ors
ched el
 position ing
 C e
Phot os
 coordin ate
 H orse
ur st
 st unt
 ter rific
 reb uilding
 Roll ing
 ins ider
 den ounced
 C ork
 Ever ton
Fr iday
 � �
 acqu iring
spe aking
Nob ody
ixt y
 E ST
Mc C
 ter ribly
 Git Hub
lic t
 there after
 simpl icity
 pers pectives
 WH O
 crack ed
 forb idden
 Su z
ight y
 Se oul
 N J
 Ang els
 wh it
� �
 port al
 O kay
ond o
 O ri
 soc io
 l aps
 super visor
ill es
 Tim othy
 Partners hip
 L P
 illust rates
 f usion
 referen ced
 j ournals
Be yond
 Se bast
place ment
 mult ip
ipp le
 object ion
 pl at
 gr an
� �
ist ical
 sh ade
 T ournament
 Ow en
 infring ement
cast ing
 off ended
 Mor oc
 A V
 s perm
so ver
 big ot
rest rial
 sch izophren
 Rom ania
 Citiz en
Val ue
ters on
 analy zing
 tr action
 introdu ces
or ie
av in
% ).
 request ing
lean ing
 antibiot ics
 j ungle
ograph ics
 ident ifies
 Sher man
M ex
 sl og
 as c
 E N
 20 30
ire ction
 diplom acy
 Space X
bl ood
 ch ill
 Le Bron
 intention al
 borrow ed
ac s
rat ives
fund ing
T ech
ish ops
 Not re
 S ame
 Princ eton
pr im
Bel ow
 skept icism
 bro ker
 cert ification
B uild
Add itionally
l ived
 aff idav
keep ers
 Lind a
 vol atile
bl ue
 Victor ian
it us
 fright ening
c in
 unch anged
v ity
 Scient ists
p atch
um i
est ine
 Moh amed
 super b
 rec laim
 M az
 Al ways
et ed
 ton nes
 reg ain
 ar che
oles ter
 P ist
 so ap
 fat igue
 Poke mon
 she lls
 detect ives
 bet ting
ng th
N OT
 Ma o
 end ured
 Bet a
 S tern
 v ine
 orche st
 R S
 R are
 Che v
af ia
 Exper ience
 indic ators
 C lear
 Aub urn
m ass
 J ill
ا ل
 L iter
 vis as
ent e
 terr ified
 sh red
W il
ress es
AN K
 f ren
12 3
 health ier
 fav ors
 absor bed
gg ie
ia o
ie u
 Aust rian
Pl an
 rec ons
 Dec l
 vir uses
 cooper ative
 K umar
 Court esy
OW N
 C ities
us ers
 restrict ion
 11 5
T urn
 clean er
ern ame
 circ ular
 Let ter
 Murd och
ay an
sh ould
 mir rors
b ial
 V ince
 lower ing
 cap ac
itness es
 che ating
 interrog ation
t v
 IS IL
 bron ze
� �
 v intage
 pe cul
ed in
 sh aping
 D ani
 Cl are
av ior
 Pl ant
 H i
 und is
 Ab dullah
 back yard
 19 41
om ical
 ref riger
 submar ine
 access ories
spons ored
 exclud e
 aut op
 unus ually
 17 0
 ph ases
on so
op ers
 nort heast
act ed
H i
C y
he e
P ay
 be ard
P rodu
" ]
 under going
 tack ling
 Person al
 email ed
ink le
 free zing
er m
 M ig
 national s
 cy l
 un real
 cell phone
 take over
 min eral
 horm one
 b ast
 l av
 d od
 end uring
 Day ton
 sub po
 N ice
 M iles
 ce ment
 Rich ards
anc ers
 squee ze
 devast ated
 film maker
P o
 goal keeper
bal ance
 Sask at
l ings
et c
ices ter
 brand ed
 Br is
S B
 advoc ated
 str ains
We ek
 Sp art
� �
19 90
 beaut ifully
 Jul ie
ins pired
 communic ating
 Ann ual
 inv iting
u ador
 R ugby
 P OL
ign ment
 psych ologist
 Fried man
 n avy
let te
 int ric
 proud ly
w en
 pos ing
 hy ster
 tour ing
w ave
pt ive
\ -
 C raft
ev ent
 govern ors
 ref ined
 Celt ics
 alleg ation
 mark er
ick ers
or f
 enter prises
 H arm
 do i
 back drop
 met als
 swit ches
mod ern
 model ing
 happ ier
 st ip
 Sim mons
 NY PD
 court room
g ro
H am
ot ers
K im
 pal m
 24 0
 D ot
ett ings
Res p
 imper ative
Brit ish
 sc aling
 hand c
 exp on
 Core y
 G ur
Im agine
 R abb
 respons ive
 interf aces
 ins ulin
 El ite
 sn apped
 announce ments
 Every body
we ather
oss ibly
 Me yer
 deter mines
 arch ives
K en
 stretch ing
 bal ancing
 wa ist
 contam ination
 } );
pect or
pl ates
 ret aliation
 reiter ated
 p ulse
 undert aken
 rival ry
 a rose
y ers
 th under
 recept or
 develop s
 --- --
fol k
 s oda
 f ost
 cha otic
 Haw ks
 19 47
 DO J
 depend ence
s ided
S ar
 ar senal
g ie
S ave
 h orn
m ult
 L ay
P ict
 E instein
 ON E
 st ellar
 travel ers
 inf ants
 authent ication
 p and
 hard core
 engine ered
 merchand ise
 was hing
 short s
 attract ing
ump ing
 p ine
 gall ons
 observ ing
 imp air
le ys
 dece ased
 confir ming
 je ans
 C atherine
 Bah rain
H as
rec ord
 critic izing
 compens ate
 agree ing
 appar atus
 predict ing
squ are
 T W
 rev ival
 special ists
 re ef
 innov ations
20 18
 fl ame
 anticip ate
 V ision
 Pan ama
 vis ually
 poss essed
ount y
E ric
 ele ven
 pen al
 Gr ad
 ey eb
 l aughter
be h
 deleg ate
 Walk ing
 B un
ster dam
b uster
ill on
 ep it
 Till erson
 L ed
ax ies
K evin
 opio id
 Map le
 rest ing
 Co ver
 core s
 w ipe
 Ult imately
 Gil bert
 distract ion
 pot ato
lu x
 Sc ore
 ( .
 t ant
200 1
 Val ve
 broadc aster
 war mer
 star red
 aut umn
� �
all ah
 clear ance
ed u
 Us ers
 kidn apped
18 0
 war riors
 pri zes
Add itional
 burn s
 s idelines
if ted
en berg
n ings
 reg imes
 R apt
Other s
em a
 dump ed
 dom ains
 ur gency
 Gr ass
 end ure
 hypot hes
B D
� �
 ec ological
 Expl orer
in ters
Le ague
 Cent ers
duct ed
 Sim ple
Wind ows
 m s
 concept ion
 o live
 bull shit
 Mana fort
w s
 visit or
 negative ly
 r im
 contract ed
amm ad
 H erman
 Dam age
Ch ief
! '
R ay
 Pro duction
I AL
 their s
 select ive
 capt ures
 radio active
 b ilateral
 dub ious
H R
 Brend an
 categ or
 pr inter
 rod e
et itive
 bl ows
 P E
 react ors
 Hay es
 van illa
 S hip
  �
or ian
 nod ded
 rad ically
 Merc ury
 seiz ure
 rep airs
ort ium
 Pen insula
 H ogan
 unbeliev able
 inst ability
 depend ency
oster one
mo il
as is
 log in
 explos ions
 st al
 sever ity
 volunt arily
op ed
 ill icit
 Craw ford
pl aced
ien cies
 que er
ar ium
 m arsh
 shel ters
 astronaut s
 screens hot
pro ject
 Leg acy
 pe an
ans ing
 Det ails
 contam inated
abl ished
 obser ver
 R iley
 good ness
 Com ment
� �
ok a
John son
 C ards
land er
 s ights
 crypt o
 program mer
 lone ly
Up on
verse ly
os er
 acc use
S W
 Cris is
 Emir ates
 assess ments
 G ross
 B ristol
 cr unch
 side walk
 subsid iary
 � �
 content ious
� �
 Pl aza
Bit coin
 h ollow
 the rape
 prop he
Ad am
 Con way
Redd it
 d well
 pal ace
ff iti
 fre ak
 path way
health y
 stret ches
 b isexual
 F F
p arents
 rob otic
 hun ter
 dem ise
 disadvant age
 H ernandez
 pour ing
 shut ting
 rig id
H ard
 f og
 Hon or
More over
 Sp icer
 Ve h
 direct ive
200 3
N ovember
 redu nd
 Sch ultz
 rese mble
 j ealous
 aw aken
w ic
 J et
B P
 Bru ins
 S end
Y ear
H uman
 re he
K it
 Fr ame
 cook ie
 compet ent
 Le o
U r
 transl ates
++ +
 empir ical
 f ra
 Vi enna
 t am
 ru ins
 S aw
f ed
 metaph or
 d iving
 R oute
an ed
 v om
 ple as
I ll
 b end
 s ack
 � �
 withd rew
 to e
 T M
 surpr ises
 sell er
 ren amed
 P ain
� �
 lau nd
 Su ccess
ple asant
 Sh ane
 Andre a
isc her
c ry
Ar ch
 Bl izzard
 W u
 char ities
 B ert
c led
 ex terior
b ag
 cost ing
 Re play
 r anged
 Jed i
 relent less
ott esville
 rem ed
ore st
 ineff ective
 par an
 d ull
 C rist
 ins erted
 F lickr
rah im
 do omed
  �
 char m
oun ge
 Bren nan
 br ig
 tr aced
 dig its
 Resp ons
 Invest ment
 reminis cent
 AP Is
s il
st atic
o ids
 Ad elaide
 l ou
 into x
IS A
 Invest igation
 E gg
 le mon
 le aking
Am azon
 own ing
ant ry
P ublished
 J azz
 pres ervation
 po pped
 N est
 Che ney
 s rc
 Reg ardless
) ?
 acceler ated
k owski
 s om
 mod ifications
 all ocation
 a ven
abul ary
 dict ator
pl anes
 cont end
 viol ates
ro b
 her b
 juven ile
 D ell
 Food s
t imes
 download s
 repl icate
� �
 pen cil
 S oph
 p ensions
 pres erving
De cember
 depend encies
 pig s
 not ices
w ife
 reward ing
 merch ants
elect ed
OR Y
 acceler ation
 feas ible
 appoint ments
 C opy
AC A
 rad ius
s ch
at ured
c ity
^ {
 tw ins
 m asks
 Th an
 Web b
S omething
B esides
 ye ast
 L ance
in vest
 att achment
,’ ”
 Beh ind
 out dated
 discont in
 laugh s
ident ally
Ch inese
a ft
 up held
 sp ouse
 prosec ute
J ones
C raft
 po inter
F OR
 r apper
 N an
 poss essions
 v andal
 Observ atory
 de af
  000
any on
 F act
 n urt
 T rent
 iron ic
 S kin
 195 9
g em
 Ar row
 at oms
 Jud iciary
 up wards
it em
m atch
 Kush ner
 ret ros
 Pir ates
 Br anch
 enroll ment
f alls
 in ad
 R F
 need le
 oper a
 negoti ation
 P TS
H E
 veget able
 spir al
 embr acing
 E lementary
 prim itive
 T aking
G roup
 train er
L ou
D ig
 18 00
ro ot
in ational
c ould
 cont ributes
 res olutions
 fest ivals
 dis se
h ops
aw ays
E ver
 fert ility
M ur
 toss ed
be e
 Beat les
S und
 micro phone
 shr ink
 v apor
 10 2
ate l
 bomb ings
 � �
 lean ing
 ha iled
 congress man
 & &
 shoot s
 hun ters
 te asp
sec ure
 v inyl
ett i
 Z ucker
own s
 mer ge
 al lev
v ideo
( $
 cop ied
B T
 re jo
D i
 Pro du
F inal
 p ier
S n
 all ied
 cost umes
ob ject
 Spe cifically
 forecast s
 withd rawn
 mod ification
 Sy n
bor o
 iter ation
st ad
 mechan ic
� �
Bet ween
 Vol ume
 Dis covery
 Dev ils
 B orn
 myth s
AT A
 ap ost
� �
 stamp s
iv able
,’ ’
 10 4
 ch amp
 Conserv ation
st atus
m ails
P E
 hop eless
 dimin ished
 A be
 discover ies
 disappear ance
 Man uel
omed ay
d in
 ch uck
 inspect or
 Com edy
Supp ort
 t ally
 G ul
 e man
 K iss
  é
ven ant
 per tain
m or
J ew
 access ing
 Me et
 anticip ation
 cos mic
i ak
 volt age
 v ault
ret urn
 doub les
ari at
he id
D eb
 uns ure
V ict
 Prof essional
r h
ile aks
 r uth
 smooth ly
s rc
 out spoken
 Rock ets
A BC
 tur moil
 Ster ling
ush i
 g aze
 l b
ent ric
 sal ad
 Mir ror
 gif ted
c am
uff er
 my riad
B ur
 mamm als
 fr amed
 Tw enty
st y
 o lig
 athe ists
larg est
 pod ium
 occur rence
 fore front
 alleg ing
 inter val
 airst rikes
f alse
 offs pring
 Z imbabwe
 Act ive
 sex ist
 extract ed
 Ali en
 fore nsic
 Mem ory
 rad i
 M ead
 valid ity
 milit ias
 C ord
 Whats App
 adequ ately
 Ge off
 t outed
 South west
ph oto
 Us ually
 Ad obe
 Mount ains
 G ir
p sy
 na ive
 National s
 nar ratives
f ired
 trig gers
 intr ins
 compat ibility
 L ud
 F M
 B oss
 Tr ack
 can cell
 neuro log
 celebr ations
read ing
 Qual ity
 ext rad
 D uty
c ified
 Mon ica
d oc
Le vel
 jud ging
am ic
t ier
c f
an ol
 r ansom
 che ek
 Tro phy
 stim ulation
 per ceptions
 imm ort
N ick
 Beng als
M a
 e cc
 ground ed
 Jo in
Dem ocrats
 B ass
 Sim ilar
 cr ashing
L in
 creep y
S F
 elev ator
 Rec ently
 pret ending
iss an
ess a
 B irth
l ins
 sle pt
 aster oid
ud s
be fore
 Fl ag
 w ires
our ing
 exch anged
 Cle arly
V ol
 adoles c
En ter
 b un
re z
cre ate
 narrow ly
 un ite
 mark ers
 Ter rit
ot he
ian n
part isan
 collabor ative
Semit ism
 success ion
 wholes ale
 P ars
over ty
d oes
 Al ger
J osh
 streng thening
 just ices
 clean ed
 Ex cept
 Bald win
 D LC
ot on
Islam ic
 top s
 acknowled ging
ustom ed
 bol ster
Ult imately
Pr ime
 retrie ve
 place bo
 un armed
ucc i
 or ph
 north west
 H ond
els en
 Tr ain
  �
 Kenn eth
is ure
 k in
 employ s
 Scient ific
 Leban ese
 super vision
 G rowth
IS I
 sustain ability
List en
 ind oor
 super st
 ind o
 19 39
C ast
 perfect ion
W ow
Cre ate
w ire
 e ject
 K oh
 Budd ha
 Sky pe
od s
 Coff ee
 cur se
f ight
 dom ination
 comp ares
… ]
c ross
P y
 refres hing
 can s
Through out
 spe cially
l ia
 nut rients
 meaning less
 lun ar
 ash amed
in as
b ands
 depth s
 dec ay
 Com ing
C ustom
 evac uated
 K ot
D F
 Fl oyd
ors che
 rel iance
 disg usting
 b idding
 dis charge
 Curt is
 predict s
 hypot hetical
 My ster
 Beng al
 4 50
 h alls
 decentral ized
. ;
ors i
 susp end
 sect arian
 B TC
11 5
L ittle
 overl ap
 honest y
c ulture
 A part
 l ob
 blast ed
 vers atile
 defe ats
 left ist
 2 20
 N ike
Se ason
 sc andals
 F resh
 r ack
 O g
 research ing
 regul ator
 perpet rators
Un iversity
L ess
 ho ax
 po orest
 be aches
 YOU R
 P v
ve red
 so ber
art en
 frequ encies
 Z oo
 C ros
he ard
 grant ing
 concept ual
OS S
 exp ired
 R ew
 Mons anto
ub a
 Re ce
 Kurd istan
 pr ince
 T L
 de ported
 fut ures
 anarch ist
 Buzz Feed
 Jackson ville
iv o
 Ult ra
 firm ware
 f rog
 night club
 � �
st ru
 J SON
M aking
-- -----------
 Zimmer man
ant ine
dog s
 past e
 E lder
 Techn ologies
 An cient
 parent al
 govern ed
 Ev olution
count ry
 lo oming
 d os
 tang ible
 sign aling
 rele vance
C ard
ac ial
IS S
W estern
 ramp ant
 Abb as
 turn over
 id ol
 to dd
 Ch oice
 eval uating
 decl ines
 un cover
 sp ine
 livest ock
 recy cling
 F ernand
 cruel ty
Jan uary
A cc
h agen
c oll
 judge ment
T em
 extract ion
 B og
 p ent
 bit coins
 embarrass ment
 rep s
 Bris bane
is ans
rav ity
 g it
 Any thing
 Hel en
 accum ulated
 relie ved
 Le ad
 bi ography
 Camb od
oust ic
L ee
 er r
 false ly
Yes terday
 Ch arter
 film makers
 B le
C redit
 g y
 Ec uador
F rench
 correspond ence
 stake holders
 gl orious
 O val
 tax ation
 Black Berry
 B il
r ance
 Res ults
 Can ucks
 sex ism
 Mid west
 frag ments
 B T
 under went
 McC l
 stat istic
 reinfor ced
 diplom at
 air lines
ass is
te chn
right s
 we ights
ol ia
Sub ject
 real ization
 part ition
 Ev ents
 yell ed
 Can on
� �
 D S
 hook ed
 distract ed
 w anna
 cl o
 Cr us
 V P
 Con c
 E asy
em y
 re print
ob ic
 super market
 Viol ence
ul atory
 br ass
 He ath
 e ch
ex pl
 resemb les
s cient
 anal ogy
St r
 sh iny
e ath
 H ag
P rior
 stuff ed
 gl oss
 constitu ency
reg or
 sound ing
 Mon te
ul ed
 the ology
 divor ced
 Up dated
 Ir ving
secut ors
 mem br
g age
 out raged
 bom bers
o it
c od
 indirect ly
 B ened
 dest abil
ge ons
 C ertainly
 B row
 j oked
 nom inations
 bur ial
� �
board ing
are ndra
 Sh ot
 tr ilogy
gl ass
 g room
 In qu
 Ind ividual
 IS Ps
 And ers
 s ung
,' "
 fundra iser
 La unch
 Charl ottesville
 bu ys
met ry
 s outheast
e a
 Salv ador
vention al
 Per fect
 M int
ak is
 gl ow
id ate
 o mn
ring ton
 dr ums
 Plan ning
 height ened
 comp uls
 overth row
10 4
 illness es
I r
 fraud ulent
12 8
 sell ers
id able
 kidn apping
 util ized
 go alt
 belie vers
lant ic
 cho pped
 G ri
 F ans
 19 42
ba um
En large
 L il
 indef initely
 reconst ruction
� �
im ation
arr ison
re ne
it ating
200 2
 Dar ren
 cur tain
 ac ids
th y
 suscept ible
l n
 ir rational
 T ier
 mel ting
Further more
 s ang
Th ird
 surround ings
 h ats
 cease fire
 K em
 t apes
 miser able
Scient ists
 like wise
Top ics
 st acked
 AR M
 ur ine
 pop e
 miss es
O ld
g as
F oot
em ade
n umber
a qu
 obs ess
 S V
the med
rict ed
On line
j ah
 pro claim
 catast rophe
pl aces
 st oring
lud es
 Mot ion
 unique ly
mark ed
 remark ed
 Ang ular
h ig
 lapt ops
IN D
10 2
 Rh ode
 char ism
 spat ial
 C er
is ch
 council s
 com r
 he ights
 ex ile
� �
 inqu iries
 f aint
 Des ert
 195 8
 comment ator
 rec urring
qu arter
olester ol
Feb ruary
 \ (
 Gen esis
ee le
 j ugg
omet ric
fr ac
AN G
 Pan el
 sur geon
 ende av
 V ers
a verage
 super natural
f ill
 shr inking
 T ah
 J azeera
 D ucks
um bs
F ederal
 John s
B rian
st ill
g ae
 un pleasant
 dis like
 cr acks
 Ill ust
o il
ig ators
 tub es
 Bl ade
S u
It em
 Schne ider
 Protest ant
 G iant
 Ad mir
 an th
 Im port
 lif elong
 dest ined
 author ization
A ri
 N ate
ex per
S ervice
B rad
 oper atives
 Like wise
 C E
ood y
 Ex xon
W ater
Ch icago
 disagree ment
ush ima
R om
 different ial
 valid ation
 gal axies
D ist
 elig ibility
 with hold
 off ender
 Ar s
ul ators
a unch
 ch lor
 Kind le
 cont enders
 Wy oming
D O
 overt urned
 C anyon
import ant
 reg ression
 photograp hed
 mit igate
 rev olt
 b unk
pl er
 milit ar
 mad ness
 surviv or
 pund its
 design ation
 sc oop
lin er
 Am sterdam
 weaken ed
 D owntown
 195 6
 sl ap
ir teen
 Li u
 Custom s
C ore
 M illion
im o
h ash
 intermedi ate
 Fort une
B at
 ded uct
 Part icip
 F REE
 ch ambers
d ue
Mart in
 sh arks
 prop onents
h un
т о
L ight
 H ugh
 Gall up
PD F
 Dav ies
 hon ors
 sh am
 hint ed
 b ounds
 N ear
 Bar rett
en ment
 heter osexual
 B erry
pir acy
 inter ceptions
 W er
 Bre aking
 sab ot
 pun ched
 prepar ations
qual ified
 Tre vor
 Econom y
 pl ague
 Rest aur
art z
 Quest ion
 to mb
 hero ic
 Dian e
 grab bing
 can vas
 Sh ia
 conver ting
c irc
 Rhod es
 wor s
 Cl iff
OU ND
 10 3
 V as
S orry
00 3
 P ra
 fair y
ang ular
 unp aid
 O L
 worth while
sm all
 rehab ilitation
 hel pless
 E R
Cons ider
 S hen
A ud
 Prov ince
 E ston
e on
 Through out
 clos et
 Ch in
ott est
P an
" );
ific ent
 compos er
 crus hing
 D iff
iv ism
it ures
 re op
ot le
L ondon
 ex h
 t enth
 discipl inary
 d ess
ump ed
 T ag
 Pir ate
Qu ery
 franch ises
 rum or
ol ation
 on set
per ing
 po orer
 Kit chen
 M ega
 w olves
 g el
G ov
c ule
 P RE
 forg ive
og ene
 spec ulate
 lung s
N umber
al ong
 Bay ern
l ate
 un authorized
 mar vel
 F X
 Am anda
 P ierce
 conting ent
ub s
ern ick
 law maker
 draw ings
ic us
 Add itional
 reject ing
ic idal
 ab normal
4 50
 W orth
stand ard
 C oy
G ET
.. ...
 print s
S k
 Nort heast
 coll ar
 pedest rians
 Intern al
ig ger
ave z
W E
 aspir ations
Donald Trump
D ue
 Colon el
d eath
 zomb ies
F ort
- $
 sc outing
J es
 su ing
 land sc
 kid ney
 ad vertisements
 ret ention
id ad
Ex p
qu et
 abund ant
 edit ions
ra red
 � �
 sm oked
 gluc ose
 My ers
 infant ry
 fore see
t ar
 spl ash
 g ays
 cl one
ris y
 v oy
 imag in
 min erals
 M ate
 di agram
 P am
 he x
 l bs
affe ine
 reb ound
 install ment
 suprem acy
 fall out
 reconc iliation
 H aven
10 3
 w inger
 Hass an
 z oo
 T as
 M oy
 V ita
 ver ification
 Re becca
h on
C ould
 tel escope
 s add
 Gu inea
 play ground
 chance llor
 align ment
im an
 telev ised
com b
 F ell
B er
ari us
ON D
 co erc
 P rest
i ya
R ather
 res h
 comp ilation
 effic acy
F un
 co herent
 D ance
 t in
h ou
 L akes
 195 4
P ER
 Stand ing
osp ace
g io
 t sun
 ro gue
 W ine
person al
 Qu ant
iz a
 Jud a
Pr ice
 draft ing
Israel i
 mortg ages
 exc uses
v s
c ano
v able
Con nect
 R SS
 supp ression
l ich
 cl usters
 cock tail
ass ed
 At las
 dis able
O pp
 sm ashed
f ocused
 south west
 l id
be y
 organiz er
b ons
um en
 s aga
 fant as
 d ur
il ib
 P ine
d ies
 W it
 sc out
 st umbled
 blu eprint
ri o
 Test ament
 stri ve
umn i
 app les
 R ating
m ag
r ice
 super star
 mon arch
 H av
 plag ued
 dictators hip
 M oses
P ath
d eter
J UST
 J ak
m ove
udd y
 disag reed
 D iaz
 circ ulated
 gl uten
 country side
Calif ornia
 Com plex
 unanim ously
N P
 ch orus
 unders c
 pro claimed
 umb rella
 roll er
 Gu jar
he avy
 accus ation
 Coun sel
tr ade
 pecul iar
 V ote
J ose
 mer ged
 Rock y
 10 6
p rop
 manip ulated
 Le icester
W all
 Prem ium
J ournal
 dismiss al
 persu aded
 staff er
 accomplish ments
t arians
 recept ors
 t iles
 dial og
y ll
kins on
 US S
 mult inational
 prohib its
  ion
 ost ens
eff icient
 affidav it
 R ol
� �
 ener get
 s omeday
 Is is
gr and
 m int
 comp ression
 Wag ner
 tor rent
 Jack ie
 C AP
hen ko
 intimid ation
 instruct or
De ath
T M
 lear ns
 Lyn n
 l ith
 L ar
 m aid
 prem ie
� �
 l akes
x xx
pro duction
em er
 d ots
 Pl atform
 Hug o
 contin uation
 Nep al
 Comp anies
 V ern
 War rior
 unl ocked
 M ist
 protest ed
 mess y
icult ural
 dr astic
rat t
 brew eries
 19 17
 craft ing
 W on
educ ated
 S R
 Indust ries
 Os borne
 p anc
 st air
 innoc ence
 b iblical
f iction
 n as
ang a
 m esh
z an
 rational e
 bell y
bour g
R on
 Re venue
in x
 squ at
 brows ing
wart z
ott i
if ax
 f ade
 d ock
 head phones
ablish ment
 therape utic
 stap le
ox ic
 c ant
ell i
bel ief
 S ugar
 Man ufact
N early
 F argo
 N OW
 march ing
 tele com
 fr inge
 cler k
Austral ia
= '
 � �
 maj ors
 commod ities
NAS A
 York er
 N arendra
 by te
In side
 progress ives
ve ment
reat ment
Prof essor
 b ark
 c ros
 A zer
S ky
 Rep ly
 Ref uge
real DonaldTrump
 sh attered
 swift ly
 freel ance
 B ast
� �
 se gregation
 interact ing
us ra
au f
 B ag
 ne oc
 kill ers
 ox id
 R unning
s or
 acc ustomed
 K ub
 IS O
rel igious
Sec ret
 adjust ing
 ubiqu itous
 bad ge
 T IME
 und en
 resist ed
 prop oses
 ins urg
 Wat ers
 7 50
 p uls
u ilt
 pol ite
w ild
 reprodu ction
 car ved
lling ton
 N W
od ore
 neg lected
 dest iny
 ind icted
 H uck
 M AR
 Z omb
__ ___
 H our
 sett ling
ab ase
 Man it
 w ax
 R ise
ol iberal
 opp oses
 scan ning
� �
et r
Author ities
 sk ies
Pro v
 Str ategy
 decor ated
spe cial
 Bur ton
 g ospel
 dilem ma
 G em
 Kore ans
 advert isers
 sol itary
 S ah
 Fe el
 W ave
 Euro pa
IL E
 ant it
 Bor is
 back pack
 poison ing
 harm ony
 co hes
 T ay
 Inter view
ed a
 disreg ard
ger ald
 A WS
enz ie
20 2
Every body
 accident al
 Luck ily
gener al
 W ald
 Len in
ed ience
 unt o
io let
 Off icials
 sp ider
 shoot ers
 l iable
 Link edIn
yr us
 thank ful
 cross es
 advert ised
at ri
 Eug ene
oc hem
 might y
 rep ression
 emer ges
 Pun j
 Cl aire
 misdem eanor
 Mour inho
W al
f acebook
 w aking
 repl ies
 ge ographic
 collect or
 Ang lo
 St ark
 Sh awn
 Church ill
st ro
ij i
orm an
 G addafi
 CON T
 Armen ian
br ing
 y a
 government al
wh y
 st alled
pher d
 Av iv
cho ice
 ang el
 Le h
 Orig inally
 V ic
ci um
 wild erness
 New man
 thank ed
 Rel igious
art icle
 doub ling
 Serb ia
 Re y
 Marx ist
od o
 Per u
 195 7
D ark
 ver ge
f aced
 B oot
 M ale
Eng lish
m t
 I F
s afe
 sub missions
ET A
 N PC
 S it
Pl ayer
 station ed
 reprodu ce
 rem ake
 cyn ical
 St yle
 Americ as
 F ury
 ric her
 a ka
 s or
 Sh ut
f ashion
 195 3
 schedul es
 exist ential
 tr aps
she et
 R ising
 download ing
Ch arl
 weigh s
 br ace
r anking
 par ole
 Lab s
 Hung arian
S ad
M ary
 m ansion
coh olic
f est
Mem bers
AC H
 specific ations
 pir acy
 veget arian
 screens hots
the ir
F und
 trans plant
 D y
 Per iod
C BC
 ant agon
 concer ts
 Dem s
 system atically
 O UT
 unanim ous
 cl utch
al ine
 proc ure
 gar nered
un ion
or ously
 rest ruct
 gard ens
 D ocker
10 9
 surg ical
 l akh
n om
 v ow
 Const itutional
L ocation
 tum or
 Fle et
 psy chedel
 policy makers
 He ather
are l
 dem ocrat
ast ics
 th riving
 div isive
 G E
IN K
 } ;
 earn est
ord e
 l enders
 f ried
 comment ing
Sund ay
m ia
 medic ines
 S orry
 log istics
 Res earchers
 Ham mond
 certific ates
 ir regular
 rem edy
 exagger ated
m is
 char ming
 brand ing
og ram
M ont
 � �
 down side
cript ions
Gl obal
t urn
 Out side
 was ting
 sent iments
 enfor cing
Any way
ace y
 p ac
 F eed
 myth ology
 st igma
 inc arn
 c it
 M aid
I ron
 din osaurs
 � �
 f al
 < <
ist ence
 s ized
 Rock et
 spons orship
 architect ural
 Re ich
product ive
 blog gers
 For ward
ill as
 Congress man
l ove
 T ool
ov y
anger ous
Con nor
 Sy nd
 ign ores
 commun al
 am ple
 Nob le
f uel
 serv ant
U t
 L enn
 An kara
 short ages
 imp art
 F ri
z ip
he rence
Start ing
 ( #
 tweet ing
 depict ing
 cl oses
 Rap ids
 a rom
ich i
 architect s
 19 43
 congest ion
 Cons ult
 p ads
 form idable
 Syri ans
 A ce
-- -------------
UC K
 ret iring
 Freder ick
 se ated
 d amp
 anim ations
 conce al
 even ly
 Hig her
ass er
 Ray mond
 pat rons
 Ne igh
 crack ing
 acclaim ed
u u
 19 55
 loud ly
 Whe eler
com pet
 soc ietal
 Leg ion
 dr ills
 Cong o
 path ways
 ar ises
 aggrav ated
 ne p
 bu cks
enc ia
 RE AD
 Br ing
 mass ively
Go vern
 mon key
 ro oft
m oon
 bod ily
 incap able
f ounded
f ig
 inject ed
IC S
ruct ions
 Writ ing
b ishop
 ref resh
 C W
 m um
 ske let
 seiz ures
 envelop e
y et
 Kat ie
 A FC
 plum met
ong o
 cann on
 Ze lda
 P owers
ab ee
J ason
ott a
 goal ie
 desc ended
old own
 Ven us
ef ined
 over c
 M R
 supp lier
 per imeter
 merch ant
 evac uation
 C ert
 ref rain
 imp ending
 deep est
ik ed
 fire works
en za
Ne ill
 p act
 grad ual
f ires
 Gard ner
sole te
H en
 sc ans
е р
D D
ip es
L oad
 S onic
 m ans
 initi ate
 jurisd ictions
whe el
 last s
 where by
 Buddh ism
17 0
 who pping
 anten na
 Sm ash
 Sex ual
 S ikh
op ia
 c ough
 L anka
 RC MP
cl ose
 D B
 un identified
 aver ages
 med d
� �
 ann ot
ih il
gu y
 Rel igion
 Saf e
 M Y
 Off icers
 pup ils
 indu ce
 Ell en
G G
 Ph ase
 reserv ations
 compan ions
á s
t ical
 Com bat
priv ate
d ependent
 proport ions
 counsel ing
 Hans en
as io
 Joy ce
C am
ic ular
 d itch
 for ged
 P orsche
 de gr
 Laure n
 D re
 play able
 He in
 explo its
.” )
 predec essors
 affili ation
 Vict ory
h m
 truth s
 spect acle
 t apping
 rul ers
 nit rogen
 L SU
oh yd
 ir responsible
Ne ither
 d op
 s ir
se ys
 renew al
 rent ed
 fasc ist
ep ernick
pr us
 opp ressed
 br akes
 sw all
mean ing
M ond
 bur ger
 F ighting
n as
) [
 L TE
 B rief
 med als
 b ree
 In come
 Ap ache
 cl an
Ex pl
 sw ear
t arget
 N olan
 sens ory
 phil anthrop
 G ut
 Andrew s
R ev
E st
 Sp ark
 circ ulating
 Min ority
 Card inal
 reg istry
 photograp hers
 10 7
 ca fe
 P u
 C ous
 Sant os
edd y
 prolifer ation
 eleph ants
ar us
Le ft
ñ o
 dem ons
 atroc ities
 S ans
 G ET
 transform ing
 stub born
 und o
 gest ures
 Ku wait
 19 49
r ue
 T umblr
sc ill
. /
 Re ality
 v ou
 str ongh
 run time
 high s
ran ch
 bre asts
 10 8
 f ier
 Fro st
 E manuel
 N iet
 B om
ill ions
 o z
 he mp
 disrupt ive
 culp rit
ron ics
ody nam
 speed ing
 ch unks
 mem e
 al ley
 aw ake
at ra
 good bye
 flood s
 I o
 Product ions
 un in
 success ive
 Mah m
st re
 stri ps
 G ent
U B
 Bra ves
 lim bs
 G olf
is man
Semit ic
T B
 Ne o
 D ifferent
 hal ted
 Med al
 inad vert
c reat
 and roid
open hagen
 R aspberry
 mut ations
 alleg iance
B usiness
 C ultural
M ic
 rem n
 lau ndering
 S leep
 Ins pector
 Sav age
 Roy als
 st all
 mut ation
 grat itude
 Super ior
 Celt ic
et ics
 po pping
 sl ope
 En joy
 r ude
ld on
 rev ive
 Cor nell
tt a
 expend iture
W ed
Step hen
� �
 o m
 grab s
� �
its u
 planet ary
 memo ir
 P resent
 Gar rett
 F en
 C OU
ar is
p resent
 Elect oral
 Juda ism
 on ion
VID IA
C ru
 respect ful
 sp ur
 comfort ably
 sur real
 lim itation
ru gged
 rest oring
 D uck
com merce
10 6
 vill ains
 Rel ated
 E cho
ad ic
Tr ue
 p oker
 chick ens
ett es
pict ured
 W enger
 h ug
Intern ational
 continu ity
 M add
com mittee
 D NS
re b
3 60
+ ++
 sad ness
 depart ed
 cor related
 pseud o
Des ign
 undergrad uate
 tri angle
 11 2
M R
 Med ium
 rob bed
 Gree ks
 Camer a
 harass ed
 Charl eston
osh op
 Peters burg
r ath
25 6
 Res istance
 tempor al
n ick
b ai
 micro bi
 K ur
 world view
 B A
 piv otal
 incorrect ly
 except ionally
 for c
 authent icity
ric ks
p ensive
ap i
 su cks
 Bel fast
aj a
 profound ly
 inc ub
Mus ic
 gr ains
 inter ception
 P av
 ge op
 bud dy
ass ing
 P ale
inc re
 sl ate
 di ets
 el bow
 disc rep
 simpl est
ver ts
 sl iding
 disc ern
re lease
 st d
 o v
 commer cially
asket ball
it ant
 ver te
 Al ban
 gener als
 ge ek
 camp ing
os lav
j ournal
 Market ing
 un official
en ame
v on
s kin
M ag
alk er
 assess ing
� �
l ang
ex isting
 hit ter
 Pre p
 s ins
 per former
ch in
 J ail
s ince
 We ight
 rem oves
 K re
 T ucker
 resp ir
 dis comfort
 Rep orter
 incarcer ation
 am en
 T SA
 Har old
idel ity
 ske leton
Reg ardless
 impe achment
 Pod esta
 l ure
 ess ays
 all erg
 Jo an
d ain
 nep hew
ut ory
 L un
� �
 Ext ra
cent ric
 Fl ore
B ad
 s ou
 hypoc risy
 dr ift
� �
st ant
ew orthy
 execut ing
 E z
 spec s
 Techn ical
 St ur
 Moh ammad
 � �
 z ip
 inc idence
 equ als
 19 46
 se af
 c ove
� �
oh an
 synt hes
 D uc
 pharm ac
 work load
b order
 mis ery
 Christ ine
 bl oom
 Pop ular
 spec ulated
 conf essed
char acter
ik ers
LA Y
 Revolution ary
 per t
 pil gr
 inj unction
 hall uc
 e lic
 tiss ues
act ly
 gra ffiti
 C aucus
in th
 rain fall
T en
 test osterone
 provoc ative
 decre ases
 Nic ole
� �
 n ud
gress ive
 was t
 Sh ore
 Sebast ian
 R ole
Can adian
 Mult i
t im
 Col bert
 Eth ics
 List en
any e
iss ue
 tot als
 Mar athon
 M TV
 Com put
em on
 x en
 sit uated
oot er
 prep ares
 dec omp
 Te en
 bigot ry
w on
 Car p
 rail road
 campaign ed
 dev ote
just ed
 inflamm ation
 sy rup
u ously
ON G
 coll usion
 rul er
W ait
 board ing
 sh ining
 inv aded
te enth
 tend encies
es que
 puzz les
 Dur ant
H H
threat ening
 Ped ro
 Bl ocked
 t an
 Full er
og o
 Am nesty
 Rec ent
ub arak
 b aked
oy a
 Strateg ic
N F
at z
 Patri ot
cap ital
 inter vals
 App lication
 st ain
T it
 un aff
 M AN
 Th ing
L P
 N D
W C
 not ions
 D EA
 F actory
 per il
 N R
 J ab
gl obal
 t abs
St ream
 schizophren ia
 sm ash
 dict ate
 Drag ons
r itional
k top
 vill agers
 new born
 Zh ang
auc as
 theoret ically
 b aff
 V it
 P oor
10 7
Will iams
 k ings
 Ar ist
B ase
 prol ific
 bo il
 re play
 preced ing
 He b
 But ter
rain e
utter stock
 fil ib
 S ize
 special ty
 Fly ers
het ics
 conflic ting
 S aid
 D HS
 qu ir
 TH C
 P retty
ous se
 Se vent
00 000
g ithub
 out we
sp ot
hard t
ir ling
OL D
 toug hest
 sal mon
 r app
 pair ing
 Le eds
 Aud i
m oney
 coun ters
but ton
 Arch ives
 2 30
t aking
R o
 pref ers
 P itt
 d é
 pro w
e us
not es
 U AE
 J as
 B ug
 -- >
 bra ke
K now
us a
 V ander
G T
 Inf o
Sec urity
Go ing
e ast
 W itch
 Pat terson
 str at
Never theless
 inex pensive
 neighbour ing
 M echan
 sur rog
 Not ice
 Z ika
 V oy
 Bul gar
d ens
 year ly
 l ocking
 inv asive
 sm iles
r aining
 Lam ar
 Ep ic
� �
 f ills
 pl ac
 cl ing
 wh ip
 ex pelled
 cl ay
 Lie utenant
 expl ode
 ur ges
Fr ance
 pl ight
th ose
13 5
 sim ulations
 rot ating
 10 9
 � �
19 99
 ins iders
 Lic ense
c ats
 em ission
 Indones ian
 rab bit
 gig antic
 Mel issa
 Fe atures
W orks
 Cal vin
 restrict ive
 admin ister
 Brad ford
 pass er
 A id
е т
German y
 config ure
 St am
 expl ores
hib ition
 ste er
 mail ing
 God s
be ck
 voc abulary
а н
 che at
 S ara
iv or
cr ime
 app end
IC A
 L ac
 X ia
 at om
 Cu omo
 m as
 guess ing
 R ash
 gr in
 H oney
 My an
 univers ally
 install ations
 pack ing
 Gujar at
 c ues
 Wi Fi
 Wh ole
 gl am
 Gro ve
 Ch ang
 Av ailable
 imper fect
M il
 de port
ym es
h awks
 score r
 now adays
 ch olesterol
C arl
 gr ammar
 al erted
 condemn ation
 am azed
c amera
Sen ator
 accum ulation
bo at
 vacc ination
 imp aired
com pl
 person a
 h ottest
 Iss ue
 lif es
 G erald
 Bill board
S ystem
F ast
ket ch
ñ a
 h ates
M ajor
c p
 commercial s
 appl ause
 Fitz gerald
g ering
aw k
 celebr ates
 development al
 Joh ann
. *
 post ure
 De V
 defense man
 lect ures
 Ch avez
att a
 N om
 rat ios
 br ink
 polit ic
 a we
IG N
 commun ism
en h
 sal v
 disproportion ately
 ther m
och ond
 law ful
 jihad ists
j ava
 exp ire
 Bay lor
 ritual s
d uty
rent ice
 smugg ling
 Sol utions
 cris p
sw er
Will iam
ra its
 le v
 d ictionary
rend ered
 subsid y
 distur bed
 / *
nt on
 insult ing
 U E
 NAS CAR
 Key stone
w y
 Gu ate
 descend ants
 W yn
 Sor os
 remember ing
 Chap man
 under mining
 r av
 co ached
g ard
el o
 W ong
ct ica
 S ettings
 Mar ijuana
T I
Sen ate
 Myan mar
Go vernment
 D ocument
 Liber tarian
 G amer
er ter
 ch illing
 C oul
w omen
 oil s
 infect ious
oc ating
 f ox
 expend itures
 insurg ents
P riv
 gl owing
 Tw ilight
 rum ored
 Lind sey
 fo am
 horm ones
ic z
che wan
av ier
 experiment ing
 W ash
 specific ation
 discrimin atory
 Nic olas
11 2
 air ing
 P P
man ned
 H os
k ick
 practition ers
 construct ive
 Philipp ine
 L B
C oll
 cler gy
 She ikh
 Orig in
f ell
 W AS
 tra umatic
 imp uls
 Stephan ie
od us
 fam ed
 mot ors
 ext inct
ail ure
Orig inally
 trans cend
 sle w
 b apt
ext reme
 13 5
C ost
ber ries
 defin ite
 S ig
� �
C ase
 decre asing
 fr iction
 Sh ir
 Dis play
Sim ilarly
Com ment
 config ured
 W rite
 Zion ist
li able
S ize
ur istic
en ary
 hands ome
d an
 pro se
 ----- --
AR S
 Resp onse
 patri ot
 d ynasty
 c emetery
 rest s
 Fuk ushima
 ) :
T aking
! ),
T s
 M ental
 Com ments
if ts
 pe as
 P izza
 pet ty
 C ain
 W id
 pol ished
 R id
 Ph arm
ign ant
 m ocked
 municipal ities
 exhib ited
St and
 nic otine
 St rat
f at
 Les lie
 A CA
 conf ess
 o ri
ov sky
 C openhagen
 tsun ami
b c
 consult ed
 fort unes
 Opp osition
 E ld
 unre asonable
 jud iciary
 Fred die
 t ipped
 W ILL
 Under ground
 Ch i
 Stand ards
am oto
 Sol omon
 tr act
 restrain t
 s ulf
 out doors
 C ed
ms on
 dwar f
 hist ories
 contrad iction
 SS D
 ins ign
 T yson
iv ities
 revers al
 Psych ology
 sand wic
 phenomen al
 tr unk
 bub bles
 Be e
t xt
our cing
 cyber security
i very
E ff
 A W
 f aded
uper t
 Has kell
 Hell o
 recons ider
reg ulated
all ic
 disp atched
 schedul ing
 l amp
 interpret ations
sh ort
 An s
 15 00
a ude
L uc
vid ia
id as
P ack
 employ ing
10 8
 Te ams
 Os ama
ob il
N ov
 195 2
 t earing
f inals
 plug ins
Pal est
 cher ry
lu ent
 Fr aser
 Const ruction
� �
bro ken
 Cy prus
 Oper a
 Bened ict
at hing
 mon uments
 Tre nd
r é
 instinct s
is y
 prin cess
 commem or
iov ascular
IS H
 Tr inity
 mush rooms
 Ob server
 I PA
 geomet ry
 Char acter
 p ains
 Brig ade
 R um
 distribut ing
а л
 esp ionage
E conom
.’ ’
 rent s
 ra ided
E arth
 millenn ials
 grand parents
 ge ography
 boost ing
 Dog s
 Ast ros
 s arc
 p ins
 N issan
 part nered
 Short ly
 Ass ass
 penet ration
an amo
 fulf illing
w agen
medi ately
 outs iders
 blat ant
 1 19
 uns pe
 sh ale
need ed
Orig inal
EM A
 collect ors
ess im
Mat thew
 pass ages
 Non etheless
ent on
c ritical
 E VER
ALL Y
 mand ated
 kind ness
 M alt
man agement
am bo
 sl ash
 femin ine
 drag ging
 S ke
 Valent ine
c uts
 ecl ipse
 conc ussion
k t
 G ru
m aid
 supp lements
c orn
 obst ruction
 optim ization
 Sh arks
r il
 discour age
 Det ective
P op
ar ations
 start ling
az ingly
 M K
 Un block
 Innov ation
 Un known
 Roc hester
 pres crib
 s inking
 Sh arp
h ma
. —
 G C
 long standing
tle ment
 rac ially
 strengthen ed
 Franc o
 home work
def ault
 regul ating
 clar ified
 B end
� �
iv ist
 front s
 s acked
 read ings
 in mate
 Interest ingly
 Front ier
 he ars
 ecosystem s
 C V
 conc urrent
 As ked
im i
 Mig uel
 fin anced
udd le
 manifest o
 sort ed
 excell ence
 Arch ive
  iv
r anked
 n ap
and ro
 right eous
 gun fire
st en
D M
 eth ic
orn ings
F lor
il ot
ip al
 bl ur
 stat ues
 mar itime
l aughs
E ast
ter t
 sub set
 gu iding
 R i
i ating
ak o
 Kir by
 heavy weight
 gen res
iol a
 optim ized
 Jav ascript
 compet ed
he ne
 Sch war
 19 33
pat rick
 m aternal
uc ing
 bl ues
 Y ug
 Motor ola
 Ex pect
Pre vious
 front ier
 H ers
 jewel ry
 fat ally
 Decl aration
z ero
osoph y
 leg ends
 youth s
 L ords
 oun ce
reat h
 indic ations
 ch ased
 Av iation
 out going
 Art icles
 gate way
 fulf illed
 en cl
l ide
 h amm
 Spot ify
ach ine
I AN
 Fr ances
 ethnic ity
sh are
am my
 d wind
 arc ade
v ine
m ot
 proceed ing
 Bar on
her ty
 inv oked
 inflamm atory
est ablished
 O dd
act ivity
 run way
umb les
ld om
 Ast ron
 cart oons
 John ston
N R
fil m
Bl ock
 Ch icken
 pestic ides
 trail ing
 sp un
 real izes
 b ully
J udge
U MP
aid a
 ad am
 open ness
 Art ist
 All ied
 L uk
 Jac obs
ys ics
 deploy ing
 pump ing
 Cor rect
p sych
 works hops
 unle ashed
 Publ ishing
 mis represent
 pen insula
 Is n
 un available
 impl ication
 explo iting
 Pay Pal
mans hip
he a
 oblig ed
 N er
l ists
 overr ide
 E y
 T ank
cept ive
 f eder
Bre aking
 organiz ational
 Any way
 s unk
 Ch art
 def ects
 T ut
 Custom er
 25 6
 t ac
To o
 rock y
 Pre vious
: [
 narc iss
 coh ort
 astron omers
 pr aying
st ed
 Mon roe
 Ib rahim
 unexpected ly
ov able
 moist ure
 bur nt
 abrupt ly
 oversee ing
 m und
 kn ives
og rams
 L ok
 hold ings
 Afric ans
 G ren
 Do om
 par cel
 ch ord
 F ry
 pe aks
 frame works
s end
bet ween
 parent ing
 ob ese
 f erry
ing es
 bl ink
 V PN
 mod ular
 hes itate
 yield ed
 V on
H appy
 chall enger
 bi om
 Sh annon
P rop
 Ar ms
 Con nor
 wor m
 un ins
Oh io
old en
ig ated
 split ting
 vib e
 e ve
 Ott oman
f re
 termin ation
 ad missions
 visual s
 as semble
 Sc out
g os
R a
 w ishing
T F
 K ris
 Int o
r ag
 X in
 philos ophers
 Athlet ic
st own
 Stock holm
 Cy cling
 Sol o
 ch assis
 notor iously
Cle arly
 Jan et
 to re
 not ify
 summon ed
m ort
 plant ing
 label ing
 WATCH ED
 H il
k ish
R est
 sn ipp
 C oc
oss ip
if ty
 ill umin
A ction
 h iking
att led
 spont aneous
 p enny
us ually
 ret ali
 k idding
 energet ic
 c av
vis ors
 L is
ut sche
 with stand
 grand children
 con ve
AN C
 ens l
 decl ares
 ceremon ies
 mic row
 ( (
... ]
uck ing
 broadcast s
p ires
Jew ish
 slog ans
 bacter ial
 fl ipped
 A ber
" ?
 Ka epernick
� �
l ated
o i
 AN Y
11 4
aci ón
 wand ering
 K ol
 Com mercial
 hand ler
t ree
 17 5
 gener ators
 contrace ption
 under mined
 hom emade
 cos m
sm ith
 sil icon
L im
 mod s
acc ount
 central ized
 bl onde
 demol ition
 Al bum
 per vasive
 f ixture
 Opp ortun
us ch
reg ulation
 s lick
 G IF
en o
 be verage
Event ually
in av
 trig gering
 motiv ations
 exc luding
g ot
 escal ation
c ool
 Bur ger
ra ven
 str anded
 soc ks
 Gold berg
ut z
 w izard
 he ap
 Reg ist
it ious
ar ray
U k
olic y
l oss
el in
M rs
)) )
O B
Cont ent
 tom atoes
 l ent
EN S
uck land
V e
 drunk en
 retain ing
 progress ed
17 5
 S ally
 K abul
 Al v
 Sw ord
 Aur ora
 b ids
 Sec urities
lu ence
 fil ings
 Field s
 B ath
x imately
 sp rawling
 proced ural
 ev id
 d ental
 S ark
 Mac ron
p ng
 or thodox
 p as
bur se
 � �
rec ogn
 Pengu ins
� �
 Sc and
V an
 D raw
 ob solete
2 40
 diss atisf
AN N
/ -
 H iro
 met ropolitan
 N igel
get own
v d
 sat ir
 Tor res
 O ption
 respect able
 los ers
 W ool
are th
 Hann ity
 bureaucrat ic
 M Hz
 block ade
 19 14
ic ially
 dom est
 sid eline
 imm ers
 squ ares
o os
 mis guided
 C ec
 sod ium
 Sant orum
 pione er
V ia
 New ark
 Hor izon
j son
S ean
 resist ing
 con quer
 D as
ag ent
 P ure
 P ixel
Sc roll
 d urable
ud get
che t
 bus h
 gl ue
j ury
 high ways
 datas et
go ogle
 rese ar
dig it
 Mo zilla
 reject s
 Rut gers
ocaly ptic
 a isle
 stat utory
 l ord
 cancell ation
 mat urity
 � �
 c affeine
 Guant anamo
 St eele
 Per th
 Lu cy
 restrict ing
t ab
 synt hesis
k an
 Mad uro
on ial
om orph
 D ew
 imag inary
 Black s
 A AA
 aw ait
 R andom
 metab olic
at ible
avor ite
 und ec
 bal ances
uss y
go ers
 mon keys
 van ished
 test ament
 ass im
 Law s
R Y
 assist ing
 respir atory
i ago
S ex
 cub ic
f orth
 .... ..
 se ating
 le isure
 Advis ory
AM A
 che ering
 alph abet
� �
 s igh
 lab s
 imp over
 smok ers
 Vol ks
 Res cue
Er ror
 P ip
 util izing
 stress ful
 can cers
 magn ificent
not hing
 vis ions
e ight
Th ursday
 disc arded
 ar rows
 PTS D
 prev ailing
 arm ored
c hens
 consult ants
ib o
onge vity
m ith
is ine
 sin ister
 rum ours
 dem ographics
M essage
 un for
 Pod cast
Mond ay
 vers a
 Boy d
 re write
 H ang
 Mo z
 th ieves
 ce ased
 F usion
S at
 object ed
 F ah
G ate
 F it
al most
cl air
 N I
 f uzz
 standard ized
 lik ing
j ad
 laund ry
 elect rons
 Zucker berg
 ab using
at ts
 Joe y
ows hip
Just ice
 insist ence
 circ uits
 Pro blem
 A gg
ru ce
 F ul
re ally
d rive
 exp ands
 live lihood
ud o
rac use
 Quest ions
 F i
 pro let
 arbit ration
 J P
W in
ib a
 impress ions
 [ …]
oper ation
 195 1
 tele communications
 aut obi
ord ered
ve illance
 sc aled
ish i
ess ment
 ne oliberal
 jud gments
 e in
 T witch
 P ool
ir rel
F riend
 rel iably
 ad here
 ac oustic
 We ber
 a ided
 S ina
 Cre ated
 19 18
O A
 Ag es
pe x
Res earch
CL OSE
 rehe ars
 pump ed
 F E
 Dani els
 19 38
 Green e
oc re
bet ter
 promin ence
 de ception
 M ubarak
 stim ulate
ev il
 swing ing
 Sub ject
 R iot
 incons ist
 N u
 Sad ly
 fear ful
 L I
 Antar ctica
ron ting
 condem ning
mod el
 Mon itor
Or gan
 diff ers
 sacrific es
 g n
 Phys ics
 Whe never
 grad uating
on el
 teasp oon
 Mart y
 Mar riage
 Hoff man
 Com pl
 prov oked
 g ast
 M au
Com ments
ym ph
ble ms
 jihad ist
 Ana heim
raft ed
 Al leg
F E
 disrupt ed
 AC T
 rou ter
ment ia
 Wol ver
 n ause
 disgr ace
 text ures
 b olt
 V II
ilib rium
ag netic
 Stat us
 termin ated
 R OM
 elev ation
 L inks
 Hann ah
 pack et
d ates
 pir ate
 bull pen
let ion
j et
aa a
 conf ession
St ay
 ori ented
 nostal gia
 hur ry
 comp ute
Short ly
 theat rical
 st ared
 Sch wartz
 Finn ish
 collabor ate
 Ton ight
 S ou
 Manit oba
 S uff
 I X
� �
 subst it
 11 4
 Hist orical
 H ash
 he fty
 conserv atism
 Crit ics
 un sett
 res umed
 G ust
M oney
 R NA
 sky rock
 pir ates
 possess es
 Wik ileaks
 presum ed
 mel ted
 bur dens
 wheel chair
 S z
 downt urn
 12 3
 tro lls
A ccess
о� �
ang ling
 end urance
 ing en
 c apped
 Elect ions
fashion ed
 re written
 l ays
 overse es
 mim ic
F M
 ostens ibly
F re
 tempt ed
 B U
in ness
ad an
Japan ese
 conf inement
B on
 Ra q
� �
or st
L ow
 pun ches
 sc outs
 m og
Writ ten
 unfair ly
 key word
per cent
l aughter
 w aving
 chrom os
 Mic key
 DI Y
yr r
 Ori oles
per fect
g ic
16 8
 mon st
 th igh
 insult s
y g
indust rial
 rev ol
 V C
ere m
ff ield
 M H
in ion
 Ar ray
 Y ORK
 Will ie
 G ig
 R anch
 Kaz akh
Sm all
Act ually
 fold ed
 ID F
 gun shot
 ban ana
 S we
ag i
 out ward
 entit lement
Ne il
D L
 t ones
ow ler
 viol ently
 rot ate
 harm less
 R an
 legal ized
e as
 Ug anda
OT H
 a ce
 guess ed
 Bund es
ut able
 ext r
 rec ap
 Book er
d ead
 grav itational
 dr ank
 Re ason
 P ull
ier i
 d ar
 Kn ox
Tur key
 pip elines
 think ers
 ex ert
K A
 ter med
 metabol ism
 fun nel
 transfer ring
 sal vation
 Saskat chewan
 Hard y
R od
 D ol
so ld
 command ing
IN S
D ead
 mut ually
  ال
 joint ly
 er osion
 = ==
state ment
id is
 exerc ising
[...]
