{
    "<|endoftext|>": 0,
    "\u0000": 1,
    "\u0001": 2,
    "\u0002": 3,
    "\u0003": 4,
    "\u0004": 5,
    "\u0005": 6,
    "\u0006": 7,
    "\u0007": 8,
    "\b": 9,
    "\t": 10,
    "\n": 11,
    "\u000b": 12,
    "\f": 13,
    "\r": 14,
    "\u000e": 15,
    "\u000f": 16,
    "\u0010": 17,
    "\u0011": 18,
    "\u0012": 19,
    "\u0013": 20,
    "\u0014": 21,
    "\u0015": 22,
    "\u0016": 23,
    "\u0017": 24,
    "\u0018": 25,
    "\u0019": 26,
    "\u001a": 27,
    "\u001b": 28,
    "\u001c": 29,
    "\u001d": 30,
    "\u001e": 31,
    "\u001f": 32,
    " ": 33,
    "!": 34,
    "\"": 35,
    "#": 36,
    "$": 37,
    "%": 38,
    "&": 39,
    "'": 40,
    "(": 41,
    ")": 42,
    "*": 43,
    "+": 44,
    ",": 45,
    "-": 46,
    ".": 47,
    "/": 48,
    "0": 49,
    "1": 50,
    "2": 51,
    "3": 52,
    "4": 53,
    "5": 54,
    "6": 55,
    "7": 56,
    "8": 57,
    "9": 58,
    ":": 59,
    ";": 60,
    "<": 61,
    "=": 62,
    ">": 63,
    "?": 64,
    "@": 65,
    "A": 66,
    "B": 67,
    "C": 68,
    "D": 69,
    "E": 70,
    "F": 71,
    "G": 72,
    "H": 73,
    "I": 74,
    "J": 75,
    "K": 76,
    "L": 77,
    "M": 78,
    "N": 79,
    "O": 80,
    "P": 81,
    "Q": 82,
    "R": 83,
    "S": 84,
    "T": 85,
    "U": 86,
    "V": 87,
    "W": 88,
    "X": 89,
    "Y": 90,
    "Z": 91,
    "[": 92,
    "\\": 93,
    "]": 94,
    "^": 95,
    "_": 96,
    "`": 97,
    "a": 98,
    "b": 99,
    "c": 100,
    "d": 101,
    "e": 102,
    "f": 103,
    "g": 104,
    "h": 105,
    "i": 106,
    "j": 107,
    "k": 108,
    "l": 109,
    "m": 110,
    "n": 111,
    "o": 112,
    "p": 113,
    "q": 114,
    "r": 115,
    "s": 116,
    "t": 117,
    "u": 118,
    "v": 119,
    "w": 120,
    "x": 121,
    "y": 122,
    "z": 123,
    "{": 124,
    "|": 125,
    "}": 126,
    "~": 127,
    "": 128,
    "�": 31986,
    " t": 257,
    " a": 258,
    "he": 259,
    "in": 260,
    "re": 261,
    " the": 262,
    "on": 263,
    "er": 264,
    " s": 265,
    " w": 266,
    "at": 267,
    " o": 268,
    "en": 269,
    " c": 270,
    "it": 271,
    "is": 272,
    "an": 273,
    "or": 274,
    " b": 275,
    "es": 276,
    "ed": 277,
    " f": 278,
    "ing": 279,
    " p": 280,
    "ou": 281,
    " an": 282,
    "al": 283,
    " to": 284,
    "ar": 285,
    " m": 286,
    " in": 287,
    " of": 288,
    " h": 289,
    " d": 290,
    "as": 292,
    "ic": 293,
    " and": 294,
    " th": 295,
    "le": 296,
    "om": 297,
    "ion": 298,
    "ll": 299,
    "ent": 300,
    " n": 301,
    " l": 302,
    " re": 303,
    "st": 304,
    "ve": 305,
    " e": 306,
    "ly": 307,
    "ro": 308,
    " be": 309,
    " g": 310,
    "id": 311,
    "ut": 312,
    "ac": 313,
    "ot": 314,
    " T": 315,
    " I": 316,
    " that": 317,
    " on": 318,
    "ay": 319,
    " S": 320,
    " is": 321,
    "et": 322,
    "im": 323,
    "am": 324,
    "ad": 325,
    "ow": 326,
    "se": 327,
    "ig": 328,
    " for": 329,
    "’": 330,
    " A": 331,
    "ver": 332,
    "ur": 333,
    "ct": 334,
    "ld": 335,
    " C": 336,
    " u": 337,
    " st": 338,
    " y": 339,
    " it": 340,
    " he": 341,
    "ir": 342,
    "ation": 343,
    "ith": 344,
    " wh": 345,
    " M": 346,
    "ce": 347,
    "ter": 348,
    "ol": 349,
    " we": 350,
    "il": 351,
    " with": 352,
    " as": 353,
    " B": 354,
    "ch": 355,
    "ill": 356,
    "nd": 357,
    " P": 358,
    " was": 359,
    "ers": 360,
    " you": 361,
    "ke": 362,
    " �": 31303,
    " con": 364,
    " de": 365,
    " r": 366,
    "her": 367,
    "if": 368,
    "ate": 369,
    "ag": 370,
    " at": 371,
    " ha": 372,
    " W": 373,
    " se": 374,
    " H": 375,
    "ore": 376,
    " pro": 377,
    "ul": 378,
    "pp": 379,
    "ment": 380,
    "ri": 381,
    " are": 382,
    " D": 383,
    " 1": 384,
    "us": 385,
    "est": 386,
    "ist": 387,
    " com": 388,
    "and": 389,
    " R": 390,
    "op": 391,
    "ain": 392,
    " The": 393,
    " 2": 394,
    "igh": 395,
    "rom": 396,
    " (": 397,
    "ort": 398,
    "od": 399,
    " ne": 400,
    " F": 401,
    "um": 402,
    "un": 403,
    " ex": 404,
    "res": 405,
    "ab": 406,
    "”": 407,
    " not": 408,
    " N": 409,
    " v": 410,
    "ess": 411,
    " have": 412,
    "ity": 413,
    "em": 414,
    "ould": 415,
    " or": 416,
    "th": 417,
    " by": 418,
    "os": 419,
    "ant": 420,
    " G": 421,
    "ive": 422,
    " from": 423,
    " al": 424,
    "el": 425,
    "'s": 426,
    "oc": 427,
    "art": 428,
    " su": 429,
    " L": 430,
    " sh": 431,
    " this": 432,
    "nt": 433,
    "qu": 434,
    "ight": 435,
    "pe": 436,
    "ust": 437,
    " le": 438,
    "ies": 439,
    " E": 440,
    "end": 441,
    " ch": 442,
    " sa": 443,
    "out": 444,
    " ab": 445,
    "The": 446,
    "all": 447,
    "ie": 448,
    "ack": 449,
    "red": 450,
    "00": 451,
    " “": 452,
    " has": 453,
    "ally": 454,
    " J": 455,
    " pl": 456,
    " go": 457,
    "ard": 458,
    "iv": 459,
    " his": 460,
    "ome": 461,
    "ap": 462,
    "ost": 463,
    "gh": 464,
    "ear": 465,
    " O": 466,
    " tr": 467,
    "our": 468,
    "ast": 469,
    " j": 470,
    "ak": 471,
    "ud": 472,
    " do": 473,
    " they": 474,
    " but": 475,
    " wor": 476,
    "rou": 477,
    " can": 478,
    "ge": 479,
    " will": 480,
    " said": 481,
    " whe": 482,
    " U": 483,
    " k": 484,
    "ich": 485,
    " all": 486,
    "ok": 487,
    " \"": 488,
    "ide": 489,
    " who": 490,
    " int": 491,
    "ame": 492,
    "ans": 493,
    "ther": 494,
    "ial": 495,
    " out": 496,
    "ff": 497,
    " their": 498,
    "ong": 499,
    "ect": 500,
    "pl": 501,
    "ice": 502,
    "ure": 503,
    "pt": 504,
    "one": 505,
    " more": 506,
    "age": 507,
    "ions": 508,
    "act": 509,
    "ike": 510,
    " me": 511,
    " up": 512,
    "ous": 513,
    "ine": 514,
    " ad": 515,
    " about": 516,
    "ated": 517,
    "ra": 518,
    "ber": 519,
    " one": 520,
    " were": 521,
    " so": 522,
    " us": 523,
    "ime": 524,
    "og": 525,
    " K": 526,
    "ep": 527,
    "ia": 528,
    " had": 529,
    "are": 530,
    "ub": 531,
    "cc": 532,
    " would": 533,
    " cl": 534,
    " 20": 535,
    " im": 536,
    " which": 537,
    "ind": 538,
    "ue": 539,
    "ake": 540,
    " cont": 541,
    "iz": 542,
    "very": 543,
    " ag": 544,
    " te": 545,
    " off": 546,
    " comp": 547,
    " un": 548,
    " been": 549,
    " St": 550,
    "so": 551,
    " en": 552,
    "per": 553,
    "ign": 554,
    "au": 555,
    " Th": 556,
    "ary": 557,
    "ace": 558,
    " year": 559,
    "ip": 560,
    "ew": 561,
    " like": 562,
    "ere": 563,
    "ven": 564,
    "ook": 565,
    " inc": 566,
    "ays": 567,
    " man": 568,
    " pe": 569,
    "ry": 570,
    "ose": 571,
    " res": 572,
    "able": 573,
    "ite": 574,
    " per": 575,
    "ass": 576,
    "ord": 577,
    " sp": 578,
    "ire": 579,
    " In": 580,
    " other": 581,
    "mer": 582,
    " some": 583,
    "ile": 584,
    "ib": 585,
    "ence": 586,
    "ople": 587,
    " 201": 588,
    "ks": 589,
    "ations": 590,
    " over": 591,
    "ical": 592,
    " there": 593,
    "ress": 594,
    " dis": 595,
    "ult": 596,
    "int": 597,
    " new": 598,
    "own": 599,
    " also": 600,
    " than": 601,
    " ar": 602,
    " bec": 603,
    "ru": 604,
    " them": 605,
    "ance": 606,
    "ount": 607,
    "ough": 608,
    " app": 609,
    "port": 610,
    "ail": 611,
    " part": 612,
    " your": 613,
    " when": 614,
    "ree": 615,
    " what": 616,
    "orm": 617,
    "ond": 618,
    " people": 619,
    "fter": 620,
    " sc": 621,
    " Ch": 622,
    "av": 623,
    "ase": 624,
    " qu": 625,
    " any": 626,
    " just": 627,
    " its": 628,
    " Y": 629,
    "ach": 630,
    " time": 631,
    " It": 632,
    " kn": 633,
    " her": 634,
    " 3": 635,
    "ens": 636,
    "lic": 637,
    " rec": 638,
    "reat": 639,
    " my": 640,
    " get": 641,
    " if": 642,
    " V": 643,
    "ian": 644,
    ".”": 645,
    " into": 646,
    "ound": 647,
    " work": 648,
    " tw": 649,
    "irst": 650,
    "vel": 651,
    "ction": 652,
    " no": 653,
    "du": 654,
    "ings": 655,
    "ory": 656,
    "ick": 657,
    "ors": 658,
    " our": 659,
    "ition": 660,
    "ident": 661,
    "ob": 662,
    " -": 663,
    " pre": 664,
    "ove": 665,
    " play": 666,
    "ang": 667,
    "ink": 668,
    "ause": 669,
    "wn": 670,
    "amp": 671,
    "te": 672,
    "ade": 673,
    "hing": 674,
    "ates": 675,
    "ark": 676,
    " ro": 677,
    " pol": 678,
    " she": 679,
    "vers": 680,
    " co": 681,
    ",”": 682,
    " after": 683,
    " first": 684,
    " could": 685,
    " how": 686,
    " He": 687,
    "ne": 688,
    " 19": 689,
    "ious": 690,
    "nder": 691,
    "ild": 692,
    " acc": 693,
    " him": 694,
    "aw": 695,
    "'t": 696,
    "ons": 697,
    " po": 698,
    " only": 699,
    " fe": 700,
    " att": 701,
    "ict": 702,
    "hed": 703,
    " pr": 704,
    " two": 705,
    "rit": 706,
    "ov": 707,
    "ish": 708,
    " comm": 709,
    "“": 710,
    "form": 711,
    " spe": 712,
    " act": 713,
    "we": 714,
    "erv": 715,
    " bl": 716,
    "ft": 717,
    " bet": 718,
    " dec": 719,
    ".\"": 720,
    "ning": 721,
    " back": 722,
    " most": 723,
    "ces": 724,
    "ood": 725,
    "ck": 726,
    " –": 727,
    " am": 728,
    "oy": 729,
    " did": 730,
    "rough": 731,
    "iff": 732,
    "ater": 733,
    "round": 734,
    " again": 735,
    " 4": 736,
    "ual": 737,
    "day": 738,
    "ise": 739,
    " under": 740,
    " des": 741,
    " want": 742,
    "ull": 743,
    "sel": 744,
    " cons": 745,
    " —": 746,
    "..": 747,
    " because": 748,
    " now": 749,
    "lud": 750,
    "ents": 751,
    " years": 752,
    "man": 753,
    "tern": 754,
    "ublic": 755,
    "ec": 756,
    " need": 757,
    " even": 758,
    " $": 759,
    "iss": 760,
    " inv": 761,
    " know": 762,
    " We": 763,
    " see": 764,
    "ments": 765,
    "ced": 766,
    " add": 767,
    ",\"": 768,
    "ting": 769,
    "old": 770,
    " ind": 771,
    " sec": 772,
    "fore": 773,
    "uch": 774,
    " every": 775,
    "urn": 776,
    " 5": 777,
    " supp": 778,
    " make": 779,
    "pect": 780,
    " Un": 781,
    " em": 782,
    " these": 783,
    "ock": 784,
    "oll": 785,
    " where": 786,
    "ject": 787,
    "In": 788,
    "ational": 789,
    "vern": 790,
    "xt": 791,
    " bu": 792,
    " look": 793,
    "Th": 794,
    " And": 795,
    "oss": 796,
    " don": 797,
    " ev": 798,
    "ump": 799,
    "ating": 800,
    " way": 801,
    " being": 802,
    " rem": 803,
    " right": 804,
    "ily": 805,
    " may": 806,
    "ng": 807,
    "row": 808,
    "lect": 809,
    "iew": 810,
    " then": 811,
    " many": 812,
    " [": 813,
    " diff": 814,
    " def": 815,
    "ason": 816,
    " rel": 817,
    " call": 818,
    " But": 819,
    " Tr": 820,
    "ont": 821,
    "ied": 822,
    "les": 823,
    "ased": 824,
    " includ": 825,
    " think": 826,
    "aking": 827,
    " reg": 828,
    ").": 829,
    "meric": 830,
    " imp": 831,
    " through": 832,
    "ath": 833,
    "ited": 834,
    "rib": 835,
    " sy": 836,
    " should": 837,
    " pres": 838,
    " say": 839,
    "ell": 840,
    " fl": 841,
    "uring": 842,
    " last": 843,
    " those": 844,
    "ower": 845,
    " very": 846,
    "ty": 847,
    "other": 848,
    " much": 849,
    "000": 4883,
    "ities": 851,
    "ific": 852,
    " state": 853,
    " This": 854,
    "ative": 855,
    " show": 856,
    "tle": 857,
    "hen": 858,
    " br": 859,
    "ss": 860,
    "arg": 861,
    " well": 862,
    "oth": 863,
    " ph": 864,
    " Wh": 865,
    " count": 866,
    "als": 867,
    "und": 868,
    " does": 869,
    " down": 870,
    " own": 871,
    "arly": 872,
    " end": 873,
    " ass": 874,
    " bel": 875,
    " use": 876,
    "ics": 877,
    "ange": 878,
    "--": 879,
    "ts": 880,
    " long": 881,
    " Americ": 882,
    "ters": 883,
    "ince": 884,
    " before": 885,
    "omet": 886,
    "gr": 887,
    " mon": 888,
    "ward": 889,
    " govern": 890,
    " start": 891,
    " report": 892,
    "ible": 893,
    " ke": 894,
    "up": 895,
    "ues": 896,
    " New": 897,
    " fin": 898,
    " team": 899,
    "ble": 900,
    " made": 901,
    "ife": 902,
    "olog": 903,
    "ener": 904,
    "),": 905,
    " such": 906,
    "ren": 907,
    "com": 908,
    " 200": 909,
    "oun": 910,
    "erson": 911,
    "ek": 912,
    "ix": 913,
    " sm": 914,
    "—": 915,
    "lp": 916,
    "ility": 917,
    " going": 918,
    "ism": 919,
    "ful": 920,
    " world": 921,
    "ually": 922,
    " stud": 923,
    "ists": 924,
    " good": 925,
    " ac": 926,
    "tain": 927,
    "It": 928,
    " sub": 929,
    " eff": 930,
    "ini": 931,
    " sur": 932,
    " against": 933,
    "its": 934,
    " game": 935,
    " set": 936,
    "ork": 937,
    " 6": 938,
    " gu": 939,
    " point": 940,
    " ent": 941,
    "ys": 942,
    "gan": 943,
    "ars": 944,
    "li": 945,
    "stem": 946,
    " prov": 947,
    " still": 948,
    "roup": 949,
    " while": 950,
    "illion": 951,
    " help": 952,
    " lead": 953,
    "ween": 954,
    "ef": 955,
    "ax": 956,
    "ank": 957,
    "alk": 958,
    "imes": 959,
    " says": 960,
    " ob": 961,
    "ms": 962,
    "cy": 963,
    " produ": 964,
    " gr": 965,
    " inter": 966,
    " inst": 967,
    " str": 968,
    "cess": 969,
    " sim": 970,
    "self": 971,
    " conf": 972,
    "io": 973,
    " col": 974,
    " take": 975,
    " min": 976,
    "ures": 977,
    "arch": 978,
    " same": 979,
    " though": 980,
    " between": 981,
    "ollow": 982,
    " offic": 983,
    "ever": 984,
    " cr": 985,
    " differe": 986,
    "ool": 987,
    "uss": 988,
    "ution": 989,
    "land": 990,
    " disc": 991,
    "air": 992,
    " op": 993,
    "ah": 994,
    " ed": 995,
    " high": 996,
    "read": 997,
    " num": 998,
    " law": 999,
    " sign": 1000,
    "way": 1001,
    " government": 1002,
    "gg": 1003,
    " Re": 1004,
    "led": 1005,
    "ner": 1006,
    "hip": 1007,
    "atch": 1008,
    "hes": 1009,
    "ames": 1010,
    "any": 1011,
    " ter": 1012,
    " somet": 1013,
    "cent": 1014,
    "velop": 1015,
    "ted": 1016,
    "We": 1017,
    " ref": 1018,
    " trans": 1019,
    "ten": 1020,
    " ins": 1021,
    " run": 1022,
    " ser": 1023,
    " found": 1024,
    " three": 1025,
    "ives": 1026,
    "ave": 1027,
    " mem": 1028,
    " around": 1029,
    " here": 1030,
    "ather": 1031,
    " med": 1032,
    " real": 1033,
    " used": 1034,
    "ouse": 1035,
    " 10": 1036,
    "ved": 1037,
    " exp": 1038,
    "az": 1039,
    " Ar": 1040,
    "cept": 1041,
    "oot": 1042,
    " system": 1043,
    " You": 1044,
    "ci": 1045,
    " really": 1046,
    " mod": 1047,
    "ving": 1048,
    "con": 1049,
    "cer": 1050,
    " group": 1051,
    " support": 1052,
    " 7": 1053,
    " cour": 1054,
    "ets": 1055,
    "ale": 1056,
    "nin": 1057,
    "ins": 1058,
    " ret": 1059,
    " hand": 1060,
    " public": 1061,
    " spec": 1062,
    "pr": 1063,
    " Le": 1064,
    "ying": 1065,
    " great": 1066,
    " car": 1067,
    "ense": 1068,
    " ext": 1069,
    ".[": 1070,
    "ton": 1071,
    "irect": 1072,
    " cur": 1073,
    " fam": 1074,
    " Com": 1075,
    "alth": 1076,
    " happ": 1077,
    " fact": 1078,
    "ph": 1079,
    " exper": 1080,
    " They": 1081,
    " Trump": 1082,
    " fr": 1083,
    " wom": 1084,
    " Is": 1085,
    " cap": 1086,
    " both": 1087,
    " day": 1088,
    " find": 1089,
    " Al": 1090,
    "ular": 1091,
    " read": 1092,
    "ines": 1093,
    "oh": 1094,
    "ices": 1095,
    " det": 1096,
    " lit": 1097,
    " sl": 1098,
    " rep": 1099,
    "uth": 1100,
    "ered": 1101,
    " during": 1102,
    " Sh": 1103,
    " As": 1104,
    " 0": 1105,
    " serv": 1106,
    " month": 1107,
    "the": 1108,
    "ision": 1109,
    " cre": 1110,
    " develop": 1111,
    " big": 1112,
    "min": 1113,
    " 8": 1114,
    " person": 1115,
    "akes": 1116,
    " follow": 1117,
    " Cl": 1118,
    " iss": 1119,
    "ex": 1120,
    " told": 1121,
    " since": 1122,
    "ared": 1123,
    "med": 1124,
    "ically": 1125,
    " week": 1126,
    "ages": 1127,
    "ivers": 1128,
    " war": 1129,
    " few": 1130,
    "orth": 1131,
    "ording": 1132,
    " cent": 1133,
    " leg": 1134,
    "aj": 1135,
    "get": 1136,
    " polit": 1137,
    "ves": 1138,
    "ash": 1139,
    " expl": 1140,
    " lot": 1141,
    "ric": 1142,
    " Se": 1143,
    " belie": 1144,
    "ata": 1145,
    " gener": 1146,
    " too": 1147,
    " 9": 1148,
    "der": 1149,
    "rent": 1150,
    " opp": 1151,
    "Wh": 1152,
    " requ": 1153,
    " contin": 1154,
    " prot": 1155,
    "iet": 1156,
    "bers": 1157,
    "anc": 1158,
    " fil": 1159,
    "ention": 1160,
    "ness": 1161,
    " cle": 1162,
    " resp": 1163,
    " put": 1164,
    "ized": 1165,
    " If": 1166,
    " another": 1167,
    "20": 1168,
    "chool": 1169,
    " inf": 1170,
    " something": 1171,
    " De": 1172,
    " different": 1173,
    " cor": 1174,
    " loc": 1175,
    "ute": 1176,
    " invest": 1177,
    " soc": 1178,
    " power": 1179,
    " che": 1180,
    "uc": 1181,
    " '": 1182,
    " pass": 1183,
    " commun": 1184,
    " life": 1185,
    " Fr": 1186,
    " plan": 1187,
    "ody": 1188,
    " rele": 1189,
    " head": 1190,
    "ience": 1191,
    " things": 1192,
    "ned": 1193,
    " far": 1194,
    " art": 1195,
    " poss": 1196,
    " met": 1197,
    "thing": 1198,
    "ox": 1199,
    "erest": 1200,
    " camp": 1201,
    "ross": 1202,
    "arge": 1203,
    " vot": 1204,
    "This": 1205,
    "view": 1206,
    "ier": 1207,
    " child": 1208,
    "ants": 1209,
    " ask": 1210,
    " .": 1211,
    " might": 1212,
    " each": 1213,
    "ize": 1214,
    "iness": 1215,
    " dep": 1216,
    " never": 1217,
    " next": 1218,
    "ield": 1219,
    " second": 1220,
    " mark": 1221,
    "tt": 1222,
    " quest": 1223,
    " bus": 1224,
    " adv": 1225,
    "ik": 1226,
    " An": 1227,
    "...": 3253,
    " dem": 1229,
    " For": 1230,
    " come": 1231,
    " got": 1232,
    " ‘": 1233,
    " open": 1234,
    " best": 1235,
    "ient": 1236,
    "ital": 1237,
    " allow": 1238,
    " That": 1239,
    "rat": 1240,
    " seem": 1241,
    " post": 1242,
    "ple": 1243,
    "nce": 1244,
    " feel": 1245,
    " Pro": 1246,
    " US": 1247,
    "ug": 1248,
    " pri": 1249,
    "gram": 1250,
    " percent": 1251,
    "cl": 1252,
    " home": 1253,
    " dist": 1254,
    " direct": 1255,
    "ired": 1256,
    " incre": 1257,
    " contro": 1258,
    " Rep": 1259,
    "son": 1260,
    "orn": 1261,
    "less": 1262,
    "osed": 1263,
    " result": 1264,
    " hard": 1265,
    " care": 1266,
    "ately": 1267,
    " million": 1268,
    "chn": 1269,
    " comple": 1270,
    " place": 1271,
    " without": 1272,
    " inform": 1273,
    " including": 1274,
    " import": 1275,
    " av": 1276,
    "conom": 1277,
    " hum": 1278,
    "ama": 1279,
    " ide": 1280,
    " proble": 1281,
    " build": 1282,
    " top": 1283,
    " number": 1284,
    " country": 1285,
    "gy": 1286,
    "oney": 1287,
    "aim": 1288,
    " Bl": 1289,
    "ret": 1290,
    "ral": 1291,
    "ably": 1292,
    "uro": 1293,
    " stand": 1294,
    " gl": 1295,
    " el": 1296,
    "riend": 1297,
    " four": 1298,
    "ished": 1299,
    "ways": 1300,
    " partic": 1301,
    " better": 1302,
    " tri": 1303,
    "But": 1304,
    " recent": 1305,
    " interest": 1306,
    " mov": 1307,
    " let": 1308,
    "co": 1309,
    "ration": 1310,
    " season": 1311,
    " less": 1312,
    "ead": 1313,
    " turn": 1314,
    " little": 1315,
    " beh": 1316,
    " mil": 1317,
    " appro": 1318,
    "ract": 1319,
    "line": 1320,
    " bro": 1321,
    "ling": 1322,
    "ised": 1323,
    " called": 1324,
    "app": 1325,
    "10": 1326,
    " case": 1327,
    " dr": 1328,
    " Ind": 1329,
    " rest": 1330,
    " left": 1331,
    " pop": 1332,
    " ann": 1333,
    " Z": 1334,
    "ency": 1335,
    "ode": 1336,
    " move": 1337,
    " attack": 1338,
    "ina": 1339,
    " There": 1340,
    " keep": 1341,
    " full": 1342,
    "ering": 1343,
    " didn": 1344,
    "be": 1345,
    " fun": 1346,
    " main": 1347,
    "ajor": 1348,
    "__": 1349,
    " effect": 1350,
    "inal": 1351,
    "leg": 1352,
    " prev": 1353,
    " program": 1354,
    " using": 1355,
    " test": 1356,
    "rem": 1357,
    " pay": 1358,
    "ature": 1359,
    " ear": 1360,
    "to": 1361,
    " val": 1362,
    " police": 1363,
    " writ": 1364,
    " form": 1365,
    " econom": 1366,
    " data": 1367,
    " news": 1368,
    " pos": 1369,
    " win": 1370,
    " American": 1371,
    " level": 1372,
    " sit": 1373,
    " char": 1374,
    "ains": 1375,
    "iving": 1376,
    "uck": 1377,
    " small": 1378,
    "ined": 1379,
    "ready": 1380,
    "He": 1381,
    " school": 1382,
    " list": 1383,
    "ology": 1384,
    "rap": 1385,
    "ided": 1386,
    "mit": 1387,
    "ploy": 1388,
    "'re": 1389,
    "ger": 1390,
    " eas": 1391,
    " process": 1392,
    "ird": 1393,
    " change": 1394,
    " women": 1395,
    " current": 1396,
    " rece": 1397,
    " prom": 1398,
    " hist": 1399,
    " dri": 1400,
    " =": 1401,
    "reen": 1402,
    " president": 1403,
    " company": 1404,
    " So": 1405,
    "used": 1406,
    " mat": 1407,
    "ruct": 1408,
    " already": 1409,
    "ohn": 1410,
    " United": 1411,
    "wit": 1412,
    " ty": 1413,
    " why": 1414,
    " bre": 1415,
    " unt": 1416,
    " money": 1417,
    " sol": 1418,
    " always": 1419,
    " later": 1420,
    " expect": 1421,
    " techn": 1422,
    " business": 1423,
    " How": 1424,
    " official": 1425,
    "ron": 1426,
    " Q": 1427,
    " Ob": 1428,
    "stand": 1429,
    "iversity": 1430,
    " bo": 1431,
    " book": 1432,
    " Ph": 1433,
    "aign": 1434,
    " thing": 1435,
    " class": 1436,
    " project": 1437,
    "ases": 1438,
    " claim": 1439,
    " job": 1440,
    " information": 1441,
    " organ": 1442,
    "aff": 1443,
    " She": 1444,
    "ards": 1445,
    " talk": 1446,
    " Be": 1447,
    " design": 1448,
    " story": 1449,
    " chang": 1450,
    " major": 1451,
    " able": 1452,
    " prof": 1453,
    " --": 1454,
    "lection": 1455,
    "iven": 1456,
    "ertain": 1457,
    " rese": 1458,
    " health": 1459,
    " vis": 1460,
    " past": 1461,
    "urs": 1462,
    " free": 1463,
    "outh": 1464,
    "here": 1465,
    " Ad": 1466,
    " oper": 1467,
    "ption": 1468,
    " away": 1469,
    "ior": 1470,
    " Can": 1471,
    " must": 1472,
    " city": 1473,
    "ample": 1474,
    "ians": 1475,
    "rist": 1476,
    "sc": 1477,
    "ural": 1478,
    " happen": 1479,
    "uthor": 1480,
    " 18": 1481,
    " important": 1482,
    "acy": 1483,
    "urity": 1484,
    " kill": 1485,
    " sk": 1486,
    " est": 1487,
    "ured": 1488,
    " old": 1489,
    " pat": 1490,
    "ury": 1491,
    "ending": 1492,
    " doesn": 1493,
    "ission": 1494,
    " least": 1495,
    "---": 1575,
    " grow": 1497,
    " edit": 1498,
    " var": 1499,
    "ained": 1500,
    "St": 1501,
    " cost": 1502,
    " Go": 1503,
    "ney": 1504,
    "ider": 1505,
    "ides": 1506,
    "els": 1507,
    " days": 1508,
    " tell": 1509,
    " hop": 1510,
    " stre": 1511,
    " campaign": 1512,
    "side": 1513,
    " 12": 1514,
    " men": 1515,
    " came": 1516,
    " aff": 1517,
    " const": 1518,
    "resident": 1519,
    " enough": 1520,
    " view": 1521,
    "ccess": 1522,
    " kind": 1523,
    " Mar": 1524,
    "oad": 1525,
    " Sp": 1526,
    "ern": 1527,
    " making": 1528,
    " large": 1529,
    " record": 1530,
    "50": 1531,
    "ush": 1532,
    " friend": 1533,
    " mar": 1534,
    " family": 1535,
    "…": 1536,
    "ley": 1537,
    " elect": 1538,
    "ded": 1539,
    "eral": 1540,
    " polic": 1541,
    " tax": 1542,
    "ising": 1543,
    "ror": 1544,
    "by": 1545,
    "pped": 1546,
    "ality": 1547,
    "ator": 1548,
    "ified": 1549,
    "As": 1550,
    "ived": 1551,
    "arent": 1552,
    " until": 1553,
    "ee": 1554,
    "ional": 1555,
    " political": 1556,
    " vide": 1557,
    " deal": 1558,
    "ries": 1559,
    "alf": 1560,
    "augh": 1561,
    " ve": 1562,
    " working": 1563,
    "ued": 1564,
    " Republic": 1565,
    " took": 1566,
    " deb": 1567,
    "bs": 1568,
    "If": 1569,
    "ister": 1570,
    " line": 1571,
    " John": 1572,
    "aining": 1573,
    " air": 1574,
    " es": 1576,
    " intern": 1577,
    " fore": 1578,
    "iol": 1579,
    "ane": 1580,
    "ocrat": 1581,
    " become": 1582,
    " actually": 1583,
    "aps": 1584,
    "ony": 1585,
    " mean": 1586,
    "work": 1587,
    " fund": 1588,
    " Sc": 1589,
    "ware": 1590,
    "19": 1591,
    "ember": 1592,
    " Pl": 1593,
    " former": 1594,
    " often": 1595,
    " Euro": 1596,
    "ott": 1597,
    " won": 1598,
    " give": 1599,
    "ann": 1600,
    "oint": 1601,
    " according": 1602,
    " ever": 1603,
    "most": 1604,
    "eng": 1605,
    "year": 1606,
    "wh": 1607,
    "aring": 1608,
    " games": 1609,
    "ison": 1610,
    " human": 1611,
    " bas": 1612,
    "ization": 1613,
    " return": 1614,
    " times": 1615,
    " order": 1616,
    " Russ": 1617,
    " word": 1618,
    " bit": 1619,
    " Dem": 1620,
    " name": 1621,
    "11": 1622,
    " sever": 1623,
    " All": 1624,
    " dev": 1625,
    "icle": 1626,
    "uture": 1627,
    "for": 1628,
    "ither": 1629,
    " par": 1630,
    " 199": 1631,
    " Mc": 1632,
    " wr": 1633,
    " Con": 1634,
    "raft": 1635,
    " sing": 1636,
    " perform": 1637,
    " Sy": 1638,
    " market": 1639,
    " fac": 1640,
    " charac": 1641,
    "There": 1642,
    "iqu": 1643,
    " Or": 1644,
    "idd": 1645,
    " At": 1646,
    " May": 1647,
    " ra": 1648,
    " doing": 1649,
    " appear": 1650,
    "ER": 1651,
    "ched": 1652,
    " players": 1653,
    " la": 1654,
    " night": 1655,
    "ene": 1656,
    " lear": 1657,
    "aken": 1658,
    "rop": 1659,
    "ats": 1660,
    "mber": 1661,
    " today": 1662,
    " early": 1663,
    " 15": 1664,
    " seen": 1665,
    "//": 1666,
    " having": 1667,
    " ,": 1668,
    " pot": 1669,
    " children": 1670,
    " event": 1671,
    " media": 1672,
    " social": 1673,
    " crit": 1674,
    " President": 1675,
    " whether": 1676,
    " several": 1677,
    " control": 1678,
    "idence": 1679,
    " meet": 1680,
    "sh": 1681,
    " milit": 1682,
    " press": 1683,
    " went": 1684,
    "artment": 1685,
    " five": 1686,
    " young": 1687,
    "ories": 1688,
    " sure": 1689,
    " prop": 1690,
    "iously": 1691,
    " equ": 1692,
    " beg": 1693,
    " question": 1694,
    " occ": 1695,
    " likely": 1696,
    "vert": 1697,
    "une": 1698,
    " members": 1699,
    "br": 1700,
    "ands": 1701,
    " certain": 1702,
    " eng": 1703,
    " water": 1704,
    " York": 1705,
    " example": 1706,
    "ots": 1707,
    " Col": 1708,
    " arg": 1709,
    " side": 1710,
    " ant": 1711,
    " done": 1712,
    " vers": 1713,
    "enn": 1714,
    " invol": 1715,
    " Mr": 1716,
    " States": 1717,
    " Europe": 1718,
    "ended": 1719,
    "let": 1720,
    " along": 1721,
    " short": 1722,
    " success": 1723,
    "ential": 1724,
    " months": 1725,
    "ball": 1726,
    " hour": 1727,
    " 11": 1728,
    "ium": 1729,
    " sex": 1730,
    "iver": 1731,
    "ially": 1732,
    "And": 1733,
    "lf": 1734,
    "empt": 1735,
    " within": 1736,
    " desc": 1737,
    "imate": 1738,
    " course": 1739,
    " fight": 1740,
    "ster": 1741,
    "urch": 1742,
    "ubl": 1743,
    " among": 1744,
    " activ": 1745,
    "uff": 1746,
    "–": 1747,
    "ague": 1748,
    " once": 1749,
    " future": 1750,
    " investig": 1751,
    "ulation": 1752,
    "rew": 1753,
    " possible": 1754,
    " Obama": 1755,
    " cho": 1756,
    "nect": 1757,
    " understand": 1758,
    "iting": 1759,
    " concer": 1760,
    " On": 1761,
    " ]": 1762,
    "ones": 1763,
    "ortun": 1764,
    " problem": 1765,
    " Br": 1766,
    " priv": 1767,
    " means": 1768,
    " viol": 1769,
    " Car": 1770,
    " author": 1771,
    "itive": 1772,
    " No": 1773,
    "ggest": 1774,
    " avail": 1775,
    "oci": 1776,
    "ourn": 1777,
    "my": 1778,
    " known": 1779,
    " product": 1780,
    " non": 1781,
    "ivid": 1782,
    " thought": 1783,
    " yet": 1784,
    "gress": 1785,
    " across": 1786,
    " protect": 1787,
    " local": 1788,
    "ler": 1789,
    " hold": 1790,
    " Te": 1791,
    " fail": 1792,
    "inc": 1793,
    " When": 1794,
    " State": 1795,
    " community": 1796,
    " reason": 1797,
    " orig": 1798,
    "ede": 1799,
    " suggest": 1800,
    " &": 1801,
    "12": 1802,
    " makes": 1803,
    "verage": 1804,
    "ald": 1805,
    "not": 1806,
    "por": 1807,
    "back": 1808,
    " 2016": 1809,
    " i": 1810,
    "book": 1811,
    " asked": 1812,
    "ederal": 1813,
    "orld": 1814,
    " reported": 1815,
    "You": 1816,
    "aged": 1817,
    "ensive": 1818,
    " given": 1819,
    " strong": 1820,
    " prob": 1821,
    " mus": 1822,
    " others": 1823,
    " believe": 1824,
    " video": 1825,
    "iber": 1826,
    " ben": 1827,
    " getting": 1828,
    " House": 1829,
    "ances": 1830,
    " announ": 1831,
    " light": 1832,
    "ging": 1833,
    "ored": 1834,
    "ober": 1835,
    " University": 1836,
    " 30": 1837,
    " Co": 1838,
    "itions": 1839,
    " ident": 1840,
    "iron": 1841,
    " sent": 1842,
    " cut": 1843,
    " lim": 1844,
    " ca": 1845,
    " Christ": 1846,
    "iety": 1847,
    "30": 1848,
    "urther": 1849,
    " sour": 1850,
    " creat": 1851,
    " cond": 1852,
    " X": 1853,
    "rest": 1854,
    "ams": 1855,
    "'ve": 1856,
    " net": 1857,
    "ashing": 1858,
    " bat": 1859,
    "ament": 1860,
    " national": 1861,
    ".,": 1862,
    " close": 1863,
    "arm": 1864,
    " started": 1865,
    " saf": 1866,
    " death": 1867,
    "aster": 1868,
    " available": 1869,
    " hig": 1870,
    "For": 1871,
    " based": 1872,
    " issue": 1873,
    "of": 1874,
    " indust": 1875,
    " Democrat": 1876,
    " low": 1877,
    " following": 1878,
    "resent": 1879,
    " account": 1880,
    " land": 1881,
    "use": 1882,
    " Cent": 1883,
    " employ": 1884,
    " love": 1885,
    " 2015": 1886,
    " #": 1887,
    " history": 1888,
    " ago": 1889,
    "orts": 1890,
    "selves": 1891,
    " mom": 1892,
    "ana": 1893,
    " party": 1894,
    " Am": 1895,
    "ability": 1896,
    "eb": 1897,
    " series": 1898,
    " comes": 1899,
    " trying": 1900,
    "uly": 1901,
    "utes": 1902,
    " almost": 1903,
    "gether": 1904,
    "ument": 1905,
    " together": 1906,
    "ination": 1907,
    "AT": 1908,
    " America": 1909,
    " idea": 1910,
    "pro": 1911,
    "ief": 1912,
    " access": 1913,
    " foc": 1914,
    "hers": 1915,
    "ilar": 1916,
    " Fl": 1917,
    "reed": 1918,
    "ails": 1919,
    " commit": 1920,
    "itional": 1921,
    " isn": 1922,
    " Sen": 1923,
    " clear": 1924,
    " 16": 1925,
    " One": 1926,
    " trad": 1927,
    " Min": 1928,
    "though": 1929,
    "ring": 1930,
    " What": 1931,
    " pract": 1932,
    " added": 1933,
    " impro": 1934,
    " experience": 1935,
    "erence": 1936,
    " film": 1937,
    "15": 1938,
    " half": 1939,
    "ustom": 1940,
    "ged": 1941,
    " hit": 1942,
    " Bro": 1943,
    "witter": 1944,
    "rict": 1945,
    " anal": 1946,
    "inton": 1947,
    "ograp": 1948,
    "unch": 1949,
    " 2014": 1950,
    " rul": 1951,
    "ividual": 1952,
    " looking": 1953,
    " six": 1954,
    " live": 1955,
    " anything": 1956,
    " area": 1957,
    " complete": 1958,
    "erman": 1959,
    "minist": 1960,
    " miss": 1961,
    "rael": 1962,
    " Comm": 1963,
    " Ex": 1964,
    " fav": 1965,
    " ris": 1966,
    "nes": 1967,
    " present": 1968,
    "ai": 1969,
    "ote": 1970,
    "rug": 1971,
    " saying": 1972,
    "raw": 1973,
    "aid": 1974,
    " Canad": 1975,
    " vict": 1976,
    "IN": 1977,
    "cially": 1978,
    " bad": 1979,
    "ows": 1980,
    "uge": 1981,
    " taken": 1982,
    "oto": 1983,
    " entire": 1984,
    " Pr": 1985,
    "ators": 1986,
    " bill": 1987,
    " compet": 1988,
    "af": 1989,
    " mor": 1990,
    " Eng": 1991,
    " behind": 1992,
    "ien": 1993,
    " aut": 1994,
    " To": 1995,
    "'m": 1996,
    " court": 1997,
    "play": 1998,
    " try": 1999,
    "ev": 2000,
    " military": 2001,
    " z": 2002,
    " near": 2003,
    "osp": 2004,
    " mult": 2005,
    "What": 2006,
    " face": 2007,
    "wards": 2008,
    " er": 2009,
    " 14": 2010,
    " security": 2011,
    " Pol": 2012,
    "sy": 2013,
    " proper": 2014,
    " discuss": 2015,
    " threat": 2016,
    " tot": 2017,
    "ert": 2018,
    " study": 2019,
    " single": 2020,
    " rather": 2021,
    " individual": 2022,
    " Af": 2023,
    " Brit": 2024,
    " War": 2025,
    "ttp": 2027,
    " quick": 2028,
    " Don": 2029,
    " mind": 2030,
    " Sec": 2031,
    "lement": 2032,
    "ales": 2033,
    "atic": 2034,
    "An": 2035,
    " North": 2036,
    "amed": 2037,
    "aper": 2038,
    " publ": 2039,
    " policy": 2040,
    " mess": 2041,
    "ris": 2042,
    "par": 2043,
    " black": 2044,
    " wanted": 2045,
    " fall": 2046,
    "irc": 2047,
    "**": 2048,
    "off": 2049,
    " food": 2050,
    " sum": 2051,
    " someone": 2052,
    "lling": 2053,
    "ids": 2054,
    "On": 2055,
    " |": 2056,
    " /": 2057,
    " cult": 2058,
    " special": 2059,
    " comb": 2060,
    " key": 2061,
    " player": 2062,
    " redu": 2063,
    " Gr": 2064,
    " bring": 2065,
    " 13": 2066,
    " compan": 2067,
    " 17": 2068,
    "ply": 2069,
    " Dep": 2070,
    " attempt": 2071,
    " National": 2072,
    " taking": 2073,
    " Bar": 2074,
    "When": 2075,
    "ON": 2076,
    "ify": 2077,
    "olution": 2078,
    " :": 2079,
    "viron": 2080,
    " foot": 2081,
    " Cal": 2082,
    "://": 2083,
    " else": 2084,
    " pret": 2085,
    " body": 2086,
    " space": 2087,
    "elt": 2088,
    "rote": 2089,
    "over": 2090,
    " probably": 2091,
    "16": 2092,
    "icult": 2093,
    ".)": 2094,
    " front": 2095,
    " cou": 2096,
    " nothing": 2097,
    " Im": 2098,
    " sw": 2099,
    "ashington": 2100,
    " connect": 2101,
    "ches": 2102,
    " World": 2103,
    " research": 2104,
    "14": 2105,
    " Clinton": 2106,
    " City": 2107,
    "ming": 2108,
    " coming": 2109,
    " points": 2110,
    " Israel": 2111,
    " however": 2112,
    "RE": 2113,
    " describ": 2114,
    " jo": 2115,
    "go": 2116,
    " signific": 2117,
    " similar": 2118,
    "yn": 2119,
    "reme": 2120,
    "cing": 2121,
    " benef": 2122,
    "lier": 2123,
    " Man": 2124,
    " Aust": 2125,
    " imm": 2126,
    " decision": 2127,
    " either": 2128,
    "aces": 2129,
    "Ad": 2130,
    " coun": 2131,
    "ault": 2132,
    "So": 2133,
    " mass": 2134,
    " Har": 2135,
    " sus": 2136,
    " targ": 2137,
    "ully": 2138,
    " feat": 2139,
    "That": 2140,
    " conv": 2141,
    " exist": 2142,
    "irl": 2143,
    " enc": 2144,
    " 2013": 2145,
    " rights": 2146,
    " service": 2147,
    " Su": 2148,
    "asing": 2149,
    "sw": 2150,
    "IS": 2151,
    " fire": 2152,
    " doc": 2153,
    " wrote": 2154,
    " further": 2155,
    " house": 2156,
    "rodu": 2157,
    " fig": 2158,
    " chall": 2159,
    " ban": 2160,
    "ww": 2161,
    " third": 2162,
    "mb": 2163,
    " wa": 2164,
    " create": 2165,
    " stop": 2166,
    " field": 2167,
    "now": 2168,
    " pick": 2169,
    "AN": 2170,
    "ape": 2171,
    "ively": 2172,
    " meas": 2173,
    " repl": 2174,
    " compl": 2175,
    "ung": 2176,
    " With": 2177,
    " issues": 2178,
    "pping": 2179,
    " begin": 2180,
    " super": 2181,
    "amer": 2182,
    " step": 2183,
    "eal": 2184,
    "ried": 2185,
    "ently": 2186,
    " whole": 2187,
    " relations": 2188,
    " seems": 2189,
    " )": 2190,
    " companies": 2191,
    "pecially": 2192,
    " due": 2193,
    " exec": 2194,
    " cand": 2195,
    " everything": 2196,
    " federal": 2197,
    " Ed": 2198,
    " Gu": 2199,
    " states": 2200,
    " ey": 2201,
    " room": 2202,
    "aul": 2203,
    " tra": 2204,
    " watch": 2205,
    "oon": 2206,
    " Ge": 2207,
    " custom": 2208,
    " leaders": 2209,
    "13": 2210,
    "uation": 2211,
    " However": 2212,
    "pite": 2213,
    " Jan": 2214,
    " Washington": 2215,
    "Ch": 2216,
    "lam": 2217,
    " self": 2218,
    " role": 2219,
    "ran": 2220,
    "ilt": 2221,
    " sound": 2222,
    " lab": 2223,
    "att": 2224,
    "head": 2225,
    " dam": 2226,
    "ivil": 2227,
    " officials": 2228,
    " stri": 2229,
    " 2012": 2230,
    " tre": 2231,
    "iday": 2232,
    "ibility": 2233,
    " released": 2234,
    "lu": 2235,
    " Inst": 2236,
    " began": 2237,
    " Dav": 2238,
    " App": 2239,
    " South": 2240,
    " opt": 2241,
    "obal": 2242,
    " students": 2243,
    " treat": 2244,
    " final": 2245,
    " character": 2246,
    " position": 2247,
    " matter": 2248,
    "é": 2249,
    "ender": 2250,
    " ener": 2251,
    "lim": 2252,
    " outside": 2253,
    "ery": 2254,
    "sec": 2255,
    "ades": 2256,
    " dou": 2257,
    "vironment": 2258,
    " development": 2259,
    " statement": 2260,
    " himself": 2261,
    " 2017": 2262,
    " above": 2263,
    "like": 2264,
    " stat": 2265,
    " init": 2266,
    " break": 2267,
    " 100": 2268,
    " amount": 2269,
    " provide": 2270,
    " hours": 2271,
    " itself": 2272,
    " themselves": 2273,
    " office": 2274,
    " represent": 2275,
    " action": 2276,
    " Part": 2277,
    " di": 2278,
    " became": 2279,
    " 198": 2280,
    " general": 2281,
    " continue": 2282,
    " countries": 2283,
    " Intern": 2284,
    " neg": 2285,
    " address": 2286,
    "iod": 2287,
    " 25": 2288,
    " gun": 2289,
    "aced": 2290,
    "ask": 2291,
    " true": 2292,
    " specific": 2293,
    "ograph": 2294,
    "umb": 2295,
    "arter": 2296,
    "reg": 2297,
    " larg": 2298,
    " significant": 2299,
    "lish": 2300,
    " simply": 2301,
    " Ass": 2302,
    " Res": 2303,
    " wasn": 2304,
    "'ll": 2305,
    "ili": 2306,
    " interview": 2307,
    "acebook": 2308,
    " ground": 2309,
    " rad": 2310,
    "oid": 2311,
    "ogn": 2312,
    " difficult": 2313,
    " running": 2314,
    " Just": 2315,
    " evidence": 2316,
    " administ": 2317,
    "BC": 2318,
    " cop": 2319,
    "17": 2320,
    "ream": 2321,
    " drug": 2322,
    " version": 2323,
    "ogle": 2324,
    " bar": 2325,
    " agree": 2326,
    "iddle": 2327,
    "eks": 2328,
    " building": 2329,
    " China": 2330,
    " needs": 2331,
    " profess": 2332,
    "angu": 2333,
    " groups": 2334,
    "right": 2335,
    " typ": 2336,
    " respons": 2337,
    " common": 2338,
    " shows": 2339,
    " everyone": 2340,
    " dom": 2341,
    " dest": 2342,
    " red": 2343,
    " needed": 2344,
    " ball": 2345,
    " woman": 2346,
    "___": 2457,
    " German": 2348,
    " lat": 2349,
    " below": 2350,
    " tem": 2351,
    "light": 2352,
    "ournal": 2353,
    " music": 2354,
    " exc": 2355,
    " release": 2356,
    "ift": 2357,
    " inj": 2358,
    " pretty": 2359,
    " Ab": 2360,
    "AR": 2361,
    "ribut": 2362,
    " Med": 2363,
    " include": 2364,
    " saw": 2365,
    " deep": 2366,
    " ap": 2367,
    "body": 2368,
    "18": 2369,
    " played": 2370,
    " quite": 2371,
    " industry": 2372,
    " charg": 2373,
    " mag": 2374,
    " energy": 2375,
    " playing": 2376,
    " mot": 2377,
    " 50": 2378,
    " candid": 2379,
    " sense": 2380,
    " phys": 2381,
    " late": 2382,
    " alleg": 2383,
    " white": 2384,
    " His": 2385,
    "eg": 2386,
    "ival": 2387,
    " friends": 2388,
    " gen": 2389,
    " legal": 2390,
    "atur": 2391,
    "bo": 2392,
    " anim": 2393,
    "isc": 2394,
    "yle": 2395,
    " After": 2396,
    "omm": 2397,
    "How": 2398,
    "AS": 2399,
    "where": 2400,
    " abs": 2401,
    "lev": 2402,
    " instead": 2403,
    " billion": 2404,
    " lost": 2405,
    " especially": 2406,
    " value": 2407,
    " Mus": 2408,
    " West": 2409,
    " host": 2410,
    "osing": 2411,
    "oring": 2412,
    " hom": 2413,
    " News": 2414,
    "time": 2415,
    "ager": 2416,
    " ple": 2417,
    "istic": 2418,
    " weeks": 2419,
    "epend": 2420,
    " Not": 2421,
    "ccording": 2422,
    " forward": 2423,
    " deter": 2424,
    " election": 2425,
    " recently": 2426,
    " jud": 2427,
    " track": 2428,
    " suff": 2429,
    " vote": 2430,
    " Twitter": 2431,
    " object": 2432,
    "irt": 2433,
    "lt": 2434,
    "medi": 2435,
    " period": 2436,
    " changes": 2437,
    " opportun": 2438,
    " White": 2439,
    " Oct": 2440,
    " lo": 2441,
    " longer": 2442,
    "arc": 2443,
    "eed": 2444,
    "oke": 2445,
    " ep": 2446,
    " pain": 2447,
    "ique": 2448,
    " soon": 2449,
    " site": 2450,
    " {": 2451,
    "hod": 2452,
    "ript": 2453,
    "ached": 2454,
    " accept": 2455,
    " Cong": 2456,
    "irm": 2458,
    " shoot": 2459,
    " economic": 2460,
    " hope": 2461,
    " moment": 2462,
    " decl": 2463,
    "lege": 2464,
    " consum": 2465,
    " Will": 2466,
    " pie": 2467,
    " tit": 2468,
    " check": 2469,
    "oph": 2470,
    "oe": 2471,
    " potential": 2472,
    " block": 2473,
    " March": 2474,
    "ole": 2475,
    " wrong": 2476,
    "duct": 2477,
    "ners": 2478,
    "ij": 2479,
    " Sept": 2480,
    "den": 2481,
    " Department": 2482,
    " higher": 2483,
    "onse": 2484,
    " cred": 2485,
    " online": 2486,
    " focus": 2487,
    " 24": 2488,
    " consider": 2489,
    "key": 2490,
    " educ": 2491,
    "ancial": 2492,
    " My": 2493,
    "ns": 2494,
    "iding": 2495,
    " circ": 2496,
    " works": 2497,
    " relig": 2498,
    " share": 2499,
    " parent": 2500,
    "cial": 2501,
    " held": 2502,
    "25": 2503,
    " pred": 2504,
    " Dr": 2505,
    " walk": 2506,
    " webs": 2507,
    "ularly": 2508,
    "==": 2509,
    " reve": 2510,
    " led": 2511,
    "lear": 2512,
    " stay": 2513,
    " These": 2514,
    "overed": 2515,
    " stru": 2516,
    "alt": 2517,
    " Republican": 2518,
    " risk": 2519,
    " words": 2520,
    " Aug": 2521,
    " rev": 2522,
    " sold": 2523,
    " review": 2524,
    "icro": 2525,
    " contract": 2526,
    " results": 2527,
    " services": 2528,
    " laws": 2529,
    "They": 2530,
    " code": 2531,
    "cil": 2532,
    " Mich": 2533,
    " wind": 2534,
    " function": 2535,
    " aud": 2536,
    " ce": 2537,
    " Syri": 2538,
    "put": 2539,
    "aut": 2540,
    " total": 2541,
    "fect": 2542,
    " article": 2543,
    " age": 2544,
    " applic": 2545,
    " minutes": 2546,
    " personal": 2547,
    "ilities": 2548,
    " anyone": 2549,
    "uary": 2550,
    "ients": 2551,
    "itution": 2552,
    "asons": 2553,
    " June": 2554,
    "ateg": 2555,
    " prim": 2556,
    "anger": 2557,
    " target": 2558,
    "fer": 2559,
    " den": 2560,
    " earlier": 2561,
    "ule": 2562,
    " favor": 2563,
    " express": 2564,
    "haps": 2565,
    " dead": 2566,
    " answ": 2567,
    " upd": 2568,
    "ech": 2569,
    " popular": 2570,
    "che": 2571,
    " comput": 2572,
    " Ste": 2573,
    " vol": 2574,
    "pril": 2575,
    " necess": 2576,
    "ham": 2577,
    " hy": 2578,
    " rate": 2579,
    "ES": 2580,
    "aging": 2581,
    " technology": 2582,
    "apan": 2583,
    " respect": 2584,
    "val": 2585,
    " environment": 2586,
    " 2011": 2587,
    "Ph": 2588,
    " received": 2589,
    " expected": 2590,
    " Sm": 2591,
    "ends": 2592,
    "ude": 2593,
    " goal": 2594,
    " created": 2595,
    " base": 2596,
    " surpr": 2597,
    " anti": 2598,
    " Par": 2599,
    " July": 2600,
    "eter": 2601,
    "tee": 2602,
    " problems": 2603,
    "uel": 2604,
    " ways": 2605,
    " port": 2606,
    "iple": 2607,
    "action": 2608,
    " private": 2609,
    " Do": 2610,
    " scient": 2611,
    " increase": 2612,
    "ray": 2613,
    "reet": 2614,
    " announced": 2615,
    " comment": 2616,
    "isl": 2617,
    " cannot": 2618,
    " easy": 2619,
    "Al": 2620,
    " shot": 2621,
    " Congress": 2622,
    " questions": 2623,
    "bit": 2624,
    " force": 2625,
    " Pe": 2626,
    "aterial": 2627,
    " impact": 2628,
    "hern": 2629,
    " et": 2630,
    " Mond": 2631,
    "ples": 2632,
    " pack": 2633,
    " +": 2634,
    " pur": 2635,
    " Facebook": 2636,
    " langu": 2637,
    "atives": 2638,
    " God": 2639,
    " En": 2640,
    " involved": 2641,
    "omb": 2642,
    "aving": 2643,
    "ills": 2644,
    "60": 2645,
    "lex": 2646,
    "hood": 2647,
    "onst": 2648,
    " Austral": 2649,
    " div": 2650,
    "uesday": 2651,
    " execut": 2652,
    "ctor": 2653,
    " model": 2654,
    "itiz": 2655,
    " sen": 2656,
    " speak": 2657,
    " staff": 2658,
    " exact": 2659,
    " civil": 2660,
    "ees": 2661,
    "ires": 2662,
    " nearly": 2663,
    " type": 2664,
    "ourt": 2665,
    "okes": 2666,
    " original": 2667,
    " cases": 2668,
    " content": 2669,
    " 197": 2670,
    " relationship": 2671,
    " terror": 2672,
    " Google": 2673,
    "To": 2674,
    " leave": 2675,
    " Friday": 2676,
    " response": 2677,
    " capt": 2678,
    " inside": 2679,
    " <": 2680,
    " phot": 2681,
    "lled": 2682,
    " fans": 2683,
    " April": 2684,
    " international": 2685,
    " coll": 2686,
    "cast": 2687,
    " heart": 2688,
    " average": 2689,
    " broad": 2690,
    " arrest": 2691,
    " users": 2692,
    " Count": 2693,
    " cal": 2694,
    "At": 2695,
    "rel": 2696,
    " cell": 2697,
    " worth": 2698,
    " Em": 2699,
    " soft": 2700,
    " ur": 2701,
    " living": 2702,
    "bor": 2703,
    " Red": 2704,
    " nation": 2705,
    "ips": 2706,
    "ky": 2707,
    " killed": 2708,
    " reports": 2709,
    " 2010": 2710,
    " becom": 2712,
    " source": 2713,
    " Monday": 2714,
    " Tuesday": 2715,
    " subject": 2716,
    " worked": 2717,
    "atural": 2718,
    "ests": 2719,
    " estab": 2720,
    " immedi": 2721,
    "EN": 2722,
    " respond": 2723,
    " global": 2724,
    " associ": 2725,
    "joy": 2726,
    "ellig": 2727,
    " club": 2728,
    "ops": 2729,
    " Americans": 2730,
    "ael": 2731,
    " obs": 2732,
    "ites": 2733,
    " Per": 2734,
    " Pal": 2735,
    " chance": 2736,
    " oil": 2737,
    " Act": 2738,
    " ability": 2739,
    " takes": 2740,
    "rought": 2741,
    " weap": 2742,
    "hel": 2743,
    " price": 2744,
    " Japan": 2745,
    "ological": 2746,
    " director": 2747,
    "izing": 2748,
    " workers": 2749,
    " terms": 2750,
    " road": 2751,
    "mon": 2752,
    " published": 2753,
    " del": 2754,
    "ext": 2755,
    " While": 2756,
    " tou": 2757,
    " phone": 2758,
    "rain": 2759,
    " collect": 2760,
    " financial": 2761,
    " mid": 2762,
    "osition": 2763,
    " decided": 2764,
    "ises": 2765,
    "OR": 2766,
    " Russia": 2767,
    " Some": 2768,
    " mother": 2769,
    " squ": 2770,
    " Wed": 2771,
    " lack": 2772,
    " defin": 2773,
    "ovember": 2774,
    " 40": 2775,
    " girl": 2776,
    " store": 2777,
    " gave": 2778,
    " buy": 2779,
    " influ": 2780,
    " Calif": 2781,
    " log": 2782,
    " happened": 2783,
    " require": 2784,
    " Now": 2785,
    " emer": 2786,
    "ino": 2787,
    " fem": 2788,
    "\".": 2789,
    "ese": 2790,
    " capital": 2791,
    "clus": 2792,
    " foreign": 2793,
    " currently": 2794,
    " Off": 2795,
    "based": 2796,
    " San": 2797,
    " goes": 2798,
    " By": 2799,
    "oved": 2800,
    " Geor": 2801,
    "vertise": 2802,
    " situation": 2803,
    " indic": 2804,
    " offer": 2805,
    " whose": 2806,
    " @": 2807,
    " tal": 2808,
    " material": 2809,
    " lives": 2810,
    "unt": 2811,
    " affect": 2812,
    "rown": 2813,
    "ought": 2814,
    "hem": 2815,
    " plans": 2816,
    "nesday": 2817,
    " arri": 2818,
    " bur": 2819,
    " member": 2820,
    " pict": 2821,
    "ursday": 2822,
    " Feb": 2823,
    " particip": 2824,
    "ruction": 2825,
    " recogn": 2826,
    " turned": 2827,
    " method": 2828,
    " events": 2829,
    " January": 2830,
    " Hill": 2831,
    " network": 2832,
    "One": 2833,
    " teams": 2834,
    " Sund": 2835,
    " bank": 2836,
    " meeting": 2837,
    "40": 2838,
    "rect": 2839,
    " norm": 2840,
    " introdu": 2841,
    " simple": 2842,
    "fully": 2843,
    " Ag": 2844,
    " Islam": 2845,
    " ill": 2846,
    " huge": 2847,
    " September": 2848,
    " regard": 2849,
    " areas": 2850,
    " cy": 2851,
    "order": 2852,
    " Cor": 2853,
    " TV": 2854,
    " Me": 2855,
    "bl": 2856,
    " couple": 2857,
    " approach": 2858,
    "aur": 2859,
    " career": 2860,
    " Afric": 2861,
    " Gl": 2862,
    "load": 2863,
    "\",": 2864,
    " deli": 2865,
    "oud": 2866,
    " race": 2867,
    " performance": 2868,
    " page": 2869,
    "ety": 2870,
    "apt": 2871,
    " November": 2872,
    " tool": 2873,
    " David": 2874,
    " felt": 2875,
    " quickly": 2876,
    " mis": 2877,
    " numbers": 2878,
    "oor": 2879,
    " email": 2880,
    " El": 2881,
    " 21": 2882,
    "aily": 2883,
    " ord": 2884,
    "istan": 2885,
    " administration": 2886,
    " hon": 2887,
    " Wednesday": 2888,
    " victim": 2889,
    " Paul": 2890,
    " via": 2891,
    " improve": 2892,
    " engine": 2893,
    "chie": 2894,
    " fre": 2895,
    " pull": 2896,
    " Ang": 2897,
    " round": 2898,
    " built": 2899,
    " 22": 2900,
    " pers": 2901,
    " European": 2902,
    " dig": 2903,
    " Thursday": 2904,
    " father": 2905,
    "ornia": 2906,
    " loss": 2907,
    "avy": 2908,
    " thous": 2909,
    "­": 2910,
    " http": 2911,
    "ructure": 2912,
    " production": 2913,
    " boy": 2914,
    "ume": 2915,
    "lin": 2916,
    " heard": 2917,
    "down": 2918,
    "Sh": 2919,
    " economy": 2920,
    "”.": 2921,
    " enjoy": 2922,
    " August": 2923,
    " trade": 2924,
    " Sch": 2925,
    "face": 2926,
    " website": 2927,
    "iment": 2928,
    " secret": 2929,
    " cover": 2930,
    " reveal": 2931,
    " wide": 2932,
    " board": 2933,
    " match": 2934,
    " Court": 2935,
    "AL": 2936,
    " allowed": 2937,
    " hands": 2938,
    " spent": 2939,
    " travel": 2940,
    " lower": 2941,
    " repe": 2942,
    "atory": 2943,
    " poll": 2944,
    " included": 2945,
    "cember": 2946,
    " ste": 2947,
    " October": 2948,
    " neigh": 2949,
    " legisl": 2950,
    "orters": 2951,
    "uses": 2952,
    " behav": 2953,
    "iction": 2954,
    " knew": 2955,
    " text": 2956,
    " wants": 2957,
    " town": 2958,
    "ights": 2959,
    " British": 2960,
    " separ": 2961,
    "ences": 2962,
    "estern": 2963,
    " visit": 2964,
    " Canada": 2965,
    "anks": 2966,
    "ctions": 2967,
    "With": 2968,
    " perfect": 2969,
    " gets": 2970,
    "ession": 2971,
    " movement": 2972,
    " aren": 2973,
    "ishing": 2974,
    "raz": 2975,
    "ground": 2976,
    "agement": 2977,
    " tried": 2978,
    " cause": 2979,
    "?”": 2980,
    "gest": 2981,
    " }": 2982,
    " forces": 2983,
    " Sunday": 2984,
    " ens": 2985,
    "After": 2986,
    "force": 2987,
    "ceed": 2988,
    " attention": 2989,
    " particular": 2990,
    " bi": 2991,
    "urd": 2992,
    "][": 2993,
    " veh": 2994,
    " bud": 2995,
    " fear": 2996,
    " population": 2997,
    "ened": 2998,
    " various": 2999,
    " UK": 3000,
    " reach": 3001,
    " looks": 3002,
    " 23": 3003,
    " California": 3004,
    " brought": 3005,
    " vo": 3006,
    " Kore": 3007,
    " link": 3008,
    "ibly": 3009,
    ");": 3010,
    "arily": 3011,
    " IS": 3012,
    "200": 3013,
    " previous": 3014,
    "ED": 3015,
    " mention": 3016,
    " Russian": 3017,
    " morning": 3018,
    " Qu": 3019,
    "cle": 3020,
    "idered": 3021,
    "'d": 3022,
    " fair": 3023,
    " growth": 3024,
    "aker": 3025,
    " Sw": 3026,
    "undred": 3027,
    "99": 3028,
    "sequ": 3029,
    "yond": 3030,
    " progress": 3031,
    " fell": 3032,
    "alled": 3033,
    " song": 3034,
    "iam": 3035,
    "ening": 3036,
    " Cont": 3037,
    "AC": 3038,
    " training": 3039,
    "field": 3040,
    "hold": 3041,
    "uk": 3042,
    " size": 3043,
    " Black": 3044,
    "cies": 3045,
    " December": 3046,
    "idents": 3047,
    " contact": 3048,
    "ledge": 3049,
    " hor": 3050,
    " Her": 3051,
    " demand": 3052,
    "While": 3053,
    " image": 3054,
    " rac": 3055,
    " hot": 3056,
    "ification": 3057,
    "OS": 3058,
    " leader": 3059,
    "set": 3060,
    "ecause": 3061,
    " rules": 3062,
    " prep": 3063,
    " liber": 3064,
    "ze": 3065,
    " search": 3066,
    " ess": 3067,
    " Post": 3068,
    " citiz": 3069,
    " upon": 3070,
    " strugg": 3071,
    " Street": 3072,
    " latest": 3073,
    "come": 3074,
    "ondon": 3075,
    " independ": 3076,
    "US": 3077,
    "uments": 3078,
    "inks": 3079,
    "arth": 3080,
    " features": 3081,
    " coach": 3082,
    " Park": 3083,
    "iant": 3084,
    " fast": 3085,
    "Tr": 3086,
    "oo": 3087,
    "sych": 3088,
    " talking": 3089,
    " Jew": 3090,
    "omp": 3091,
    " addition": 3092,
    "ges": 3093,
    " star": 3094,
    " wond": 3095,
    " Senate": 3096,
    "IT": 3097,
    " Pat": 3098,
    " speed": 3099,
    " exam": 3100,
    " considered": 3101,
    "raq": 3102,
    "icles": 3103,
    "aries": 3104,
    " reb": 3105,
    " levels": 3106,
    "eth": 3107,
    " Times": 3108,
    " County": 3109,
    "elligence": 3110,
    " slow": 3111,
    " investigation": 3112,
    "bed": 3113,
    "ps": 3114,
    "ille": 3115,
    " conduct": 3116,
    "aph": 3117,
    " Party": 3118,
    "22": 3119,
    " King": 3120,
    " medical": 3121,
    " mach": 3122,
    " sn": 3123,
    "imately": 3124,
    "vent": 3125,
    " achie": 3126,
    " language": 3127,
    "aturday": 3128,
    " card": 3129,
    "unk": 3130,
    " sort": 3131,
    " critic": 3132,
    "ope": 3133,
    " Tex": 3134,
    " Center": 3135,
    " pen": 3136,
    " und": 3137,
    " India": 3138,
    " paper": 3139,
    "wo": 3140,
    "ysis": 3141,
    "IC": 3142,
    " 2008": 3143,
    "pir": 3144,
    " conserv": 3145,
    " parents": 3146,
    " sexual": 3147,
    "ma": 3148,
    " systems": 3149,
    " prior": 3150,
    "uit": 3151,
    "asc": 3152,
    "imin": 3153,
    " doll": 3154,
    " written": 3155,
    "uf": 3156,
    " box": 3157,
    " spokes": 3158,
    "igr": 3159,
    " seek": 3160,
    " sens": 3161,
    "eared": 3162,
    "het": 3163,
    " document": 3164,
    "idge": 3165,
    " increasing": 3166,
    " hear": 3167,
    "ani": 3168,
    "atform": 3169,
    " draw": 3170,
    " seven": 3171,
    " son": 3172,
    " Muslim": 3173,
    " effort": 3174,
    "ruary": 3175,
    " jobs": 3176,
    " Iran": 3177,
    " extreme": 3178,
    " prevent": 3179,
    " learn": 3180,
    "ining": 3181,
    " serious": 3182,
    " regul": 3183,
    "rast": 3184,
    " inn": 3185,
    " range": 3186,
    " ...": 3187,
    "room": 3188,
    " violence": 3189,
    " eight": 3190,
    " Mark": 3191,
    "80": 3192,
    "ources": 3193,
    " Iraq": 3194,
    "itch": 3195,
    "OP": 3196,
    " surve": 3197,
    " completely": 3198,
    " conc": 3199,
    " 2009": 3200,
    "eff": 3201,
    " message": 3202,
    "ico": 3203,
    "tr": 3204,
    "ha": 3205,
    " obv": 3207,
    " interesting": 3208,
    "reedom": 3209,
    "She": 3210,
    " screen": 3211,
    "abor": 3212,
    " opportunity": 3213,
    " climate": 3214,
    "24": 3215,
    " majority": 3216,
    " Ke": 3217,
    "anced": 3218,
    " particularly": 3219,
    " doub": 3220,
    " journal": 3221,
    " despite": 3222,
    " Rom": 3223,
    " claims": 3224,
    "fort": 3225,
    " answer": 3226,
    " Char": 3227,
    " society": 3228,
    " London": 3229,
    " defense": 3230,
    " carry": 3231,
    "entially": 3232,
    "aming": 3233,
    " guy": 3234,
    " extra": 3235,
    "ension": 3236,
    " Donald": 3237,
    "isions": 3238,
    " attacks": 3239,
    " required": 3240,
    "erve": 3241,
    "rench": 3242,
    "illed": 3243,
    " biggest": 3244,
    "vertisement": 3245,
    " East": 3246,
    " exactly": 3247,
    " paid": 3248,
    "mp": 3249,
    " More": 3250,
    "iers": 3251,
    "ibr": 3252,
    " experien": 3254,
    "lying": 3255,
    "uclear": 3256,
    "inese": 3257,
    "isi": 3258,
    " modern": 3259,
    " remain": 3260,
    " quarter": 3261,
    " officers": 3262,
    "ett": 3263,
    " hundred": 3264,
    " cross": 3265,
    " except": 3266,
    "utions": 3267,
    "ari": 3268,
    " table": 3269,
    " practice": 3270,
    "inally": 3271,
    " natural": 3272,
    " middle": 3273,
    "erc": 3274,
    " 27": 3275,
    " certainly": 3276,
    "na": 3277,
    " dro": 3278,
    "oses": 3279,
    " Saturday": 3280,
    " stories": 3281,
    " Net": 3282,
    " histor": 3283,
    " gas": 3284,
    " products": 3285,
    " surv": 3286,
    " looked": 3287,
    " sometimes": 3288,
    "nces": 3289,
    " stuff": 3290,
    " rout": 3291,
    " science": 3292,
    " finally": 3293,
    " user": 3294,
    " Tur": 3295,
    "AM": 3296,
    " summer": 3297,
    " movie": 3298,
    " blood": 3299,
    "ospital": 3300,
    "aves": 3301,
    " communic": 3302,
    " aw": 3303,
    "ously": 3304,
    " lay": 3305,
    " changed": 3306,
    " term": 3307,
    " ones": 3308,
    " leading": 3309,
    " described": 3310,
    " Sand": 3311,
    " imag": 3312,
    " February": 3313,
    "fl": 3314,
    " prison": 3315,
    " convers": 3316,
    "ny": 3317,
    " details": 3318,
    "icks": 3319,
    " starting": 3320,
    " Spe": 3321,
    " quality": 3322,
    " occur": 3323,
    " pan": 3324,
    "hib": 3325,
    " showed": 3326,
    " named": 3327,
    " giving": 3328,
    " ult": 3329,
    " remains": 3330,
    " McC": 3331,
    "uing": 3332,
    " region": 3333,
    "pper": 3334,
    " provided": 3335,
    " costs": 3336,
    "akers": 3337,
    " Soc": 3338,
    "arr": 3339,
    " damage": 3340,
    " mob": 3341,
    " danger": 3342,
    " fit": 3343,
    "aught": 3344,
    " TH": 3345,
    " chief": 3346,
    " poor": 3347,
    " path": 3348,
    " Mor": 3349,
    "ida": 3350,
    " education": 3351,
    " multiple": 3352,
    " continued": 3353,
    "enge": 3354,
    " Int": 3355,
    " growing": 3356,
    "No": 3357,
    " demonst": 3358,
    " *": 3359,
    " parts": 3360,
    " 26": 3361,
    " writing": 3362,
    " comments": 3363,
    " 28": 3364,
    " ment": 3365,
    "yl": 3366,
    " maintain": 3367,
    " safe": 3368,
    " assist": 3369,
    " thinking": 3370,
    " Des": 3371,
    "inary": 3372,
    " Republicans": 3373,
    " Even": 3374,
    " purp": 3375,
    " request": 3376,
    " write": 3377,
    " fix": 3378,
    " item": 3379,
    " purch": 3380,
    "ables": 3381,
    " died": 3382,
    " Democratic": 3383,
    " Coun": 3384,
    "FL": 3385,
    "ara": 3386,
    "ago": 3387,
    " ready": 3388,
    "coin": 3389,
    " wouldn": 3390,
    " implement": 3391,
    "23": 3392,
    " increased": 3393,
    " culture": 3394,
    " efforts": 3395,
    " voters": 3396,
    "ux": 3397,
    "pre": 3398,
    " camer": 3399,
    " mill": 3400,
    "aly": 3401,
    "oper": 3402,
    " reading": 3403,
    "mitted": 3404,
    "iminal": 3405,
    " file": 3406,
    " usually": 3407,
    " calls": 3408,
    " spot": 3409,
    "Im": 3410,
    " effects": 3411,
    " Gener": 3412,
    "zz": 3413,
    " perhaps": 3414,
    "ban": 3415,
    " alone": 3416,
    "arian": 3417,
    "iles": 3418,
    " First": 3419,
    " although": 3420,
    " towards": 3421,
    "hest": 3422,
    " League": 3423,
    " consist": 3424,
    " Bill": 3425,
    " Texas": 3426,
    " select": 3427,
    " guys": 3428,
    " standard": 3429,
    " Michael": 3430,
    " subst": 3431,
    " cele": 3432,
    " beyond": 3433,
    " directly": 3434,
    " platform": 3435,
    " Chinese": 3436,
    " (@": 3437,
    " hous": 3438,
    "using": 3439,
    "itute": 3440,
    " speech": 3441,
    " reality": 3442,
    "egr": 3443,
    "icated": 3444,
    " kids": 3445,
    " James": 3446,
    " avoid": 3447,
    " throughout": 3448,
    " football": 3449,
    " student": 3450,
    " tur": 3451,
    " couldn": 3452,
    "BI": 3453,
    "ford": 3454,
    " unf": 3455,
    " immediately": 3456,
    "oul": 3457,
    " rob": 3458,
    " Ne": 3459,
    " includes": 3460,
    " cat": 3461,
    " concept": 3462,
    " center": 3463,
    " choice": 3464,
    " scene": 3465,
    " complex": 3466,
    "anch": 3467,
    " additional": 3468,
    "sp": 3469,
    " Mon": 3470,
    " challeng": 3471,
    " Cons": 3472,
    " wife": 3473,
    " clos": 3474,
    " tro": 3475,
    " recomm": 3476,
    " researc": 3477,
    "Re": 3478,
    " epis": 3479,
    "itor": 3480,
    "All": 3481,
    " ver": 3482,
    " Minister": 3483,
    " sle": 3484,
    " corpor": 3485,
    " …": 3486,
    " designed": 3487,
    " Ser": 3488,
    "agon": 3489,
    " remember": 3490,
    " software": 3491,
    " safety": 3492,
    " Indian": 3493,
    "wise": 3494,
    " gone": 3495,
    " il": 3496,
    "astic": 3497,
    "ports": 3498,
    " cast": 3499,
    " sell": 3500,
    " toward": 3501,
    " agency": 3502,
    " ten": 3503,
    " officer": 3504,
    "aches": 3505,
    "bur": 3506,
    " figure": 3507,
    " piece": 3508,
    " brain": 3509,
    "omen": 3510,
    " battle": 3511,
    " Jack": 3512,
    " counter": 3513,
    "men": 3514,
    " debate": 3515,
    "airs": 3516,
    "ression": 3517,
    "ston": 3518,
    " thousands": 3519,
    "adem": 3520,
    " swe": 3521,
    "rupt": 3522,
    " ahead": 3523,
    " opin": 3524,
    "ingin": 3525,
    "icient": 3526,
    "Now": 3527,
    "imum": 3528,
    " relative": 3529,
    "irth": 3530,
    " letter": 3531,
    " receive": 3532,
    " pressure": 3533,
    " Bo": 3534,
    " blog": 3536,
    "ilies": 3537,
    "ampions": 3538,
    " >": 3539,
    " sil": 3540,
    " moved": 3541,
    " launch": 3542,
    " appears": 3543,
    " option": 3544,
    " Play": 3545,
    " passed": 3546,
    " ut": 3547,
    " prec": 3548,
    " stage": 3549,
    "roy": 3550,
    "oes": 3551,
    " 60": 3552,
    " clean": 3553,
    " Serv": 3554,
    "olute": 3555,
    " II": 3556,
    "atever": 3557,
    "berg": 3558,
    "OT": 3559,
    " property": 3560,
    "27": 3561,
    " helped": 3562,
    " drive": 3563,
    " Apple": 3564,
    "just": 3565,
    " alleged": 3566,
    " Green": 3567,
    " twe": 3568,
    "new": 3569,
    " disapp": 3570,
    " tour": 3571,
    " meaning": 3572,
    " rock": 3573,
    " dog": 3574,
    " x": 3575,
    "urt": 3576,
    "itation": 3577,
    " cris": 3578,
    " Associ": 3579,
    " suspect": 3580,
    " date": 3581,
    " Rich": 3582,
    "aughter": 3583,
    " moving": 3584,
    " score": 3585,
    " Democrats": 3586,
    " organization": 3587,
    " sat": 3588,
    " conditions": 3589,
    " touch": 3590,
    " dark": 3591,
    " command": 3592,
    " Then": 3593,
    " ign": 3594,
    "?\"": 3595,
    " reasons": 3596,
    " budget": 3597,
    " crow": 3598,
    " park": 3599,
    "more": 3600,
    " nuclear": 3601,
    " myself": 3602,
    " nom": 3603,
    " deg": 3604,
    " happy": 3605,
    " device": 3606,
    " difference": 3607,
    "rief": 3608,
    " Sim": 3609,
    " maybe": 3610,
    " beginning": 3611,
    "AD": 3612,
    " copy": 3613,
    " nature": 3614,
    " failed": 3615,
    "wood": 3616,
    " fan": 3617,
    " characters": 3618,
    "yan": 3619,
    " computer": 3620,
    " encour": 3621,
    "sis": 3622,
    " aim": 3623,
    " Mart": 3624,
    " title": 3625,
    " wall": 3626,
    " compared": 3627,
    " league": 3628,
    "ocked": 3629,
    " Super": 3630,
    "ean": 3631,
    "ivity": 3632,
    " estim": 3633,
    "add": 3634,
    " Val": 3635,
    " Star": 3636,
    " college": 3637,
    " eyes": 3638,
    " shown": 3639,
    " English": 3640,
    " century": 3641,
    " powerful": 3642,
    " Day": 3643,
    "lease": 3644,
    "ource": 3645,
    " bal": 3646,
    "aint": 3647,
    " limited": 3648,
    " yes": 3649,
    " band": 3650,
    " contribut": 3651,
    " positive": 3652,
    " forced": 3653,
    " necessary": 3654,
    " Che": 3655,
    " refer": 3656,
    " candidate": 3657,
    " stra": 3658,
    " disp": 3659,
    "35": 3660,
    "cient": 3661,
    " books": 3662,
    " trust": 3663,
    "AP": 3664,
    " French": 3665,
    " largest": 3666,
    "26": 3667,
    " arch": 3668,
    "enty": 3669,
    " sal": 3670,
    " Here": 3671,
    "aud": 3672,
    " conference": 3673,
    " Rober": 3674,
    " note": 3675,
    " analysis": 3676,
    "ufact": 3677,
    " spending": 3678,
    " presidential": 3679,
    "45": 3680,
    " Of": 3681,
    " citizens": 3682,
    "orks": 3683,
    " schools": 3684,
    "igration": 3685,
    " Syria": 3686,
    " throw": 3687,
    " Ben": 3688,
    "venue": 3689,
    " aware": 3690,
    " meant": 3691,
    " executive": 3692,
    " eventually": 3693,
    "My": 3694,
    " physical": 3695,
    " followed": 3696,
    " feature": 3697,
    "ares": 3698,
    " firm": 3699,
    " treatment": 3700,
    " Tor": 3701,
    " Wind": 3702,
    " streng": 3703,
    " mix": 3704,
    " confir": 3705,
    " bott": 3706,
    "ero": 3707,
    " correct": 3708,
    "orney": 3709,
    " 29": 3710,
    " Dis": 3711,
    " grad": 3712,
    " religious": 3713,
    " easily": 3714,
    "band": 3715,
    " autom": 3716,
    " esc": 3717,
    " pus": 3718,
    "board": 3719,
    " cool": 3720,
    "etro": 3721,
    " 196": 3722,
    " families": 3723,
    " illeg": 3724,
    "ressed": 3725,
    "craft": 3726,
    "cul": 3727,
    "rated": 3728,
    " actions": 3729,
    " overall": 3730,
    " Air": 3731,
    " Mex": 3732,
    " allows": 3733,
    " gives": 3734,
    " feed": 3735,
    " £": 3736,
    "):": 3737,
    " susp": 3738,
    "ube": 3739,
    " yourself": 3740,
    "By": 3741,
    "Is": 3742,
    " draft": 3743,
    "ken": 3744,
    "bum": 3745,
    " smart": 3746,
    " appeared": 3747,
    "ram": 3748,
    " detail": 3749,
    " income": 3750,
    "iring": 3751,
    " analy": 3752,
    " Bel": 3753,
    " signed": 3754,
    "New": 3755,
    "encies": 3756,
    " Ham": 3757,
    " central": 3758,
    " ideas": 3759,
    " ang": 3760,
    " Govern": 3761,
    " senior": 3762,
    "Advertisement": 3763,
    " frequ": 3764,
    " weapons": 3765,
    "ID": 3766,
    " display": 3767,
    " har": 3768,
    " promot": 3769,
    " nice": 3770,
    "inn": 3771,
    " credit": 3772,
    " decades": 3773,
    " psych": 3774,
    " politics": 3775,
    "Don": 3776,
    " Bre": 3777,
    " crime": 3778,
    "OM": 3779,
    "EC": 3780,
    "chan": 3781,
    " uses": 3782,
    " door": 3783,
    " dise": 3784,
    "uty": 3785,
    " International": 3786,
    " unique": 3787,
    "28": 3788,
    " altern": 3789,
    " lif": 3790,
    "According": 3791,
    " drop": 3792,
    " sales": 3793,
    "mar": 3794,
    " developed": 3795,
    "***": 4722,
    "resh": 3797,
    " customers": 3798,
    "ET": 3799,
    " benefits": 3800,
    " conflic": 3801,
    "urance": 3802,
    "Ar": 3803,
    " related": 3804,
    " crisis": 3805,
    " School": 3806,
    " mist": 3807,
    "erry": 3808,
    "iable": 3809,
    " predict": 3810,
    " noted": 3811,
    " Cap": 3812,
    "29": 3813,
    " Australia": 3814,
    " EU": 3815,
    "box": 3816,
    " truth": 3817,
    "part": 3818,
    " goals": 3819,
    "iny": 3820,
    " individuals": 3821,
    " charge": 3822,
    " Earth": 3823,
    " beaut": 3824,
    " continues": 3825,
    "onents": 3826,
    " Union": 3827,
    " Arab": 3828,
    " observ": 3829,
    " rap": 3830,
    " challenge": 3831,
    "que": 3832,
    " sto": 3833,
    "nown": 3834,
    " apparent": 3835,
    " Angel": 3836,
    "itely": 3837,
    " Smith": 3838,
    "Be": 3839,
    " lic": 3840,
    " projects": 3841,
    " peace": 3842,
    " measure": 3843,
    " Police": 3844,
    "oti": 3845,
    " intelligence": 3846,
    " Christian": 3847,
    " previously": 3848,
    " Germany": 3849,
    " fully": 3850,
    " rule": 3851,
    " manager": 3852,
    " brother": 3853,
    " rates": 3854,
    " advant": 3855,
    "change": 3856,
    " expand": 3857,
    " clearly": 3858,
    " reform": 3859,
    "net": 3860,
    " lines": 3861,
    " successful": 3862,
    "riage": 3863,
    " highly": 3864,
    " larger": 3865,
    "ounds": 3866,
    "Un": 3867,
    " traff": 3868,
    " spread": 3869,
    "iance": 3870,
    " seemed": 3871,
    " Council": 3872,
    " straight": 3873,
    "Some": 3874,
    " criminal": 3875,
    " Comp": 3876,
    " minor": 3877,
    " emb": 3878,
    " George": 3879,
    " programs": 3880,
    "iced": 3881,
    "attle": 3882,
    "owers": 3883,
    " Franc": 3884,
    " incident": 3885,
    " resources": 3886,
    "21": 3887,
    " Tom": 3888,
    " greater": 3889,
    " primary": 3890,
    "IA": 3891,
    "inated": 3892,
    "antly": 3893,
    " knowledge": 3894,
    "Pro": 3895,
    " studies": 3896,
    "while": 3897,
    "dom": 3898,
    " save": 3899,
    "orter": 3900,
    " web": 3901,
    "ategy": 3902,
    " kept": 3903,
    " attract": 3904,
    "ki": 3905,
    " Flor": 3906,
    "olic": 3907,
    " spir": 3908,
    " emot": 3909,
    " color": 3910,
    " feet": 3911,
    "sey": 3912,
    " rare": 3913,
    " reached": 3914,
    " arm": 3915,
    " Ant": 3916,
    "secut": 3917,
    " High": 3918,
    "levision": 3919,
    " Internet": 3920,
    " Brown": 3921,
    "oday": 3922,
    "iders": 3923,
    "osh": 3924,
    " favorite": 3925,
    " Cr": 3926,
    " places": 3927,
    " Rec": 3928,
    "rs": 3929,
    " regular": 3930,
    "wide": 3931,
    "ota": 3932,
    "vere": 3933,
    "bon": 3934,
    " manufact": 3935,
    " laun": 3936,
    " Def": 3937,
    "100": 3938,
    " send": 3939,
    "term": 3940,
    " prem": 3941,
    "roll": 3942,
    "lick": 3943,
    "icit": 3944,
    "ingly": 3945,
    " knows": 3946,
    " shooting": 3947,
    " activity": 3948,
    " pun": 3949,
    " sources": 3950,
    " normal": 3951,
    "icago": 3952,
    "onent": 3953,
    "ser": 3954,
    " status": 3955,
    " fighting": 3956,
    "ville": 3957,
    " voice": 3958,
    " rise": 3959,
    "ocks": 3960,
    " fine": 3961,
    " owners": 3962,
    " caused": 3963,
    " claimed": 3964,
    " Mac": 3965,
    " enem": 3966,
    " liter": 3967,
    " Rob": 3968,
    " Up": 3969,
    " General": 3970,
    "aith": 3971,
    "EO": 3972,
    " options": 3973,
    " 2007": 3974,
    " integr": 3975,
    "ength": 3976,
    "usion": 3977,
    " spend": 3978,
    " Gold": 3979,
    "ado": 3980,
    " cities": 3981,
    "miss": 3982,
    " organiz": 3983,
    "ING": 3984,
    " ended": 3985,
    "www": 3986,
    " researchers": 3987,
    "iled": 3988,
    " calling": 3989,
    " shut": 3990,
    " reflect": 3991,
    " La": 3992,
    "org": 3993,
    "mission": 3994,
    "mark": 3995,
    "”,": 3996,
    "oles": 3997,
    "70": 3998,
    "roid": 3999,
    " prices": 4000,
    " Every": 4001,
    " album": 4002,
    " From": 4003,
    "ifying": 4004,
    " employees": 4005,
    " female": 4006,
    " England": 4007,
    "ya": 4008,
    " virt": 4009,
    " crowd": 4010,
    " haven": 4011,
    " raised": 4012,
    "mittee": 4013,
    " ele": 4014,
    "uana": 4015,
    " jump": 4016,
    "33": 4017,
    " supposed": 4018,
    "itness": 4019,
    " happens": 4020,
    " adding": 4021,
    " policies": 4022,
    " names": 4023,
    " charges": 4024,
    " pros": 4025,
    " trou": 4026,
    "ica": 4027,
    "ribution": 4028,
    " basic": 4029,
    "uman": 4030,
    "Not": 4031,
    "iverse": 4032,
    "inger": 4033,
    " Mag": 4034,
    " concerns": 4035,
    " traditional": 4036,
    " wait": 4037,
    " plant": 4038,
    " absolute": 4039,
    " acqu": 4040,
    " hospital": 4041,
    " funding": 4042,
    " Bay": 4043,
    " print": 4044,
    " slight": 4045,
    "rol": 4046,
    " commer": 4047,
    " patients": 4048,
    " authorities": 4049,
    " minister": 4050,
    "Sc": 4051,
    " creating": 4052,
    " freedom": 4053,
    " AP": 4054,
    " mechan": 4055,
    " scen": 4056,
    " Mo": 4057,
    " style": 4058,
    " seeing": 4059,
    " grand": 4060,
    ".’": 4061,
    " beat": 4062,
    " lik": 4063,
    "dd": 4064,
    "ona": 4065,
    "rian": 4066,
    " station": 4067,
    " Scott": 4068,
    "see": 4069,
    " push": 4070,
    "ijuana": 4071,
    " behavior": 4072,
    " leaving": 4073,
    " cry": 4074,
    " impl": 4075,
    " birth": 4076,
    " ir": 4077,
    " actual": 4078,
    "EL": 4079,
    "pen": 4080,
    " ensure": 4081,
    " offered": 4082,
    " agreement": 4083,
    " Florida": 4084,
    " eth": 4085,
    "soft": 4086,
    " Hillary": 4087,
    " posted": 4088,
    " Reg": 4089,
    " gold": 4090,
    " Sun": 4091,
    " Ber": 4092,
    " weekend": 4093,
    " green": 4094,
    " Most": 4095,
    " adult": 4096,
    "alse": 4097,
    " weight": 4098,
    "OU": 4099,
    ".'": 4100,
    "acing": 4101,
    " determin": 4102,
    " vac": 4103,
    "Here": 4104,
    " revealed": 4105,
    " Well": 4106,
    " application": 4107,
    " mostly": 4108,
    " values": 4109,
    " propos": 4110,
    "itude": 4111,
    " Alex": 4112,
    "aby": 4113,
    " willing": 4114,
    "earch": 4115,
    " rank": 4116,
    " adop": 4117,
    " According": 4118,
    " establ": 4119,
    " eye": 4120,
    " records": 4121,
    "amb": 4122,
    "ection": 4123,
    "•": 4124,
    "500": 4125,
    " enforce": 4126,
    "http": 4127,
    " picture": 4128,
    " believed": 4129,
    "pri": 4130,
    " mer": 4131,
    "uild": 4132,
    " brief": 4133,
    " Let": 4134,
    " learned": 4135,
    " Law": 4136,
    " install": 4137,
    " strategy": 4138,
    " appl": 4139,
    "igned": 4140,
    " choose": 4141,
    "istry": 4142,
    "gen": 4143,
    "SA": 4144,
    " dire": 4145,
    " wonder": 4146,
    " qual": 4147,
    " massive": 4148,
    " devices": 4149,
    " benefit": 4150,
    " wild": 4151,
    " parties": 4152,
    " Chicago": 4153,
    " lawy": 4154,
    " People": 4155,
    " uns": 4156,
    "cher": 4157,
    " cars": 4158,
    " Trans": 4159,
    " Port": 4160,
    "cont": 4161,
    " Phil": 4162,
    " arrested": 4163,
    " mount": 4164,
    " whatever": 4165,
    " wat": 4166,
    " Oh": 4167,
    " France": 4168,
    " street": 4169,
    " ;": 4170,
    " provides": 4171,
    " whom": 4172,
    " assault": 4173,
    "90": 4174,
    "liament": 4175,
    " asking": 4176,
    " influence": 4177,
    "ties": 4178,
    " judge": 4179,
    " lose": 4180,
    " fat": 4181,
    " feeling": 4182,
    " operations": 4183,
    " produced": 4184,
    " temper": 4185,
    "ste": 4186,
    " critical": 4187,
    " Lou": 4188,
    " Secret": 4189,
    " negoti": 4190,
    "point": 4191,
    " mission": 4192,
    " enter": 4193,
    " Bush": 4194,
    "Ex": 4195,
    " images": 4196,
    "о": 4197,
    " Stud": 4198,
    " confirmed": 4199,
    " showing": 4200,
    "IL": 4201,
    " district": 4202,
    "ription": 4203,
    " runs": 4204,
    " pattern": 4205,
    " tend": 4206,
    " Mat": 4207,
    "===": 4349,
    " border": 4209,
    " residents": 4210,
    "orial": 4211,
    "rav": 4212,
    " debt": 4213,
    "However": 4214,
    "aked": 4216,
    " cru": 4217,
    " teac": 4218,
    " Committee": 4219,
    "mine": 4220,
    "Cl": 4221,
    " opposition": 4222,
    " celebr": 4223,
    " Wall": 4224,
    " Health": 4225,
    " section": 4226,
    " defend": 4227,
    " etc": 4228,
    "estic": 4229,
    " produce": 4230,
    "icial": 4231,
    " Commission": 4232,
    " drink": 4233,
    " independent": 4234,
    " Mod": 4235,
    "ront": 4236,
    "cell": 4237,
    " Why": 4238,
    " brand": 4239,
    "ented": 4240,
    "ugg": 4241,
    "ags": 4242,
    " core": 4243,
    " Press": 4244,
    " tick": 4245,
    " digital": 4246,
    " Bit": 4247,
    " hero": 4248,
    " advoc": 4249,
    " dollars": 4250,
    "ae": 4251,
    " Sam": 4252,
    "ocr": 4253,
    "rial": 4254,
    " effective": 4255,
    " solution": 4256,
    " Mal": 4257,
    " vill": 4258,
    " interested": 4259,
    " Korea": 4260,
    " highest": 4261,
    "BA": 4262,
    "irg": 4263,
    "ords": 4264,
    " memory": 4265,
    " opening": 4266,
    " worse": 4267,
    " learning": 4268,
    " responsible": 4269,
    " trial": 4270,
    " daily": 4271,
    " kick": 4272,
    " theory": 4273,
    " Other": 4274,
    " offers": 4275,
    " Palest": 4276,
    "me": 4277,
    " replace": 4278,
    " restrict": 4279,
    " mur": 4280,
    " Get": 4281,
    " Office": 4282,
    " agreed": 4283,
    " television": 4284,
    " Francis": 4285,
    "cience": 4286,
    " Micro": 4287,
    " Because": 4288,
    " occas": 4289,
    "ST": 4290,
    "illing": 4291,
    "CC": 4292,
    " train": 4293,
    " investment": 4294,
    " vs": 4295,
    " types": 4296,
    "iation": 4297,
    " Western": 4298,
    "icians": 4299,
    " chair": 4300,
    "aks": 4301,
    " miles": 4302,
    " millions": 4303,
    "no": 4304,
    "gency": 4305,
    " chem": 4306,
    " Justice": 4307,
    " Del": 4308,
    " generally": 4309,
    " basis": 4310,
    " proposed": 4311,
    " 80": 4312,
    " Mike": 4313,
    " Mil": 4314,
    " Cup": 4315,
    "These": 4316,
    "ipe": 4317,
    " heavy": 4318,
    " explained": 4319,
    " Our": 4320,
    " map": 4321,
    "uries": 4322,
    "AA": 4323,
    "rad": 4324,
    " der": 4325,
    "oly": 4326,
    " partners": 4327,
    "ander": 4328,
    " opinion": 4329,
    " defe": 4330,
    " onto": 4331,
    " protest": 4332,
    "Con": 4333,
    "Get": 4334,
    " associated": 4335,
    " load": 4336,
    "rig": 4337,
    "azing": 4338,
    " NFL": 4339,
    "rate": 4340,
    "oom": 4341,
    "44": 4342,
    "win": 4343,
    " Found": 4344,
    " male": 4345,
    " becomes": 4346,
    " reject": 4347,
    "outhern": 4348,
    " Security": 4350,
    "vest": 4351,
    " coal": 4352,
    " obtain": 4353,
    " destroy": 4354,
    " advantage": 4355,
    " assum": 4356,
    " Liber": 4357,
    " condition": 4358,
    " announce": 4359,
    " hundreds": 4360,
    " achieve": 4361,
    " opened": 4362,
    "eline": 4363,
    " understanding": 4364,
    "odes": 4365,
    " Johnson": 4366,
    "coming": 4367,
    "icip": 4368,
    " surround": 4369,
    "ading": 4370,
    "bert": 4371,
    "orthern": 4372,
    "well": 4373,
    "upp": 4374,
    " initial": 4375,
    " Att": 4376,
    " Big": 4377,
    " sleep": 4378,
    "36": 4379,
    " ship": 4380,
    " marriage": 4381,
    " management": 4382,
    " Windows": 4383,
    " thus": 4384,
    " limit": 4385,
    " born": 4386,
    " becoming": 4387,
    "known": 4388,
    " photo": 4389,
    " easier": 4390,
    "FC": 4391,
    " Great": 4392,
    " rat": 4393,
    " legislation": 4394,
    " controvers": 4395,
    " unlike": 4396,
    " electric": 4397,
    " Many": 4398,
    "32": 4399,
    " camera": 4400,
    " Mad": 4401,
    "witch": 4402,
    " accused": 4403,
    " spl": 4404,
    " neighbor": 4405,
    " double": 4406,
    " ice": 4407,
    " species": 4408,
    " shared": 4409,
    "lant": 4410,
    " join": 4411,
    " illegal": 4412,
    " 31": 4413,
    " Lab": 4414,
    " 2006": 4415,
    "Mr": 4416,
    " harm": 4417,
    " machine": 4418,
    " served": 4419,
    " Jer": 4420,
    "GB": 4421,
    " extremely": 4422,
    "olf": 4423,
    " active": 4424,
    " 35": 4425,
    " serve": 4426,
    " documents": 4427,
    " Islamic": 4428,
    " frame": 4429,
    " strik": 4430,
    "level": 4431,
    "za": 4432,
    " Dist": 4433,
    " audience": 4434,
    "BS": 4435,
    " location": 4436,
    " AM": 4437,
    " scientists": 4438,
    " bottom": 4439,
    "orrow": 4440,
    " victims": 4441,
    " Art": 4442,
    " wealth": 4443,
    " professional": 4444,
    " resist": 4445,
    " reduce": 4446,
    " belief": 4447,
    " nine": 4448,
    " solid": 4449,
    " winning": 4450,
    " marijuana": 4451,
    "ears": 4452,
    " Uk": 4453,
    " negative": 4454,
    "75": 4455,
    "iful": 4456,
    "ih": 4457,
    " communities": 4458,
    " returned": 4459,
    "ortunately": 4460,
    " incred": 4461,
    " PM": 4462,
    " Institute": 4463,
    "met": 4464,
    "tered": 4465,
    " church": 4466,
    "PS": 4467,
    " department": 4468,
    " Sanders": 4469,
    " ran": 4470,
    " victory": 4471,
    "rey": 4472,
    " purpose": 4473,
    " 90": 4474,
    " Commun": 4475,
    " amb": 4476,
    "lands": 4477,
    " vehicle": 4478,
    " internet": 4479,
    " leadership": 4480,
    " Hall": 4481,
    "istics": 4482,
    " bomb": 4483,
    "ios": 4484,
    " mobile": 4485,
    "ghan": 4486,
    " instance": 4487,
    "ipped": 4488,
    "38": 4489,
    " separate": 4490,
    " existing": 4491,
    " notice": 4492,
    " hearing": 4493,
    " die": 4494,
    " explain": 4495,
    " doubt": 4496,
    " faith": 4497,
    " teach": 4498,
    "house": 4499,
    " Your": 4500,
    "atically": 4501,
    " episode": 4502,
    " bed": 4503,
    " watching": 4504,
    " comfort": 4505,
    " Canadian": 4506,
    " Bank": 4507,
    " notes": 4508,
    " radio": 4509,
    "irgin": 4510,
    " Ev": 4511,
    " fresh": 4512,
    " unc": 4513,
    " views": 4514,
    " Inc": 4515,
    " putting": 4516,
    "asy": 4517,
    " Sl": 4518,
    " Fin": 4519,
    " supporters": 4520,
    " conservative": 4521,
    " purs": 4522,
    " argument": 4523,
    "omas": 4524,
    " micro": 4525,
    "ario": 4526,
    "acity": 4527,
    " launched": 4528,
    "scrib": 4529,
    "works": 4530,
    "OL": 4531,
    " appeal": 4532,
    "iliar": 4533,
    " items": 4534,
    " committee": 4535,
    "resp": 4536,
    "which": 4537,
    " definitely": 4538,
    "ada": 4539,
    " dangerous": 4540,
    "iller": 4541,
    "zen": 4542,
    " coverage": 4543,
    " direction": 4544,
    " Over": 4545,
    " charged": 4546,
    " floor": 4547,
    " sun": 4548,
    "PA": 4549,
    " max": 4550,
    "ography": 4551,
    "34": 4552,
    "EM": 4553,
    " Carol": 4554,
    " Church": 4555,
    " Fox": 4556,
    " issued": 4557,
    " drugs": 4558,
    "Image": 4559,
    " task": 4560,
    "ipp": 4561,
    " background": 4562,
    " competition": 4563,
    " trend": 4564,
    " stated": 4565,
    "vention": 4566,
    "andom": 4567,
    " traffic": 4568,
    " FBI": 4569,
    " commercial": 4570,
    " Direct": 4571,
    "itt": 4572,
    " spoke": 4573,
    " sett": 4574,
    "inct": 4575,
    " transfer": 4576,
    " suggested": 4577,
    " structure": 4578,
    " sites": 4579,
    " hus": 4580,
    " north": 4581,
    " Since": 4582,
    " Like": 4583,
    " restaur": 4584,
    "ampionship": 4585,
    " labor": 4586,
    " decade": 4587,
    " Bur": 4588,
    " repeated": 4589,
    " Game": 4590,
    " react": 4591,
    "oman": 4592,
    " cards": 4593,
    " animals": 4594,
    "going": 4595,
    " novel": 4596,
    "ctors": 4597,
    "bing": 4598,
    "but": 4599,
    "NA": 4600,
    "ribute": 4601,
    " daughter": 4602,
    "anted": 4603,
    " driving": 4604,
    " closed": 4605,
    " worst": 4606,
    " contain": 4607,
    " entirely": 4608,
    " ded": 4609,
    " Britain": 4610,
    "ici": 4611,
    "Bl": 4612,
    "ady": 4613,
    " driver": 4614,
    " Wil": 4615,
    " disease": 4616,
    " telling": 4617,
    "iling": 4618,
    " smaller": 4619,
    " discovered": 4620,
    " nor": 4621,
    "akistan": 4622,
    " refere": 4623,
    " Pri": 4624,
    "Americ": 4625,
    " Los": 4626,
    " hack": 4627,
    "equ": 4628,
    "!”": 4629,
    "ference": 4630,
    " Que": 4631,
    "spe": 4632,
    " false": 4633,
    " cash": 4634,
    " concerned": 4635,
    "ulf": 4636,
    " plays": 4637,
    " surface": 4638,
    "semb": 4639,
    "udd": 4640,
    " supported": 4641,
    "annel": 4642,
    "ulated": 4643,
    " tools": 4644,
    "oyal": 4645,
    " compar": 4646,
    " transport": 4647,
    " Chris": 4648,
    " experiment": 4649,
    " finding": 4650,
    "night": 4651,
    " categ": 4652,
    "ait": 4654,
    " aspect": 4655,
    "##": 4656,
    " businesses": 4657,
    " 70": 4658,
    " UN": 4659,
    " farm": 4660,
    " please": 4661,
    " older": 4662,
    "azon": 4663,
    "how": 4664,
    " activities": 4665,
    " requires": 4666,
    "phone": 4667,
    "CH": 4668,
    " gay": 4669,
    " Jones": 4670,
    "ibrary": 4671,
    " strength": 4672,
    "48": 4673,
    " wel": 4674,
    "do": 4675,
    "andon": 4676,
    " insurance": 4677,
    " consequ": 4678,
    "37": 4679,
    " largely": 4680,
    " murder": 4681,
    "NN": 4682,
    "55": 4683,
    " exerc": 4684,
    " caught": 4685,
    " candidates": 4686,
    "kins": 4687,
    " Israeli": 4688,
    " allowing": 4689,
    "icy": 4690,
    " blue": 4691,
    " Are": 4692,
    " annual": 4693,
    " Ken": 4694,
    " testing": 4695,
    "ius": 4696,
    "ossible": 4697,
    " strateg": 4698,
    " Sup": 4699,
    " raise": 4700,
    " stock": 4701,
    "arant": 4702,
    "overy": 4703,
    " Robert": 4704,
    "izes": 4705,
    "gers": 4706,
    " decisions": 4707,
    " accur": 4708,
    "rick": 4709,
    " context": 4710,
    " fuel": 4711,
    " Ac": 4712,
    "SP": 4713,
    "osure": 4714,
    "lor": 4715,
    " Ukrain": 4716,
    " concern": 4717,
    " afford": 4718,
    " believes": 4719,
    " construction": 4720,
    " truly": 4721,
    " Ty": 4723,
    " Miss": 4724,
    " ge": 4725,
    " justice": 4726,
    "igrants": 4727,
    " generation": 4728,
    " highlight": 4729,
    "rim": 4730,
    " Tre": 4731,
    " unit": 4732,
    " presence": 4733,
    " Jewish": 4734,
    "anging": 4735,
    "!!": 4736,
    " Sil": 4737,
    "а": 4738,
    "tery": 4739,
    "е": 4740,
    "ception": 4741,
    " Africa": 4742,
    " guess": 4743,
    "ancy": 4744,
    " witness": 4745,
    "itable": 4746,
    " holding": 4747,
    "ey": 4748,
    " Gree": 4749,
    " establish": 4750,
    " length": 4751,
    " planning": 4752,
    "bre": 4753,
    "ava": 4754,
    " African": 4755,
    " sequ": 4756,
    "cknow": 4757,
    " refuge": 4758,
    " placed": 4759,
    " catch": 4760,
    " Afghan": 4761,
    " san": 4762,
    " Association": 4763,
    " tells": 4764,
    "‘": 4765,
    "inter": 4766,
    " scale": 4767,
    " spokesman": 4768,
    " tim": 4769,
    "nel": 4770,
    " rough": 4771,
    " attend": 4772,
    "olly": 4773,
    " Ver": 4774,
    " cells": 4775,
    " joined": 4776,
    " Add": 4777,
    " mentioned": 4778,
    " interests": 4779,
    " abuse": 4780,
    "—�": 4781,
    "pective": 4782,
    " Jim": 4783,
    " Pre": 4784,
    "More": 4785,
    " hasn": 4786,
    " PC": 4787,
    "Le": 4788,
    " initi": 4789,
    " kid": 4790,
    " enforcement": 4791,
    " GOP": 4792,
    " introduced": 4793,
    " deliver": 4794,
    " conflict": 4795,
    " Mer": 4796,
    " Microsoft": 4797,
    "�—": 4798,
    " phil": 4799,
    " update": 4800,
    " missing": 4801,
    " providing": 4802,
    " waiting": 4803,
    " cancer": 4804,
    "la": 4805,
    "39": 4806,
    " recommend": 4807,
    "ocracy": 4808,
    " established": 4809,
    "bour": 4810,
    "isation": 4811,
    " eat": 4812,
    " Yes": 4813,
    " occup": 4814,
    " Frank": 4815,
    " Jeff": 4816,
    " Angeles": 4817,
    " removed": 4818,
    " 2005": 4819,
    "ula": 4820,
    " offensive": 4821,
    " Fore": 4822,
    " Instead": 4823,
    "icon": 4824,
    " injury": 4825,
    " sports": 4826,
    "47": 4827,
    " fant": 4828,
    " discussion": 4829,
    "vant": 4830,
    " operation": 4831,
    " download": 4832,
    " useful": 4833,
    " newsp": 4834,
    " conversation": 4835,
    " homes": 4836,
    "ronic": 4837,
    " south": 4838,
    " cook": 4839,
    " CEO": 4840,
    " assess": 4841,
    "itz": 4842,
    " Group": 4843,
    "formation": 4844,
    "lig": 4845,
    " banks": 4846,
    "onto": 4847,
    " stopped": 4848,
    " Step": 4849,
    " Const": 4850,
    " obvious": 4851,
    "ications": 4852,
    " measures": 4853,
    " models": 4854,
    " Kh": 4855,
    " fourth": 4856,
    " MP": 4857,
    "Our": 4858,
    "season": 4859,
    "what": 4860,
    " bul": 4861,
    "DA": 4862,
    " 2018": 4863,
    "anda": 4864,
    " files": 4865,
    " girls": 4866,
    " Louis": 4867,
    " stick": 4868,
    "cks": 4869,
    "azine": 4870,
    "mail": 4871,
    "umn": 4872,
    " managed": 4873,
    "iter": 4874,
    "apped": 4875,
    "oted": 4876,
    " figures": 4877,
    "oms": 4878,
    " Tim": 4879,
    " Leg": 4880,
    " identified": 4881,
    " graph": 4882,
    " Jud": 4884,
    " Sal": 4885,
    " finished": 4886,
    "Pl": 4887,
    " funds": 4888,
    " Pakistan": 4889,
    "real": 4890,
    " setting": 4891,
    " conclud": 4892,
    " prefer": 4893,
    " hair": 4894,
    " committed": 4895,
    " Mexico": 4896,
    "49": 4897,
    " skills": 4898,
    " appropri": 4899,
    " spirit": 4900,
    " Rock": 4901,
    " veter": 4902,
    " focused": 4903,
    " arrived": 4904,
    " THE": 4905,
    " housing": 4906,
    " keeping": 4907,
    " therefore": 4908,
    "ros": 4909,
    " acknow": 4910,
    " detect": 4911,
    "ulate": 4912,
    "Des": 4913,
    " partner": 4914,
    " exclus": 4915,
    "igan": 4916,
    " Android": 4917,
    "enses": 4918,
    "rd": 4919,
    "ups": 4920,
    " earth": 4921,
    " transl": 4922,
    "place": 4923,
    " tough": 4924,
    "kin": 4925,
    "outs": 4926,
    " Japanese": 4927,
    " 2000": 4928,
    " relatively": 4929,
    "á": 4930,
    " Supreme": 4931,
    "owl": 4932,
    "wing": 4933,
    " identity": 4934,
    " feels": 4935,
    "gl": 4936,
    " Met": 4937,
    " otherwise": 4938,
    " survey": 4939,
    " Ryan": 4940,
    "ocal": 4941,
    "RA": 4942,
    "ication": 4943,
    "itutional": 4944,
    " protection": 4945,
    " exchange": 4946,
    " owner": 4947,
    " Virgin": 4948,
    "isf": 4949,
    "Trump": 4950,
    " trip": 4951,
    " steps": 4952,
    " husband": 4953,
    " Inter": 4954,
    "agn": 4955,
    " Mont": 4956,
    " tweet": 4957,
    " connection": 4958,
    " Army": 4959,
    " slightly": 4960,
    " Prof": 4961,
    "eah": 4962,
    " Sur": 4963,
    " weak": 4964,
    " Government": 4965,
    "verse": 4966,
    "\":": 4967,
    " circum": 4968,
    " elements": 4969,
    " click": 4970,
    " Richard": 4971,
    " strike": 4972,
    " photos": 4973,
    " mere": 4974,
    " defensive": 4975,
    "dden": 4976,
    " gain": 4977,
    " fle": 4978,
    " depend": 4979,
    "ucky": 4980,
    " collection": 4981,
    "gar": 4982,
    "onym": 4983,
    " killing": 4984,
    " roll": 4985,
    "ighter": 4986,
    "hens": 4987,
    "Go": 4988,
    " corner": 4989,
    "ka": 4990,
    "ancing": 4991,
    "odies": 4992,
    " suggests": 4993,
    "uct": 4994,
    " aggress": 4995,
    "with": 4996,
    "prof": 4997,
    " guard": 4998,
    "Photo": 4999,
    " gender": 5000,
    "makers": 5001,
    " College": 5002,
    " commission": 5003,
    " Although": 5004,
    "range": 5005,
    " dat": 5006,
    "46": 5007,
    " Ir": 5008,
    " Dec": 5009,
    " mental": 5010,
    "icide": 5011,
    "rees": 5012,
    " amazing": 5013,
    " Sub": 5014,
    "hi": 5015,
    " planet": 5016,
    " Team": 5017,
    "rency": 5018,
    " Out": 5019,
    " bigger": 5020,
    "ym": 5021,
    " failure": 5022,
    " Jose": 5023,
    " supply": 5024,
    "Why": 5025,
    "ania": 5026,
    " Nor": 5027,
    " starts": 5028,
    " sides": 5029,
    "hedul": 5030,
    "iser": 5031,
    " familiar": 5032,
    " remind": 5033,
    " sust": 5034,
    " spect": 5035,
    "ils": 5036,
    "uate": 5037,
    " speaking": 5038,
    "ano": 5039,
    " talks": 5040,
    " happening": 5041,
    "gypt": 5042,
    " organizations": 5043,
    " hate": 5044,
    " window": 5045,
    " army": 5046,
    " Good": 5047,
    " Joe": 5048,
    " none": 5049,
    "uke": 5050,
    " taxes": 5051,
    " planned": 5052,
    " Martin": 5053,
    " Pet": 5054,
    " thanks": 5055,
    " Mary": 5056,
    " struct": 5057,
    " pit": 5058,
    " decide": 5059,
    " sudden": 5060,
    " wish": 5061,
    " crew": 5062,
    " carried": 5063,
    " appoint": 5064,
    "oston": 5065,
    " pet": 5066,
    "mas": 5067,
    "awn": 5068,
    "eless": 5069,
    "agues": 5070,
    "ynam": 5071,
    " regist": 5072,
    "TC": 5073,
    " multi": 5074,
    "idering": 5075,
    " helping": 5076,
    "Last": 5077,
    " award": 5078,
    " standards": 5079,
    " 32": 5080,
    " Fire": 5081,
    " revolution": 5082,
    " environmental": 5083,
    "].": 5084,
    " Web": 5085,
    "arsh": 5086,
    " Thomas": 5087,
    "olit": 5088,
    " script": 5089,
    "pm": 5090,
    "ola": 5091,
    " seconds": 5092,
    "run": 5093,
    " Research": 5094,
    "gn": 5095,
    " scientific": 5096,
    " immigration": 5097,
    " Bern": 5098,
    " standing": 5099,
    " Their": 5100,
    " 45": 5101,
    "stream": 5102,
    "ocol": 5103,
    " que": 5104,
    " beer": 5105,
    " domestic": 5106,
    "imal": 5107,
    "adium": 5108,
    " pair": 5109,
    "uters": 5110,
    " Also": 5111,
    " Secretary": 5112,
    " Us": 5113,
    " academ": 5114,
    " cold": 5115,
    " variety": 5116,
    " markets": 5117,
    "aven": 5118,
    " sch": 5119,
    "HL": 5120,
    " territ": 5121,
    " dropped": 5122,
    "fe": 5123,
    " accounts": 5124,
    "!\"": 5125,
    " Atlant": 5126,
    " filed": 5127,
    "erous": 5128,
    "acks": 5129,
    "illa": 5130,
    " balance": 5131,
    "lo": 5132,
    " impossible": 5133,
    " Ter": 5134,
    " interact": 5135,
    " neighborhood": 5136,
    " degree": 5137,
    "Read": 5138,
    " turns": 5139,
    "itect": 5140,
    " possibly": 5141,
    " appre": 5142,
    " operating": 5143,
    " princ": 5144,
    " alternative": 5145,
    " union": 5146,
    " votes": 5147,
    " vul": 5148,
    "ader": 5149,
    " professor": 5150,
    " tack": 5151,
    " Service": 5152,
    " increasingly": 5153,
    "ayer": 5154,
    "ruit": 5155,
    " apply": 5156,
    " fellow": 5157,
    " cuts": 5158,
    "ores": 5159,
    " honest": 5160,
    " Prime": 5161,
    " univers": 5162,
    " server": 5163,
    " developers": 5164,
    "arks": 5165,
    " Syrian": 5166,
    " apparently": 5167,
    "vis": 5168,
    "stein": 5169,
    " lived": 5170,
    " changing": 5171,
    " worry": 5172,
    "rastructure": 5173,
    " Carolina": 5174,
    " tests": 5175,
    " units": 5176,
    " rich": 5177,
    " Two": 5178,
    "aren": 5179,
    "cious": 5180,
    "icted": 5181,
    "From": 5182,
    "aded": 5183,
    " humans": 5184,
    "IM": 5185,
    " Foundation": 5186,
    " Mos": 5187,
    " agencies": 5188,
    " sounds": 5189,
    "ashed": 5190,
    " twice": 5191,
    " ultimately": 5192,
    "obby": 5193,
    " losing": 5194,
    " philos": 5195,
    " authority": 5196,
    " soldiers": 5197,
    " animal": 5199,
    " Images": 5200,
    " settle": 5201,
    " ath": 5202,
    " schedul": 5203,
    " mut": 5204,
    " colle": 5205,
    " corporate": 5206,
    " absolutely": 5207,
    " healthy": 5208,
    " paying": 5209,
    "och": 5210,
    " equip": 5211,
    "iams": 5212,
    "gu": 5213,
    " developing": 5214,
    " sea": 5215,
    " Time": 5216,
    " Den": 5217,
    " closer": 5218,
    " innov": 5219,
    "related": 5220,
    " seeking": 5221,
    " regarding": 5222,
    "coh": 5223,
    " skin": 5224,
    " expensive": 5225,
    "ansion": 5226,
    " possibility": 5227,
    " beautiful": 5228,
    " religion": 5229,
    " apart": 5230,
    " Central": 5231,
    " fundament": 5232,
    " experts": 5233,
    " solar": 5234,
    "65": 5235,
    " yards": 5236,
    " vast": 5237,
    " writer": 5238,
    " flight": 5239,
    " District": 5240,
    " Last": 5241,
    " deploy": 5242,
    " adjust": 5243,
    "Of": 5244,
    " internal": 5245,
    " tast": 5246,
    " Under": 5247,
    " Lat": 5248,
    " Peter": 5249,
    "apers": 5250,
    " imagine": 5251,
    " Jon": 5252,
    "IV": 5253,
    " applications": 5254,
    "ologies": 5255,
    "31": 5256,
    " vision": 5257,
    "look": 5258,
    "state": 5259,
    "osen": 5260,
    " Francisco": 5261,
    "iot": 5262,
    " Toronto": 5263,
    " sitting": 5264,
    " Plan": 5265,
    " trail": 5266,
    " unless": 5267,
    " USA": 5268,
    " Jes": 5269,
    "isted": 5270,
    " heat": 5271,
    " 2004": 5272,
    "IP": 5273,
    "Even": 5274,
    " responsibility": 5275,
    " capacity": 5276,
    "atures": 5277,
    " Middle": 5278,
    " error": 5279,
    "aine": 5280,
    " symb": 5281,
    " fol": 5282,
    "pire": 5283,
    " arms": 5284,
    " pil": 5285,
    " gar": 5286,
    " covered": 5287,
    "idden": 5288,
    "ias": 5289,
    " famous": 5290,
    " Camp": 5291,
    " forms": 5292,
    "uzz": 5293,
    "ND": 5294,
    " university": 5295,
    " guarant": 5296,
    " tight": 5297,
    " presented": 5298,
    "ortion": 5299,
    "oving": 5300,
    "enced": 5301,
    " ST": 5302,
    " clim": 5303,
    " Egypt": 5304,
    " earn": 5305,
    " Put": 5306,
    " convention": 5307,
    "under": 5308,
    "Just": 5309,
    " Public": 5310,
    " surprise": 5311,
    " attorney": 5312,
    " elections": 5313,
    " estimated": 5314,
    " fif": 5315,
    " Mur": 5316,
    " Ari": 5317,
    " teen": 5318,
    " instit": 5319,
    " vehicles": 5320,
    "rible": 5321,
    " Amazon": 5322,
    "road": 5323,
    " intended": 5324,
    " rid": 5325,
    " odd": 5326,
    " helps": 5327,
    " occurred": 5328,
    "person": 5329,
    "ala": 5330,
    " streets": 5331,
    "uster": 5332,
    "hand": 5333,
    " Boston": 5334,
    " Sol": 5335,
    " =>": 5336,
    "roud": 5337,
    " sport": 5338,
    "=\"": 5339,
    "sen": 5340,
    " determine": 5341,
    "ressive": 5342,
    " Bitcoin": 5343,
    " expert": 5344,
    " schem": 5345,
    "alls": 5346,
    " consult": 5347,
    "uration": 5348,
    " broken": 5349,
    "Let": 5350,
    "lets": 5351,
    " fired": 5352,
    " ton": 5353,
    " flow": 5354,
    " domin": 5355,
    "porary": 5356,
    "eder": 5357,
    "LE": 5358,
    " shall": 5359,
    " reserv": 5360,
    "Up": 5361,
    " troops": 5362,
    "ION": 5363,
    " Those": 5364,
    " hyp": 5365,
    " nar": 5366,
    "terday": 5367,
    " pieces": 5368,
    " Chief": 5369,
    " prepared": 5370,
    " Mass": 5371,
    " Cath": 5372,
    " rapid": 5373,
    "orage": 5374,
    " Jo": 5375,
    " located": 5376,
    " Social": 5377,
    " baby": 5378,
    " conclus": 5379,
    " bringing": 5380,
    "anche": 5381,
    " Prot": 5382,
    " prove": 5383,
    " specifically": 5384,
    " Any": 5385,
    " potentially": 5386,
    " sector": 5387,
    " random": 5388,
    " jail": 5389,
    "OW": 5390,
    " selling": 5391,
    " governments": 5392,
    " Once": 5393,
    " equal": 5394,
    "Ab": 5395,
    "class": 5396,
    "war": 5397,
    " faster": 5398,
    " heav": 5399,
    " Spr": 5400,
    " boost": 5401,
    "useum": 5402,
    "vey": 5403,
    " proposal": 5404,
    "oty": 5405,
    " factors": 5406,
    " clin": 5407,
    " Gal": 5408,
    " plenty": 5409,
    "TH": 5410,
    " equipment": 5411,
    " council": 5412,
    " era": 5413,
    " infrastructure": 5414,
    "Do": 5415,
    " stress": 5416,
    "phas": 5417,
    " stars": 5418,
    " Journal": 5419,
    " Rub": 5420,
    "endment": 5421,
    " Virginia": 5422,
    " breat": 5423,
    " prosecut": 5424,
    " voted": 5425,
    " offering": 5426,
    " carbon": 5427,
    "inent": 5428,
    " expressed": 5429,
    " vulner": 5430,
    " combat": 5431,
    " broke": 5432,
    "()": 5433,
    "ureau": 5434,
    " clot": 5435,
    " Cur": 5436,
    "ours": 5437,
    " Federal": 5438,
    " ruling": 5439,
    " retail": 5440,
    " Guard": 5441,
    " refused": 5442,
    " dram": 5443,
    " elected": 5444,
    "anish": 5445,
    " Open": 5446,
    " River": 5447,
    "Every": 5448,
    " secure": 5449,
    "cean": 5450,
    " seasons": 5451,
    " conducted": 5452,
    ",'": 5453,
    " Paris": 5454,
    "ht": 5455,
    " challenges": 5456,
    " remove": 5457,
    "isher": 5458,
    " Sant": 5459,
    "rog": 5460,
    " methods": 5461,
    " weapon": 5462,
    "noon": 5463,
    " pointed": 5464,
    " Island": 5465,
    " master": 5466,
    " remained": 5467,
    " Australian": 5468,
    " prime": 5469,
    "ENT": 5470,
    " trig": 5471,
    " positions": 5472,
    " Cru": 5473,
    " din": 5474,
    " Mel": 5475,
    " criticism": 5476,
    "ipping": 5477,
    "First": 5478,
    "ocking": 5479,
    " Medic": 5480,
    " Please": 5481,
    "onom": 5482,
    "IG": 5483,
    " sale": 5484,
    "olved": 5485,
    " Fe": 5486,
    " cultural": 5487,
    "that": 5488,
    " weren": 5489,
    " significantly": 5490,
    " brow": 5491,
    "etic": 5492,
    " originally": 5493,
    "rie": 5494,
    " During": 5495,
    " affected": 5496,
    " appearance": 5497,
    " cas": 5498,
    " tourn": 5499,
    " facing": 5500,
    " greatest": 5501,
    " finish": 5502,
    " Lee": 5503,
    " stret": 5504,
    " youth": 5505,
    "yr": 5506,
    " tele": 5507,
    " Who": 5508,
    " percentage": 5509,
    " Photo": 5510,
    "col": 5511,
    " determined": 5512,
    " signs": 5513,
    " involve": 5514,
    "95": 5515,
    "cel": 5516,
    "и": 5517,
    " thank": 5518,
    " bought": 5519,
    " 500": 5520,
    "lyn": 5521,
    "standing": 5522,
    " chemical": 5523,
    "ashion": 5524,
    "64": 5525,
    " shape": 5526,
    " Sing": 5527,
    " regime": 5528,
    " grew": 5529,
    "pired": 5530,
    " remaining": 5531,
    " Steve": 5532,
    "lymp": 5533,
    " minimum": 5534,
    " Saud": 5535,
    "reens": 5536,
    " indeed": 5537,
    " dream": 5538,
    "rier": 5539,
    "Since": 5540,
    " marg": 5541,
    "Sp": 5542,
    " Both": 5543,
    ">>": 5544,
    " mode": 5545,
    " herself": 5546,
    " voting": 5547,
    " Color": 5548,
    " obviously": 5549,
    " Force": 5550,
    " Ro": 5551,
    " reduced": 5552,
    " Nov": 5553,
    " wood": 5554,
    " Rem": 5555,
    "ordin": 5556,
    " recorded": 5557,
    " argued": 5558,
    " 1990": 5559,
    " revenue": 5560,
    " tact": 5561,
    " wearing": 5562,
    "aling": 5563,
    "ighters": 5564,
    " leads": 5565,
    "edia": 5566,
    " hun": 5567,
    " politicians": 5568,
    " plus": 5569,
    " contrast": 5570,
    " switch": 5571,
    " handle": 5572,
    " purchase": 5573,
    " thr": 5574,
    " subs": 5575,
    " concent": 5576,
    " proced": 5577,
    "т": 5578,
    " agent": 5579,
    "hab": 5580,
    "arp": 5581,
    "mm": 5582,
    " Williams": 5583,
    " appreci": 5584,
    " experienced": 5585,
    " hurt": 5586,
    "top": 5587,
    " excited": 5588,
    " videos": 5589,
    " https": 5590,
    "cohol": 5591,
    " supporting": 5592,
    "DP": 5593,
    " Haw": 5594,
    "ownt": 5595,
    " vir": 5596,
    " Free": 5597,
    " surprising": 5598,
    " minute": 5599,
    " explos": 5600,
    " belong": 5601,
    " consumers": 5602,
    " identify": 5603,
    " considering": 5604,
    " Pac": 5605,
    " Conserv": 5606,
    "ller": 5607,
    "apter": 5608,
    " aircraft": 5609,
    " rent": 5610,
    " aid": 5611,
    "CL": 5612,
    " pulled": 5613,
    "gment": 5614,
    " basically": 5615,
    " differences": 5616,
    "ogue": 5617,
    " Book": 5618,
    " glass": 5619,
    " Rad": 5620,
    " afternoon": 5621,
    " shift": 5622,
    " diss": 5623,
    " depart": 5624,
    " ends": 5625,
    "essions": 5626,
    " turning": 5627,
    " bound": 5628,
    " films": 5629,
    " spring": 5630,
    " prospect": 5631,
    "ruption": 5632,
    "ket": 5633,
    " Charl": 5634,
    " mort": 5635,
    "life": 5636,
    " treated": 5637,
    " accident": 5638,
    ",[": 5639,
    " motiv": 5640,
    " listen": 5641,
    " seat": 5642,
    " Power": 5643,
    " combined": 5644,
    " construct": 5645,
    "Ind": 5646,
    " seriously": 5647,
    " privacy": 5648,
    "apping": 5649,
    " evening": 5650,
    "hered": 5651,
    "hy": 5652,
    " opportunities": 5653,
    "asp": 5654,
    " struggle": 5655,
    " 195": 5656,
    " panel": 5657,
    " enemy": 5658,
    " lots": 5659,
    " completed": 5660,
    " Daily": 5661,
    " visual": 5662,
    "His": 5663,
    "Phone": 5664,
    "pet": 5665,
    " talked": 5666,
    " cart": 5667,
    " hopes": 5668,
    "uts": 5669,
    " passing": 5670,
    "oral": 5671,
    " id": 5672,
    " apps": 5673,
    "osite": 5674,
    "05": 5675,
    "gent": 5676,
    "PD": 5677,
    " calcul": 5678,
    "Another": 5679,
    " widely": 5680,
    "ensions": 5681,
    " emergency": 5682,
    " Hol": 5683,
    "amm": 5684,
    " Show": 5685,
    " suit": 5686,
    " element": 5687,
    " ast": 5688,
    "anged": 5689,
    "SS": 5690,
    "ucks": 5691,
    "aled": 5692,
    " powers": 5693,
    "ato": 5694,
    " Rel": 5695,
    " BBC": 5696,
    " Olymp": 5697,
    " burn": 5698,
    "TV": 5699,
    " discl": 5700,
    "Pe": 5701,
    " plants": 5702,
    " flat": 5703,
    " Space": 5704,
    " liberal": 5705,
    "raud": 5706,
    "obe": 5707,
    " opposed": 5708,
    " sad": 5709,
    "Well": 5710,
    " proceed": 5711,
    "ompl": 5712,
    " copyright": 5713,
    " Project": 5714,
    "oking": 5715,
    " advance": 5716,
    " factor": 5717,
    " distance": 5718,
    " 2003": 5719,
    "ivered": 5720,
    " dismiss": 5721,
    "plom": 5722,
    " attempts": 5723,
    " tun": 5724,
    " Matt": 5725,
    "Am": 5726,
    " Road": 5727,
    "abilities": 5728,
    "sts": 5729,
    " IN": 5730,
    "ributed": 5731,
    " trouble": 5732,
    "unction": 5733,
    " hol": 5734,
    " collabor": 5735,
    " default": 5736,
    "idel": 5737,
    " Bet": 5738,
    " zone": 5739,
    " Jackson": 5740,
    " upgr": 5741,
    "ita": 5742,
    "rawn": 5743,
    "Cont": 5744,
    " reaction": 5745,
    " storm": 5746,
    " reporters": 5747,
    " Mem": 5748,
    " frust": 5749,
    "PR": 5750,
    "nell": 5751,
    " writes": 5752,
    "adow": 5753,
    "mosp": 5754,
    "mond": 5755,
    "aints": 5756,
    " typically": 5757,
    " Today": 5758,
    "lines": 5759,
    "respond": 5760,
    "UT": 5761,
    " pages": 5762,
    " instruct": 5763,
    "inian": 5764,
    "ternal": 5765,
    "eds": 5766,
    " reference": 5767,
    " grab": 5768,
    "zer": 5769,
    " package": 5770,
    " bodies": 5771,
    " matters": 5772,
    "free": 5773,
    "01": 5774,
    " denied": 5775,
    "care": 5776,
    "App": 5777,
    " quant": 5778,
    " disappoint": 5779,
    " sem": 5780,
    " explo": 5781,
    " NAS": 5782,
    " optim": 5783,
    "ache": 5784,
    " quiet": 5785,
    " entertain": 5786,
    " responded": 5787,
    " approved": 5788,
    " Turkey": 5789,
    " satisf": 5790,
    "aped": 5791,
    " broadcast": 5792,
    "esters": 5793,
    " institutions": 5794,
    " advert": 5795,
    "42": 5796,
    " stands": 5797,
    " Director": 5798,
    " sets": 5799,
    "estival": 5800,
    " elimin": 5801,
    "razy": 5802,
    "ga": 5803,
    "ä": 5804,
    "Rep": 5805,
    "host": 5806,
    " valid": 5807,
    " renew": 5808,
    " Ohio": 5809,
    "elly": 5810,
    " split": 5811,
    " severe": 5812,
    " William": 5813,
    " sac": 5814,
    " capable": 5815,
    " Penn": 5816,
    " 2001": 5817,
    " //": 5818,
    " pitch": 5819,
    "aniel": 5820,
    " caption": 5821,
    " loved": 5822,
    " technical": 5823,
    " giant": 5824,
    "pass": 5825,
    " tradition": 5826,
    "isters": 5827,
    " cann": 5828,
    "rant": 5829,
    " prompt": 5830,
    " bull": 5831,
    " confident": 5832,
    "uous": 5833,
    " confidence": 5834,
    "rum": 5835,
    "abin": 5836,
    " numerous": 5837,
    " reportedly": 5838,
    " Ma": 5839,
    " faces": 5840,
    "],": 5841,
    "writ": 5842,
    " weather": 5843,
    " fly": 5844,
    "rid": 5845,
    " transition": 5846,
    " 36": 5847,
    " System": 5848,
    " Afghanistan": 5849,
    " Squ": 5850,
    " creation": 5851,
    "De": 5852,
    " perspective": 5853,
    " unable": 5854,
    " forget": 5855,
    " Labour": 5856,
    " Yet": 5857,
    "astern": 5858,
    "employ": 5859,
    "oken": 5860,
    " Media": 5861,
    "angers": 5862,
    "II": 5863,
    "unte": 5864,
    " craft": 5865,
    " substant": 5866,
    " cooper": 5867,
    " violent": 5868,
    " suffered": 5869,
    "ilit": 5870,
    " coast": 5871,
    " mand": 5872,
    "ampion": 5873,
    "43": 5874,
    " pictures": 5875,
    " experiences": 5876,
    " approx": 5877,
    "abled": 5878,
    " route": 5879,
    "88": 5880,
    "sex": 5881,
    " flag": 5882,
    " advice": 5883,
    " Andrew": 5884,
    "usiness": 5885,
    " declared": 5886,
    " ordered": 5887,
    " Human": 5888,
    "razil": 5889,
    " crimes": 5890,
    " coff": 5891,
    "Se": 5892,
    " proud": 5893,
    "ishes": 5894,
    " reporting": 5895,
    " messages": 5896,
    " circumst": 5897,
    " findings": 5898,
    "Res": 5899,
    "ulations": 5900,
    " eval": 5901,
    " excell": 5902,
    "Over": 5903,
    " declined": 5904,
    " explains": 5905,
    " Lin": 5906,
    " Wal": 5907,
    " delay": 5908,
    " \\": 5909,
    " Follow": 5910,
    " newspaper": 5911,
    "ounded": 5912,
    " connected": 5913,
    "ilty": 5914,
    " shouldn": 5915,
    " mal": 5916,
    "evin": 5917,
    "oves": 5918,
    " ongoing": 5919,
    "can": 5920,
    " cloud": 5921,
    "dule": 5922,
    " movies": 5923,
    " picked": 5924,
    "ionally": 5925,
    "resents": 5926,
    "77": 5927,
    " admitted": 5928,
    " gra": 5929,
    " delivered": 5930,
    "During": 5931,
    " guns": 5932,
    " ML": 5933,
    " Scot": 5934,
    " walking": 5935,
    " agents": 5936,
    "called": 5937,
    "tion": 5938,
    " prin": 5939,
    " editor": 5940,
    " thoughts": 5941,
    " married": 5942,
    " Tra": 5943,
    " auth": 5944,
    " emails": 5945,
    " appropriate": 5946,
    "edd": 5947,
    " emphas": 5948,
    " Rod": 5949,
    "uations": 5950,
    " edge": 5951,
    " architect": 5952,
    " Grand": 5953,
    " leaves": 5954,
    " updates": 5955,
    " accompl": 5956,
    "OD": 5957,
    " gather": 5958,
    " forg": 5959,
    " Muslims": 5960,
    "ansas": 5961,
    " Wood": 5962,
    " quarterback": 5963,
    " session": 5964,
    "ooth": 5965,
    " pool": 5966,
    " Techn": 5967,
    " Science": 5968,
    "cos": 5969,
    " injured": 5970,
    " publicly": 5971,
    "ellow": 5972,
    " Sov": 5973,
    " statements": 5974,
    "arn": 5975,
    " perman": 5976,
    "arl": 5977,
    " legit": 5978,
    " confirm": 5979,
    "nergy": 5980,
    " Lake": 5981,
    " ourselves": 5982,
    "Other": 5983,
    " realize": 5984,
    " rot": 5985,
    " drivers": 5986,
    "MA": 5987,
    " Av": 5988,
    " Dou": 5989,
    "mates": 5990,
    ",’": 5991,
    " armed": 5992,
    "essor": 5993,
    " dial": 5994,
    "cons": 5995,
    "TA": 5996,
    " lawyer": 5997,
    "ourney": 5998,
    " rail": 5999,
    " readers": 6000,
    "reland": 6001,
    " contains": 6002,
    " argue": 6003,
    " Rev": 6004,
    " talent": 6005,
    " filled": 6006,
    " Sum": 6007,
    " allegations": 6008,
    " activists": 6009,
    " Christmas": 6010,
    " dynam": 6011,
    " 1980": 6012,
    " Michigan": 6013,
    "date": 6014,
    " Back": 6015,
    " Ron": 6016,
    " crack": 6017,
    " transform": 6018,
    "Tube": 6019,
    " Read": 6020,
    " Ill": 6021,
    " buildings": 6022,
    "long": 6023,
    " wear": 6024,
    "Many": 6025,
    " sam": 6026,
    " terrorist": 6027,
    " tree": 6028,
    " exercise": 6029,
    "enda": 6030,
    " label": 6031,
    " effectively": 6032,
    "Oh": 6033,
    " practices": 6034,
    " god": 6035,
    " subsequ": 6036,
    " Jul": 6037,
    " Sher": 6038,
    " flo": 6039,
    "uls": 6040,
    " fish": 6041,
    "TS": 6042,
    "ette": 6043,
    "enture": 6044,
    " shop": 6045,
    " examples": 6046,
    "41": 6047,
    " Hy": 6048,
    " patient": 6049,
    " Gen": 6050,
    " Seattle": 6051,
    " objects": 6052,
    " tech": 6053,
    " See": 6054,
    " secretary": 6055,
    "gia": 6056,
    "asure": 6057,
    " rain": 6058,
    "urning": 6059,
    " missed": 6060,
    " causes": 6061,
    "illy": 6062,
    " debut": 6063,
    " essentially": 6064,
    "66": 6065,
    " moral": 6066,
    "orders": 6067,
    "ador": 6068,
    "word": 6069,
    "acter": 6070,
    " Work": 6071,
    "def": 6072,
    "arters": 6073,
    " Ukraine": 6074,
    " centre": 6075,
    "amin": 6076,
    "hedule": 6077,
    "Follow": 6078,
    " Vict": 6079,
    " ID": 6080,
    " injuries": 6081,
    "icing": 6082,
    " Phot": 6083,
    " Stan": 6084,
    " motor": 6085,
    " iPhone": 6086,
    " artist": 6087,
    " client": 6088,
    " bond": 6089,
    " thinks": 6090,
    "iat": 6091,
    "aza": 6092,
    "orse": 6093,
    "ouston": 6094,
    " pure": 6095,
    " hell": 6096,
    "Although": 6097,
    " Saudi": 6098,
    " facts": 6099,
    "��": 27214,
    " desire": 6101,
    "agers": 6102,
    " ske": 6103,
    "orry": 6104,
    " linked": 6105,
    "í": 6106,
    " governor": 6107,
    " materials": 6108,
    " performed": 6109,
    "Spe": 6110,
    " franch": 6111,
    "esome": 6112,
    "nan": 6113,
    " suc": 6114,
    " philosoph": 6115,
    " initially": 6116,
    " Sign": 6117,
    " necessarily": 6118,
    " Kim": 6119,
    " Bat": 6120,
    " Fer": 6121,
    " expansion": 6122,
    " scheduled": 6123,
    "water": 6124,
    "ERS": 6125,
    " warned": 6126,
    "iest": 6127,
    " diplom": 6128,
    " advanced": 6129,
    " explan": 6130,
    " ing": 6131,
    " vari": 6132,
    " everybody": 6133,
    " joint": 6134,
    " decre": 6135,
    " resolution": 6136,
    " increases": 6137,
    "enger": 6138,
    "Yes": 6139,
    " accepted": 6140,
    " incor": 6141,
    " myster": 6142,
    " faced": 6143,
    " van": 6144,
    " bare": 6145,
    "illance": 6146,
    " Mount": 6147,
    " announcement": 6148,
    " follows": 6149,
    " nations": 6150,
    " playoff": 6151,
    " Life": 6152,
    " abandon": 6153,
    " Second": 6154,
    " Id": 6155,
    " radical": 6156,
    " athlet": 6157,
    " neither": 6158,
    " yesterday": 6159,
    " datab": 6160,
    " nearby": 6161,
    " distribution": 6162,
    "otic": 6163,
    " applied": 6164,
    "irty": 6165,
    " magazine": 6166,
    "Most": 6167,
    "athan": 6168,
    "rich": 6169,
    " mir": 6170,
    " consequences": 6171,
    " doctor": 6172,
    "uy": 6173,
    " listed": 6174,
    " fort": 6175,
    " Columb": 6176,
    " atmosp": 6177,
    "American": 6178,
    " surprised": 6179,
    " offense": 6180,
    "Qu": 6181,
    "itors": 6182,
    " CNN": 6183,
    " RE": 6184,
    " spons": 6185,
    " begins": 6186,
    " Week": 6187,
    " threats": 6188,
    "sembly": 6189,
    " represents": 6190,
    " Jews": 6191,
    " GM": 6192,
    " Aff": 6193,
    " enh": 6194,
    " moves": 6195,
    " remark": 6196,
    " TO": 6197,
    " songs": 6198,
    " pra": 6199,
    "kay": 6200,
    " chart": 6201,
    " behavi": 6202,
    " Dan": 6203,
    " ride": 6204,
    " adds": 6205,
    " withd": 6206,
    "Can": 6207,
    "Â": 6208,
    " improved": 6209,
    " phen": 6210,
    " Blue": 6211,
    " bot": 6212,
    " warm": 6213,
    " af": 6214,
    " alcohol": 6215,
    "rip": 6216,
    " AT": 6217,
    " output": 6218,
    "law": 6219,
    " flood": 6220,
    " Develop": 6221,
    " Hen": 6222,
    "whel": 6223,
    "edy": 6224,
    " shots": 6225,
    " fill": 6226,
    " Vol": 6227,
    " alt": 6228,
    " stood": 6229,
    " brings": 6230,
    " pushed": 6231,
    " guilty": 6232,
    " Romney": 6233,
    " subscrib": 6234,
    "85": 6235,
    " entry": 6236,
    "ocratic": 6237,
    " Brazil": 6238,
    " democracy": 6239,
    " boys": 6240,
    "burg": 6241,
    " 33": 6242,
    " row": 6243,
    " config": 6244,
    " restaurant": 6245,
    " NBA": 6246,
    " lawsuit": 6247,
    " Dev": 6248,
    " Ireland": 6249,
    "acle": 6250,
    " manufacture": 6251,
    " receiving": 6252,
    " rein": 6253,
    " Barack": 6254,
    "Then": 6255,
    " trib": 6256,
    " totally": 6257,
    " Only": 6258,
    " discussed": 6259,
    " sought": 6260,
    " rising": 6261,
    " entered": 6262,
    " ISIS": 6263,
    " Board": 6264,
    " 300": 6265,
    " consistent": 6266,
    " historical": 6267,
    "twitter": 6268,
    "ideo": 6269,
    " storage": 6270,
    " correspond": 6271,
    " plane": 6272,
    " combination": 6273,
    " scored": 6274,
    " input": 6275,
    " symbol": 6276,
    " bright": 6277,
    " button": 6278,
    "irds": 6279,
    " succeed": 6280,
    "stood": 6281,
    " creative": 6282,
    " investors": 6283,
    " square": 6284,
    " articles": 6285,
    " 2002": 6286,
    " island": 6287,
    " deaths": 6288,
    " scr": 6289,
    " functions": 6290,
    " networks": 6291,
    " classes": 6292,
    " unlikely": 6293,
    "alty": 6294,
    " Prem": 6295,
    " heads": 6296,
    " boss": 6297,
    "ician": 6298,
    " native": 6299,
    "icious": 6300,
    " lie": 6301,
    " sav": 6302,
    " Lib": 6303,
    " roughly": 6304,
    " consumer": 6305,
    " Str": 6306,
    " Whe": 6307,
    " Walk": 6308,
    "fortunately": 6309,
    " Ms": 6310,
    " string": 6311,
    " Maybe": 6312,
    " heavily": 6313,
    " Another": 6314,
    " fairly": 6315,
    " temperature": 6316,
    "arden": 6317,
    " kit": 6318,
    " existence": 6319,
    " Its": 6320,
    " Asia": 6321,
    " contest": 6322,
    " plot": 6323,
    "issions": 6324,
    " Cub": 6325,
    " resident": 6326,
    "usal": 6327,
    " targets": 6328,
    " Bob": 6329,
    " resc": 6330,
    " Korean": 6331,
    "ican": 6332,
    "duc": 6333,
    " lock": 6334,
    " younger": 6335,
    " colleagues": 6336,
    "',": 6337,
    " Swed": 6338,
    "PU": 6339,
    "abb": 6340,
    " library": 6341,
    "ö": 6342,
    " rally": 6343,
    " parliament": 6344,
    " protests": 6345,
    " anywhere": 6346,
    "oked": 6347,
    " Sports": 6348,
    " Sky": 6349,
    " bike": 6350,
    "zona": 6351,
    " breaking": 6352,
    " sym": 6353,
    " stores": 6354,
    " expression": 6355,
    " waste": 6356,
    " chain": 6357,
    " blow": 6358,
    " warning": 6359,
    " importance": 6360,
    " defined": 6361,
    " buying": 6362,
    " manage": 6363,
    " prohib": 6364,
    "ii": 6365,
    " classic": 6366,
    " cere": 6367,
    " snow": 6368,
    " adults": 6369,
    " illust": 6370,
    " Each": 6371,
    "See": 6372,
    "Ob": 6373,
    " marketing": 6374,
    " links": 6375,
    "ó": 6376,
    "born": 6377,
    " shif": 6378,
    "iques": 6379,
    "andal": 6380,
    " Club": 6381,
    " tow": 6382,
    " Hist": 6383,
    " fraud": 6384,
    "OC": 6385,
    "dis": 6386,
    " facility": 6387,
    "ollywood": 6388,
    "erences": 6389,
    " hardware": 6390,
    " schol": 6391,
    " allegedly": 6392,
    " 37": 6393,
    " regulations": 6394,
    "pret": 6395,
    " doctors": 6396,
    " bon": 6397,
    " Colorado": 6398,
    " currency": 6399,
    " household": 6400,
    " replaced": 6401,
    " essential": 6402,
    " Ram": 6403,
    "agan": 6404,
    "Man": 6405,
    " empt": 6406,
    "opy": 6407,
    "onna": 6408,
    " somewhat": 6409,
    " Div": 6410,
    "press": 6411,
    "86": 6412,
    " nav": 6413,
    "power": 6414,
    " favour": 6415,
    " promise": 6416,
    " DC": 6417,
    " Boy": 6418,
    " laugh": 6419,
    "Pol": 6420,
    " Rights": 6421,
    "ena": 6422,
    " holds": 6423,
    " opposite": 6424,
    "ocket": 6425,
    " tom": 6426,
    "с": 6427,
    " moments": 6428,
    "west": 6429,
    " hat": 6430,
    "tering": 6431,
    " opponent": 6432,
    " bug": 6433,
    " Far": 6434,
    "cho": 6435,
    " campus": 6436,
    " acts": 6437,
    " rum": 6438,
    "etroit": 6439,
    " versions": 6440,
    " motion": 6441,
    " metal": 6442,
    "hips": 6443,
    " evolution": 6444,
    "ometimes": 6445,
    " vice": 6446,
    " relevant": 6447,
    " sees": 6448,
    " Image": 6449,
    " bag": 6450,
    " industrial": 6451,
    " zero": 6452,
    "IR": 6453,
    " sick": 6454,
    " downt": 6455,
    "oma": 6456,
    " closely": 6457,
    "hetic": 6458,
    " emotional": 6459,
    "chen": 6460,
    "game": 6461,
    "IF": 6462,
    " YouTube": 6463,
    " Year": 6464,
    " fewer": 6465,
    " division": 6466,
    "olve": 6467,
    " adm": 6468,
    "va": 6469,
    " harder": 6470,
    " customer": 6471,
    " hoping": 6472,
    "ologist": 6473,
    " Brook": 6474,
    "Donald": 6475,
    " Valley": 6476,
    "En": 6477,
    " hur": 6478,
    " mechanism": 6479,
    "ittle": 6480,
    "inem": 6481,
    " Gra": 6482,
    " Houston": 6483,
    "ml": 6484,
    " Elect": 6485,
    " returns": 6486,
    "NC": 6487,
    "atell": 6488,
    " volunte": 6489,
    " participants": 6490,
    " extent": 6491,
    " intention": 6492,
    "esc": 6493,
    "alian": 6494,
    "ellect": 6495,
    " excellent": 6496,
    " Soviet": 6497,
    " acknowled": 6498,
    " syn": 6499,
    "ulous": 6500,
    "oming": 6501,
    " Mot": 6502,
    " batt": 6503,
    " Games": 6504,
    " squad": 6505,
    " circumstances": 6506,
    "pan": 6507,
    " fashion": 6508,
    " isol": 6509,
    "ü": 6510,
    "otal": 6511,
    "greg": 6512,
    " immediate": 6513,
    " Eric": 6514,
    " suffering": 6515,
    " Watch": 6516,
    "str": 6517,
    " lies": 6518,
    " tiny": 6519,
    " authors": 6520,
    " 38": 6521,
    " grown": 6522,
    "iger": 6523,
    " Gar": 6524,
    "ora": 6525,
    "po": 6526,
    "efully": 6527,
    " immigrants": 6528,
    "Ã": 6529,
    "print": 6530,
    " kinds": 6531,
    "utch": 6532,
    " 49": 6533,
    " Die": 6534,
    " cheap": 6535,
    " mine": 6536,
    " detailed": 6537,
    " Hel": 6538,
    "ordan": 6539,
    "name": 6540,
    " featured": 6541,
    "iki": 6542,
    "ayers": 6543,
    " meat": 6544,
    " Sar": 6545,
    " unus": 6546,
    " Aut": 6547,
    " IP": 6548,
    " competitive": 6549,
    " describe": 6550,
    " formed": 6551,
    " Home": 6552,
    "nic": 6553,
    "friend": 6554,
    "certain": 6555,
    " carrying": 6556,
    " tournament": 6557,
    " trick": 6558,
    "nam": 6559,
    " relationships": 6560,
    " fundamental": 6561,
    "kel": 6562,
    " wave": 6563,
    " cycle": 6564,
    " crazy": 6565,
    " Cy": 6566,
    " signing": 6567,
    " Way": 6568,
    " termin": 6569,
    " guide": 6570,
    " wins": 6571,
    " Catholic": 6572,
    " earned": 6573,
    " decline": 6574,
    " regional": 6575,
    "ensus": 6576,
    "style": 6577,
    " embr": 6578,
    " strange": 6579,
    " Palestinian": 6580,
    " Jesus": 6581,
    " Ann": 6582,
    "bar": 6583,
    " Long": 6584,
    " ancient": 6585,
    " frequently": 6586,
    " acting": 6587,
    " Putin": 6588,
    " manner": 6589,
    " efficient": 6590,
    "rome": 6591,
    " pushing": 6592,
    " CIA": 6593,
    " comfortable": 6594,
    " Card": 6595,
    " pip": 6596,
    " Er": 6597,
    "ORE": 6598,
    "Per": 6599,
    " sharing": 6600,
    " wire": 6601,
    " skill": 6602,
    " Econom": 6603,
    "ockey": 6604,
    "chers": 6605,
    " instru": 6606,
    " Ell": 6607,
    " owned": 6608,
    "awa": 6609,
    " commitment": 6610,
    " alongside": 6611,
    " OF": 6612,
    "uated": 6613,
    " Lord": 6614,
    "anes": 6615,
    " Davis": 6616,
    "rison": 6617,
    " controversial": 6618,
    " artists": 6619,
    " referred": 6620,
    "weight": 6621,
    " egg": 6622,
    " mouth": 6623,
    " repeatedly": 6624,
    "06": 6625,
    " 48": 6626,
    " Top": 6627,
    " 34": 6629,
    "FP": 6630,
    " attempted": 6631,
    " femin": 6632,
    "о�": 6633,
    "umber": 6634,
    " updated": 6635,
    "foot": 6636,
    " cert": 6637,
    "ua": 6638,
    " pregn": 6639,
    " Old": 6640,
    " schedule": 6641,
    "xy": 6642,
    " PS": 6643,
    "amily": 6644,
    "adel": 6645,
    " dedicated": 6646,
    " AL": 6647,
    " sentence": 6648,
    "vin": 6649,
    " upcoming": 6650,
    " Right": 6651,
    " NY": 6652,
    "bel": 6653,
    " Down": 6654,
    " Di": 6655,
    " column": 6656,
    "hus": 6657,
    " depth": 6658,
    "09": 6659,
    " pled": 6660,
    " virtual": 6661,
    "uable": 6662,
    " journey": 6663,
    " struck": 6664,
    "р": 6665,
    " desk": 6666,
    " studio": 6667,
    " realized": 6668,
    " Energy": 6669,
    "Despite": 6670,
    "ceived": 6671,
    "%)": 6672,
    "ographic": 6673,
    "ugh": 6674,
    " medic": 6675,
    "DS": 6676,
    "iami": 6677,
    " serving": 6678,
    " walked": 6679,
    "rive": 6680,
    "iveness": 6681,
    " king": 6682,
    " ring": 6683,
    "ko": 6684,
    " reput": 6685,
    "you": 6686,
    " urban": 6687,
    "phy": 6688,
    " Cle": 6689,
    " Charles": 6690,
    " Wild": 6691,
    " targeted": 6692,
    " channel": 6693,
    " assets": 6694,
    "luding": 6695,
    " tort": 6696,
    " inspired": 6697,
    " hotel": 6698,
    " Arizona": 6699,
    "08": 6700,
    " posts": 6701,
    " newslet": 6702,
    "Like": 6703,
    "Two": 6704,
    " Supp": 6705,
    " universe": 6706,
    "07": 6707,
    " agenda": 6708,
    " causing": 6709,
    " watched": 6710,
    " suicide": 6711,
    " stream": 6712,
    " overwhel": 6713,
    " Py": 6714,
    " Men": 6715,
    " usual": 6716,
    " surveillance": 6717,
    "mem": 6718,
    " intent": 6719,
    "sole": 6720,
    "People": 6721,
    " liqu": 6722,
    " sister": 6723,
    " opponents": 6724,
    " chairman": 6725,
    " du": 6726,
    " Wars": 6727,
    " Cruz": 6728,
    " mainstream": 6729,
    " latter": 6730,
    " hall": 6731,
    " surrounding": 6732,
    " folks": 6733,
    " knowing": 6734,
    " orders": 6735,
    " Inf": 6736,
    "omin": 6737,
    "igg": 6738,
    " remote": 6739,
    " 75": 6740,
    " sand": 6741,
    " literally": 6742,
    " Java": 6743,
    " observed": 6744,
    " Again": 6745,
    " subsid": 6746,
    "gor": 6747,
    "Fr": 6748,
    " Defense": 6749,
    " infl": 6750,
    "obb": 6751,
    " Van": 6752,
    " approval": 6753,
    "acc": 6754,
    "iments": 6755,
    " basket": 6756,
    "rence": 6757,
    " teachers": 6758,
    "azi": 6759,
    "avor": 6760,
    "izz": 6761,
    " winter": 6762,
    "iciency": 6763,
    "alle": 6764,
    " exciting": 6765,
    "aze": 6766,
    "aylor": 6767,
    " Tal": 6768,
    " format": 6769,
    "boy": 6770,
    " congress": 6771,
    " protected": 6772,
    "iro": 6773,
    "ati": 6774,
    " noticed": 6775,
    " simpl": 6776,
    " dealing": 6777,
    " Young": 6778,
    "rations": 6779,
    " Child": 6780,
    " precise": 6781,
    "67": 6782,
    "xual": 6783,
    " deeply": 6784,
    " communication": 6785,
    " gang": 6786,
    " sending": 6787,
    "ipl": 6788,
    " forth": 6789,
    " Jr": 6790,
    " fasc": 6791,
    " battery": 6792,
    " wal": 6793,
    "mun": 6794,
    " sky": 6795,
    " narr": 6796,
    " fixed": 6797,
    "post": 6798,
    " aside": 6799,
    " requirements": 6800,
    "abis": 6801,
    "ums": 6802,
    "Int": 6803,
    " properties": 6804,
    "rors": 6805,
    " alive": 6806,
    " narrow": 6807,
    " wake": 6808,
    "allas": 6809,
    " passion": 6810,
    " Arch": 6811,
    "onymous": 6812,
    " eating": 6813,
    "Or": 6814,
    "ensity": 6815,
    " mistake": 6816,
    "woman": 6817,
    " explore": 6818,
    " coffee": 6819,
    " 1970": 6820,
    " Pan": 6821,
    " rape": 6822,
    " volume": 6823,
    " promised": 6824,
    " diet": 6825,
    "acking": 6826,
    " risks": 6827,
    " exhib": 6828,
    " Polit": 6829,
    " Fort": 6830,
    " sweet": 6831,
    "May": 6832,
    "’.": 6833,
    " Enter": 6834,
    " Wat": 6835,
    " neut": 6836,
    " involving": 6837,
    " wage": 6838,
    " selection": 6839,
    " Max": 6840,
    " tested": 6841,
    "ether": 6842,
    " flu": 6843,
    "ulture": 6844,
    " defeat": 6845,
    " northern": 6846,
    " reward": 6847,
    " welcome": 6848,
    " Cast": 6849,
    " extended": 6850,
    " puts": 6851,
    " territory": 6852,
    " phenomen": 6853,
    " unemploy": 6854,
    " refugees": 6855,
    " sample": 6856,
    " height": 6857,
    " approximately": 6858,
    " Kevin": 6859,
    " blame": 6860,
    " Brad": 6861,
    " anyway": 6862,
    "59": 6863,
    " Detroit": 6864,
    " destroyed": 6865,
    "obile": 6866,
    " sho": 6867,
    " impressive": 6868,
    " Stephen": 6869,
    "asks": 6870,
    " proof": 6871,
    " gap": 6872,
    " dry": 6873,
    " crash": 6875,
    " unknown": 6876,
    " locations": 6877,
    " selected": 6878,
    "apse": 6879,
    " west": 6880,
    "anges": 6881,
    "gery": 6882,
    "stone": 6883,
    " Fil": 6884,
    " attacked": 6885,
    "aire": 6886,
    " maximum": 6887,
    " Miller": 6888,
    " Wilson": 6889,
    " Tit": 6890,
    " promote": 6891,
    " shel": 6892,
    "aser": 6893,
    " merely": 6894,
    " franchise": 6895,
    "arry": 6896,
    "04": 6897,
    "lv": 6898,
    " requests": 6899,
    " retire": 6900,
    " suddenly": 6901,
    " slowly": 6902,
    " protesters": 6903,
    " disag": 6904,
    " teacher": 6905,
    "ixt": 6906,
    " typical": 6907,
    "ogan": 6908,
    "dro": 6909,
    " Women": 6910,
    " Ins": 6911,
    "ingu": 6912,
    " conver": 6913,
    "list": 6914,
    " chose": 6915,
    "ao": 6916,
    " Camer": 6917,
    " Class": 6918,
    " Lu": 6919,
    " matches": 6920,
    " prote": 6921,
    " license": 6922,
    " properly": 6923,
    " assume": 6924,
    "oration": 6925,
    " discover": 6926,
    " wid": 6927,
    " PR": 6928,
    "Rel": 6929,
    " Mic": 6930,
    " worried": 6931,
    " moder": 6932,
    "fire": 6933,
    " abortion": 6934,
    "owered": 6935,
    " allies": 6936,
    " oblig": 6937,
    " terrorism": 6938,
    " supports": 6939,
    "uilding": 6941,
    "ÃÂ": 6942,
    "inson": 6943,
    "verty": 6944,
    " arguments": 6945,
    " adapt": 6946,
    " theme": 6947,
    " confront": 6948,
    " facilities": 6949,
    " sustain": 6950,
    "gender": 6951,
    " east": 6952,
    " pal": 6953,
    " recognize": 6954,
    "igure": 6955,
    " fuck": 6956,
    "ÂÃÂ": 6957,
    "ÃÂÃ": 6958,
    "lies": 6959,
    " equival": 6960,
    " obtained": 6961,
    " poverty": 6962,
    " rub": 6963,
    " Italy": 6964,
    " nomine": 6965,
    "03": 6966,
    " deals": 6967,
    " fees": 6968,
    "alo": 6969,
    "itarian": 6970,
    "osis": 6971,
    " Hollywood": 6972,
    " understood": 6973,
    " controlled": 6974,
    "VER": 6975,
    " Best": 6976,
    " topic": 6977,
    " Dam": 6978,
    " critics": 6979,
    " Society": 6980,
    " Agency": 6981,
    "axy": 6982,
    " Ford": 6983,
    " sole": 6984,
    " Jersey": 6985,
    "arity": 6986,
    " village": 6987,
    "han": 6988,
    " diagn": 6989,
    " Administ": 6990,
    "raid": 6991,
    " likes": 6992,
    "celer": 6993,
    " Four": 6994,
    "sters": 6995,
    "68": 6996,
    " evil": 6997,
    "Te": 6998,
    " punish": 6999,
    " dress": 7000,
    "cript": 7001,
    " Georgia": 7002,
    " bunch": 7003,
    " Company": 7004,
    " journalists": 7005,
    "John": 7006,
    " exposed": 7007,
    " ped": 7008,
    " regions": 7009,
    "redit": 7010,
    "ocation": 7011,
    " communications": 7012,
    " scheme": 7013,
    " transp": 7014,
    " stim": 7015,
    " limits": 7016,
    " somehow": 7017,
    " strongly": 7018,
    " honor": 7019,
    " drag": 7020,
    "aug": 7021,
    " resistance": 7022,
    "lls": 7023,
    " champion": 7024,
    " Carl": 7025,
    " Labor": 7026,
    " constant": 7027,
    " phase": 7028,
    " NASA": 7029,
    "asts": 7030,
    "pool": 7031,
    " profit": 7032,
    " truck": 7033,
    " condem": 7034,
    " escape": 7035,
    " personally": 7036,
    " Night": 7037,
    " Dun": 7038,
    "rimination": 7039,
    " Land": 7040,
    " bid": 7041,
    " NHL": 7042,
    " Stand": 7043,
    " vacc": 7044,
    " deck": 7045,
    "н": 7046,
    "nesota": 7047,
    "iform": 7048,
    " falling": 7049,
    "mo": 7050,
    "GBT": 7051,
    " Network": 7052,
    " somewhere": 7053,
    "cers": 7054,
    " employee": 7055,
    " harass": 7056,
    "ems": 7057,
    "ads": 7058,
    "CA": 7059,
    " bear": 7060,
    " CD": 7061,
    "iner": 7062,
    " comparison": 7063,
    "orted": 7064,
    "ciples": 7065,
    " polls": 7066,
    "owa": 7067,
    " inqu": 7068,
    " Love": 7069,
    "pected": 7070,
    " southern": 7071,
    " decent": 7072,
    "oric": 7073,
    "cow": 7074,
    " Spanish": 7075,
    " encourage": 7076,
    " emissions": 7077,
    " 39": 7078,
    " View": 7079,
    " Cam": 7080,
    "enders": 7081,
    " empty": 7082,
    " Miami": 7083,
    " hits": 7084,
    "oster": 7085,
    " definition": 7086,
    " Kn": 7087,
    " pic": 7088,
    "wan": 7089,
    " directed": 7090,
    "pes": 7091,
    " flex": 7092,
    "zens": 7093,
    " Ok": 7094,
    "57": 7095,
    " meetings": 7096,
    " End": 7097,
    " Bell": 7098,
    " comprom": 7099,
    " winner": 7100,
    "intend": 7101,
    "aun": 7102,
    "icken": 7103,
    " gotten": 7104,
    " Daniel": 7105,
    " Turk": 7106,
    " electricity": 7107,
    " chosen": 7108,
    " officially": 7109,
    " bench": 7110,
    " stretch": 7111,
    " database": 7112,
    " Despite": 7113,
    " spin": 7114,
    " intellect": 7115,
    "igation": 7116,
    " stronger": 7117,
    " deleg": 7118,
    " purposes": 7119,
    " DNA": 7120,
    "Com": 7121,
    " cutting": 7122,
    " Turn": 7123,
    " fold": 7124,
    "rary": 7125,
    " extensive": 7126,
    " amounts": 7127,
    " desper": 7128,
    " trees": 7129,
    " anx": 7130,
    " ideal": 7131,
    " Asian": 7132,
    " thread": 7133,
    " fifth": 7134,
    "UR": 7136,
    " goods": 7137,
    " colon": 7138,
    " developer": 7139,
    " claiming": 7140,
    "unning": 7141,
    "Any": 7142,
    " retain": 7143,
    " soul": 7144,
    " captured": 7145,
    " Though": 7146,
    " finds": 7147,
    " driven": 7148,
    " payments": 7149,
    "asters": 7150,
    "ras": 7151,
    "CS": 7152,
    " ties": 7153,
    " Jordan": 7154,
    " reasonable": 7155,
    "olt": 7156,
    " dogs": 7157,
    " somebody": 7159,
    " ending": 7160,
    "02": 7161,
    " Nations": 7162,
    " choices": 7163,
    " ble": 7164,
    " pod": 7165,
    " seats": 7166,
    " Services": 7167,
    " Thank": 7168,
    " engage": 7169,
    " drawn": 7170,
    " sight": 7171,
    " param": 7172,
    " Dar": 7173,
    "CE": 7174,
    " threatened": 7175,
    " ruled": 7176,
    " Attorney": 7177,
    "eping": 7178,
    " Irish": 7179,
    " Sea": 7180,
    " trading": 7181,
    "owed": 7182,
    " primarily": 7183,
    "ura": 7184,
    " aspects": 7185,
    " fighters": 7186,
    "ML": 7187,
    " answers": 7188,
    " perfectly": 7189,
    "irms": 7190,
    " incl": 7191,
    " Academ": 7192,
    " rival": 7193,
    " parking": 7194,
    " rejected": 7195,
    " Gall": 7196,
    " constantly": 7197,
    "Add": 7198,
    "fast": 7199,
    " Hun": 7200,
    " payment": 7201,
    " Cat": 7202,
    " distinct": 7203,
    " flying": 7204,
    " Ut": 7205,
    " rig": 7206,
    " technologies": 7207,
    "mod": 7208,
    " Real": 7209,
    "</": 7210,
    " components": 7211,
    "Police": 7212,
    " admit": 7213,
    " Scotland": 7214,
    " elsewhere": 7215,
    " Dark": 7216,
    "dit": 7217,
    " constit": 7218,
    " anymore": 7219,
    "lder": 7220,
    " icon": 7221,
    " fields": 7222,
    " estimates": 7223,
    "EW": 7224,
    "sea": 7225,
    " solutions": 7226,
    " resulting": 7227,
    "ez": 7228,
    "78": 7229,
    " Bru": 7230,
    "urb": 7231,
    " awesome": 7232,
    " encoun": 7233,
    " province": 7234,
    "sm": 7235,
    " worldwide": 7236,
    " actor": 7237,
    " regularly": 7238,
    " Moore": 7239,
    " courts": 7240,
    " narrative": 7241,
    "Once": 7242,
    " boot": 7243,
    " enemies": 7244,
    " mixed": 7245,
    "300": 7246,
    "regon": 7247,
    " OS": 7248,
    " Disney": 7249,
    "icer": 7250,
    " houses": 7251,
    " nobody": 7252,
    " Sk": 7253,
    "inations": 7254,
    " controls": 7255,
    " Water": 7256,
    " letters": 7257,
    "apes": 7258,
    "agram": 7259,
    "imp": 7260,
    "iana": 7261,
    " 42": 7262,
    " mayor": 7263,
    " loan": 7264,
    " murd": 7265,
    " outcome": 7266,
    " MS": 7267,
    " contem": 7268,
    "sell": 7269,
    "Sec": 7270,
    "vy": 7271,
    "odd": 7272,
    "ship": 7273,
    " Light": 7274,
    "onic": 7275,
    "isan": 7276,
    " apartment": 7277,
    " Steven": 7278,
    " coalition": 7279,
    " contributed": 7280,
    " Bas": 7281,
    " tank": 7282,
    " concluded": 7283,
    " Adam": 7284,
    " Tw": 7285,
    " exists": 7286,
    " founder": 7287,
    " Brian": 7288,
    "earing": 7289,
    " Lew": 7290,
    " atmosphere": 7291,
    " profile": 7292,
    " brew": 7293,
    " situations": 7294,
    " Championship": 7295,
    " Author": 7296,
    "rates": 7297,
    " incredible": 7298,
    " Constitution": 7299,
    " signal": 7300,
    "otes": 7301,
    " Rog": 7302,
    " accurate": 7303,
    "ker": 7304,
    " Victor": 7305,
    "otten": 7306,
    " unp": 7307,
    " Where": 7308,
    " Southern": 7309,
    ".\"[": 7310,
    " employment": 7311,
    " clients": 7312,
    "Dr": 7313,
    " keeps": 7314,
    "inity": 7315,
    " informed": 7316,
    " continuing": 7317,
    " baseball": 7318,
    " generate": 7319,
    " ticket": 7320,
    " conven": 7321,
    "Also": 7322,
    " Conf": 7323,
    " weird": 7324,
    " tied": 7325,
    "lock": 7326,
    "adelph": 7327,
    " category": 7328,
    " infect": 7329,
    "ilarly": 7330,
    "acked": 7331,
    " angry": 7332,
    " Organ": 7333,
    " routine": 7334,
    "aron": 7335,
    " kil": 7336,
    " raising": 7337,
    "ifer": 7338,
    " machines": 7339,
    " registered": 7340,
    "there": 7341,
    " proved": 7342,
    " demands": 7343,
    " gaming": 7344,
    " Italian": 7345,
    " incredibly": 7346,
    " crucial": 7347,
    " stuck": 7348,
    " Civil": 7349,
    " Dallas": 7350,
    " terrible": 7351,
    "MP": 7352,
    "cr": 7353,
    " feedback": 7354,
    " upper": 7355,
    " plastic": 7356,
    " imper": 7357,
    " newly": 7358,
    " Joseph": 7359,
    " consumption": 7360,
    " dozen": 7361,
    " enthus": 7362,
    " estate": 7363,
    "ali": 7364,
    "rage": 7365,
    "56": 7366,
    " innoc": 7367,
    " manip": 7368,
    " Tem": 7369,
    " conscious": 7370,
    " bills": 7371,
    " Cross": 7372,
    " Spain": 7373,
    "ifications": 7374,
    "Today": 7375,
    " writers": 7376,
    " excess": 7377,
    "inding": 7378,
    " aggressive": 7379,
    " reporter": 7380,
    " compens": 7381,
    " returning": 7382,
    " stead": 7383,
    " programming": 7384,
    " Thanks": 7385,
    " represented": 7386,
    " conclusion": 7387,
    "98": 7388,
    " rus": 7389,
    " Bowl": 7390,
    "MS": 7391,
    " AR": 7392,
    " origin": 7393,
    " assistant": 7394,
    "adelphia": 7395,
    " roster": 7396,
    " Minnesota": 7397,
    " organized": 7398,
    "ria": 7399,
    " penalty": 7400,
    " drinking": 7401,
    "lers": 7402,
    " paint": 7403,
    " satell": 7404,
    " gro": 7405,
    " Program": 7406,
    " capture": 7407,
    " conspir": 7408,
    " interpret": 7409,
    " explanation": 7410,
    "iscal": 7411,
    "eme": 7412,
    " county": 7413,
    "iscons": 7414,
    "essed": 7415,
    "mont": 7416,
    " %": 7417,
    "anny": 7418,
    "gorith": 7419,
    "emen": 7420,
    "isconsin": 7421,
    " assistance": 7422,
    " Roman": 7423,
    "58": 7424,
    " complaint": 7425,
    "ima": 7426,
    " ru": 7427,
    " nut": 7428,
    " magic": 7429,
    " tall": 7430,
    " Oper": 7431,
    " granted": 7432,
    "Because": 7433,
    " Contin": 7434,
    "star": 7435,
    "LA": 7436,
    "Off": 7437,
    " Parliament": 7438,
    " complicated": 7439,
    " audio": 7440,
    " chances": 7441,
    " extract": 7442,
    "bal": 7443,
    "rypt": 7444,
    "era": 7445,
    " Gi": 7446,
    " 1999": 7447,
    " hel": 7448,
    " Educ": 7449,
    " shares": 7450,
    " successfully": 7451,
    "esy": 7452,
    " IT": 7453,
    " pilot": 7454,
    "zy": 7455,
    " Ep": 7456,
    " Hot": 7457,
    " myth": 7458,
    " 00": 7459,
    " recovery": 7460,
    " Test": 7461,
    " techniques": 7462,
    " iron": 7463,
    " Care": 7464,
    " Zeal": 7465,
    " SC": 7466,
    " scenes": 7467,
    " veteran": 7468,
    " Fre": 7469,
    " Win": 7470,
    " ($": 7471,
    " degrees": 7472,
    "actions": 7473,
    " sympt": 7474,
    "thew": 7475,
    " lawmakers": 7476,
    "ked": 7477,
    " western": 7478,
    " operate": 7479,
    " ads": 7480,
    "rating": 7481,
    " habit": 7482,
    " aimed": 7483,
    "Inst": 7484,
    "anchester": 7485,
    " phr": 7486,
    "rep": 7487,
    "rete": 7488,
    " taste": 7489,
    "idency": 7490,
    " engaged": 7491,
    " privile": 7492,
    " 55": 7493,
    " rating": 7494,
    " teaching": 7495,
    " academic": 7496,
    " Os": 7497,
    " therap": 7498,
    " passes": 7499,
    " dollar": 7500,
    "hent": 7501,
    " automatically": 7502,
    "itar": 7503,
    " Pacific": 7504,
    " monit": 7505,
    " blocks": 7506,
    "abama": 7507,
    " attended": 7508,
    " permanent": 7509,
    " survive": 7510,
    " anticip": 7511,
    " extrem": 7512,
    " enable": 7513,
    " Look": 7514,
    " Foreign": 7515,
    "chain": 7516,
    "%.": 7517,
    " marked": 7518,
    "itals": 7519,
    " hidden": 7520,
    " accomp": 7521,
    " titles": 7522,
    " Senator": 7523,
    " NBC": 7524,
    " taught": 7525,
    " Linux": 7526,
    " bom": 7527,
    "uan": 7528,
    " index": 7529,
    "everal": 7530,
    " elite": 7531,
    "ibilities": 7532,
    "from": 7533,
    " lawyers": 7534,
    " depending": 7535,
    " valuable": 7536,
    " installed": 7537,
    " championship": 7538,
    " root": 7539,
    " compre": 7540,
    " Bull": 7541,
    " downtown": 7542,
    "aed": 7543,
    "mal": 7544,
    " equivalent": 7545,
    " solve": 7546,
    "rific": 7547,
    " duty": 7548,
    " Special": 7549,
    " Business": 7550,
    " 64": 7551,
    " pace": 7552,
    "HS": 7553,
    " reputation": 7554,
    " uncertain": 7555,
    " phones": 7556,
    "uine": 7557,
    " overse": 7558,
    " Taylor": 7559,
    " personnel": 7560,
    " pin": 7561,
    "reams": 7562,
    "aturally": 7563,
    " sufficient": 7564,
    " visited": 7565,
    " warming": 7566,
    " Sn": 7567,
    " principles": 7568,
    " vulnerable": 7569,
    " enjoyed": 7570,
    " fake": 7571,
    " Nick": 7572,
    " advis": 7573,
    " negotiations": 7574,
    "inder": 7575,
    " generated": 7576,
    " exposure": 7577,
    " recording": 7578,
    "bro": 7579,
    " collected": 7580,
    " regardless": 7581,
    " dict": 7582,
    "EA": 7583,
    " elev": 7584,
    " bitcoin": 7585,
    "active": 7587,
    " Kelly": 7588,
    " Anth": 7589,
    " cup": 7590,
    " patterns": 7591,
    "Getty": 7592,
    " Take": 7593,
    "))": 7594,
    " Avenue": 7595,
    " Josh": 7596,
    " disaster": 7597,
    " cable": 7598,
    " 65": 7599,
    " chat": 7600,
    " worker": 7601,
    " mainly": 7602,
    " racial": 7603,
    "quarters": 7604,
    " Coast": 7605,
    " Viet": 7606,
    "month": 7607,
    " pounds": 7608,
    " 150": 7609,
    " Call": 7610,
    " portion": 7611,
    " afraid": 7612,
    " inspir": 7613,
    " Ah": 7614,
    " bes": 7615,
    " defence": 7616,
    " Eastern": 7617,
    " Tony": 7618,
    " tracks": 7619,
    " busy": 7620,
    " grant": 7621,
    " shit": 7622,
    " intense": 7623,
    " Series": 7624,
    " LGBT": 7625,
    "orne": 7626,
    " Still": 7627,
    "mann": 7628,
    "athy": 7629,
    " funny": 7630,
    " apolog": 7631,
    " surgery": 7632,
    " Moscow": 7633,
    " Coll": 7634,
    " possession": 7635,
    " prominent": 7636,
    " Mars": 7637,
    " comic": 7638,
    " Ger": 7639,
    "ashes": 7640,
    "97": 7641,
    "ules": 7642,
    " Ray": 7643,
    " thin": 7644,
    " engineering": 7645,
    " troub": 7646,
    " Kurd": 7647,
    "this": 7648,
    " processes": 7649,
    " Nation": 7650,
    "fall": 7651,
    " Kent": 7652,
    " Come": 7653,
    " entit": 7654,
    " ’": 7655,
    " unusual": 7656,
    "raph": 7657,
    "etary": 7658,
    " describes": 7659,
    "da": 7660,
    "world": 7661,
    "96": 7662,
    " resulted": 7663,
    " dim": 7664,
    " emerged": 7665,
    " taxp": 7666,
    " gall": 7667,
    "iler": 7668,
    " 400": 7669,
    " propag": 7670,
    " Iowa": 7671,
    " Oregon": 7672,
    " coordin": 7673,
    " corruption": 7674,
    " stations": 7675,
    " Invest": 7676,
    "ye": 7677,
    " fought": 7678,
    " AD": 7679,
    " brut": 7680,
    " extension": 7681,
    "ref": 7682,
    " blind": 7683,
    " adopted": 7684,
    "prise": 7685,
    " compete": 7686,
    " recru": 7687,
    " Zealand": 7688,
    " hadn": 7689,
    "Pr": 7690,
    " mail": 7691,
    " everywhere": 7692,
    " Balt": 7693,
    " crypt": 7694,
    "Rec": 7695,
    "Col": 7696,
    "Mean": 7697,
    "herent": 7698,
    "icate": 7699,
    " Ali": 7700,
    " contracts": 7701,
    "front": 7702,
    " Lo": 7703,
    " neuro": 7704,
    " Dead": 7705,
    " Rick": 7706,
    " feelings": 7707,
    " firms": 7708,
    "idelines": 7709,
    "’,": 7710,
    " minority": 7711,
    " spr": 7712,
    "cles": 7713,
    "HA": 7714,
    " advertising": 7715,
    " rarely": 7716,
    " discipl": 7717,
    "making": 7718,
    " Northern": 7719,
    " sanctions": 7720,
    " Veg": 7721,
    "scape": 7722,
    " Philadelphia": 7723,
    "upid": 7724,
    " cameras": 7725,
    " explicit": 7726,
    " strict": 7727,
    "viously": 7728,
    "log": 7729,
    " enorm": 7730,
    " finance": 7731,
    "gun": 7732,
    " cited": 7733,
    "ifies": 7734,
    " Before": 7735,
    " shortly": 7736,
    "tes": 7737,
    "UL": 7738,
    " Policy": 7739,
    " expectations": 7740,
    " implementation": 7741,
    "ogen": 7742,
    " recip": 7743,
    "cling": 7744,
    " Greek": 7745,
    " thick": 7746,
    " thousand": 7747,
    "antic": 7748,
    " Mu": 7749,
    "istent": 7750,
    " loud": 7751,
    " affili": 7752,
    "urrent": 7753,
    "orough": 7754,
    " Navy": 7755,
    " inev": 7756,
    "rell": 7757,
    "cus": 7758,
    " photograph": 7759,
    " medium": 7760,
    "azz": 7761,
    " Hom": 7762,
    " Wisconsin": 7763,
    " scenario": 7764,
    " Food": 7765,
    " Live": 7766,
    " sup": 7767,
    "ilton": 7768,
    " plug": 7769,
    " veget": 7770,
    " ho": 7771,
    " visible": 7772,
    "LC": 7773,
    " lights": 7774,
    " creates": 7775,
    " priority": 7776,
    " ven": 7777,
    " bridge": 7778,
    "eland": 7779,
    " obst": 7780,
    "inking": 7781,
    "ATE": 7782,
    " agric": 7783,
    " permission": 7784,
    " Foot": 7785,
    " algorith": 7786,
    "izon": 7787,
    "Co": 7788,
    "elect": 7789,
    " participate": 7790,
    "aska": 7791,
    " wing": 7792,
    "who": 7793,
    "asion": 7794,
    " browser": 7795,
    " Global": 7796,
    " tag": 7797,
    " Ol": 7798,
    " Has": 7799,
    " mel": 7800,
    " acceler": 7801,
    "###": 8509,
    " dozens": 7803,
    " Kingdom": 7804,
    " historic": 7805,
    " computers": 7806,
    " laid": 7807,
    " basketball": 7808,
    "een": 7809,
    " losses": 7810,
    "text": 7811,
    " Saf": 7812,
    " Ash": 7813,
    "ogether": 7814,
    " unw": 7815,
    "::": 7816,
    " tor": 7817,
    " Amendment": 7818,
    "Mar": 7819,
    " strikes": 7820,
    " principle": 7821,
    " Development": 7822,
    " formal": 7823,
    "EP": 7824,
    "igen": 7825,
    " scoring": 7826,
    "76": 7827,
    "obs": 7828,
    "athered": 7829,
    " 44": 7830,
    " counsel": 7831,
    "found": 7832,
    "++": 7833,
    " shock": 7834,
    " wonderful": 7835,
    " SP": 7836,
    " behalf": 7837,
    "abs": 7838,
    " uncom": 7839,
    "profit": 7840,
    "enth": 7841,
    " interface": 7842,
    " establishment": 7843,
    " toler": 7844,
    " Henry": 7845,
    " Greg": 7846,
    "amber": 7847,
    "car": 7848,
    " Major": 7849,
    " Thus": 7850,
    "jo": 7851,
    "Us": 7852,
    " gained": 7853,
    " fee": 7854,
    "lete": 7855,
    " founded": 7856,
    "etime": 7857,
    " foundation": 7858,
    "she": 7859,
    " ESP": 7860,
    "ilipp": 7861,
    " clubs": 7862,
    " cannabis": 7863,
    " ju": 7864,
    "54": 7865,
    "52": 7866,
    " airport": 7867,
    " Key": 7868,
    "aus": 7869,
    "ystem": 7870,
    " borrow": 7871,
    "weet": 7872,
    "olis": 7873,
    "BO": 7874,
    " manufacturing": 7875,
    " rely": 7876,
    " Hit": 7877,
    " Pay": 7878,
    "uer": 7879,
    " Alabama": 7880,
    " genuine": 7881,
    " Royal": 7882,
    "rators": 7883,
    "Before": 7884,
    " component": 7885,
    " ridic": 7886,
    "osexual": 7887,
    " wheel": 7888,
    "rative": 7889,
    " Oak": 7890,
    " journalist": 7891,
    " relief": 7892,
    " saved": 7893,
    "bell": 7894,
    "51": 7895,
    " hole": 7896,
    " yield": 7897,
    " headed": 7898,
    " cyber": 7899,
    " Moh": 7900,
    "ependent": 7901,
    " gift": 7902,
    " fault": 7903,
    " withdraw": 7904,
    "Ne": 7905,
    " indicate": 7906,
    " drawing": 7907,
    " uniform": 7908,
    "umer": 7909,
    " Rand": 7910,
    "arlier": 7911,
    " stable": 7912,
    " ships": 7913,
    " ->": 7914,
    " banned": 7915,
    " Mid": 7916,
    " footage": 7917,
    "Meanwhile": 7918,
    " doors": 7919,
    "rous": 7920,
    "lan": 7921,
    " recognized": 7922,
    " 1960": 7923,
    " containing": 7924,
    "pread": 7925,
    "400": 7926,
    " FC": 7927,
    " Vis": 7928,
    " river": 7929,
    "mes": 7930,
    " struggling": 7931,
    "ami": 7932,
    "Sub": 7933,
    "ba": 7934,
    " spark": 7935,
    " Academy": 7936,
    " walls": 7937,
    " achieved": 7938,
    "opher": 7939,
    "ounced": 7940,
    " neighb": 7941,
    " plate": 7942,
    " edition": 7943,
    " HT": 7944,
    "portion": 7945,
    "mate": 7946,
    " movements": 7947,
    " deliber": 7948,
    "uce": 7949,
    "teen": 7950,
    "Post": 7951,
    " sharp": 7952,
    " AS": 7953,
    " Snow": 7954,
    "ulating": 7955,
    " stab": 7956,
    " Three": 7957,
    " episodes": 7958,
    " neutral": 7959,
    " Premier": 7960,
    " Ret": 7961,
    " Fund": 7962,
    " exception": 7963,
    "etts": 7964,
    " producer": 7965,
    " Fred": 7966,
    " destruction": 7967,
    " 1998": 7968,
    "oured": 7969,
    " beliefs": 7970,
    " 47": 7971,
    " Review": 7972,
    " legend": 7973,
    " pump": 7974,
    " McG": 7975,
    " backed": 7976,
    " liked": 7977,
    " hired": 7978,
    "idespread": 7979,
    "cription": 7980,
    " roles": 7981,
    " languages": 7982,
    " profession": 7983,
    " entering": 7984,
    "osa": 7985,
    " VR": 7986,
    " interviews": 7987,
    " hang": 7988,
    "iel": 7989,
    "isp": 7990,
    " tox": 7991,
    " philosophy": 7992,
    "eman": 7993,
    " Administration": 7994,
    " arrange": 7995,
    " Kir": 7996,
    "oen": 7997,
    "interest": 7998,
    " flaw": 7999,
    " Nob": 8000,
    "Those": 8001,
    "sylv": 8002,
    "imore": 8003,
    " stadium": 8004,
    " Atlanta": 8005,
    " Jac": 8006,
    " reduction": 8007,
    " dinner": 8008,
    "burgh": 8009,
    " bath": 8010,
    " Report": 8011,
    "uper": 8012,
    " magn": 8013,
    " Turkish": 8014,
    "iti": 8015,
    " aver": 8016,
    " finger": 8017,
    " Note": 8018,
    " Conference": 8019,
    " tackle": 8020,
    " cha": 8021,
    " gonna": 8022,
    " Diego": 8023,
    " Point": 8024,
    " crop": 8025,
    " Centre": 8026,
    " farmers": 8027,
    " Manchester": 8028,
    " nominee": 8029,
    " 41": 8030,
    " Arm": 8031,
    "aching": 8032,
    " Jason": 8033,
    " barely": 8034,
    "ATO": 8035,
    " structures": 8036,
    " contained": 8037,
    " synt": 8038,
    " Ott": 8039,
    " delivery": 8040,
    "ta": 8041,
    "%,": 8042,
    " processing": 8043,
    " discrimination": 8044,
    " convin": 8045,
    " incent": 8046,
    "riers": 8047,
    " Fair": 8048,
    "erved": 8049,
    "RS": 8050,
    "53": 8051,
    "then": 8052,
    " Data": 8053,
    "ca": 8054,
    "ja": 8055,
    "abinet": 8056,
    " intellectual": 8057,
    "Ed": 8058,
    " Radio": 8059,
    "amsung": 8060,
    " 46": 8061,
    " Bry": 8062,
    " OK": 8063,
    " Field": 8064,
    " Did": 8065,
    " upset": 8066,
    " Perhaps": 8067,
    "Me": 8068,
    " Education": 8069,
    "sylvania": 8070,
    "away": 8071,
    " Mir": 8072,
    "President": 8073,
    " challenging": 8074,
    "rik": 8075,
    " proven": 8076,
    " restrictions": 8077,
    "iy": 8078,
    " forever": 8079,
    "https": 8080,
    "olen": 8081,
    " electronic": 8082,
    " hitting": 8083,
    " Hay": 8084,
    " euro": 8085,
    "ho": 8086,
    " unex": 8087,
    " reviews": 8088,
    " Christians": 8089,
    " 43": 8090,
    " NC": 8091,
    " convicted": 8092,
    "Star": 8093,
    " illness": 8094,
    " smooth": 8095,
    "page": 8096,
    "Dav": 8097,
    " Hor": 8098,
    " retired": 8099,
    " indicated": 8100,
    "usive": 8101,
    " ham": 8102,
    " producing": 8103,
    " About": 8104,
    " Harry": 8105,
    " rapidly": 8106,
    " rose": 8107,
    " hide": 8108,
    " corporations": 8109,
    "fr": 8110,
    " ocean": 8111,
    " Rus": 8112,
    "aying": 8113,
    "owing": 8114,
    " listening": 8115,
    " Reuters": 8116,
    " UFC": 8117,
    " Sat": 8118,
    " technique": 8119,
    " mo": 8120,
    "yard": 8121,
    "sels": 8122,
    " loyal": 8123,
    " Nic": 8124,
    " Pen": 8125,
    " Mean": 8126,
    "lessly": 8127,
    " robot": 8128,
    " notion": 8129,
    " begun": 8130,
    " util": 8131,
    " Fed": 8132,
    " recognition": 8133,
    "ouver": 8134,
    "engers": 8135,
    " perpet": 8136,
    " association": 8137,
    " milk": 8138,
    " asks": 8139,
    "87": 8140,
    " websites": 8141,
    " ren": 8142,
    " description": 8143,
    " Pack": 8144,
    "inf": 8145,
    " tickets": 8146,
    "achus": 8147,
    " flash": 8148,
    " suggesting": 8149,
    "enny": 8150,
    " Judge": 8151,
    " exclusive": 8152,
    " reaching": 8153,
    " bra": 8154,
    " prepare": 8155,
    " Kansas": 8156,
    "Who": 8157,
    "ione": 8158,
    " bail": 8159,
    " frag": 8160,
    " progressive": 8161,
    "imm": 8162,
    " exceed": 8163,
    " equally": 8164,
    " Hard": 8165,
    " hardly": 8166,
    " widespread": 8167,
    " ABC": 8168,
    " campaigns": 8169,
    " Mayor": 8170,
    " contribute": 8171,
    "udes": 8172,
    "ologists": 8173,
    " branch": 8174,
    "Look": 8175,
    " Rose": 8176,
    " grass": 8177,
    " initiative": 8178,
    " Market": 8179,
    " ethnic": 8180,
    " external": 8181,
    "ikes": 8182,
    " Circ": 8183,
    "uma": 8184,
    "rient": 8185,
    " sensitive": 8186,
    " practical": 8187,
    "usted": 8188,
    "elf": 8189,
    " unclear": 8190,
    " normally": 8191,
    "Ref": 8192,
    " representative": 8193,
    "pat": 8194,
    "bec": 8195,
    "ls": 8196,
    "thon": 8197,
    " welf": 8198,
    " Full": 8199,
    " reducing": 8200,
    "appy": 8201,
    "lad": 8202,
    " friendly": 8203,
    " carefully": 8204,
    " Arabia": 8205,
    " Ref": 8206,
    " Ly": 8207,
    "89": 8208,
    "PM": 8209,
    " Luc": 8210,
    " racist": 8211,
    " invent": 8212,
    "rical": 8213,
    "ouch": 8214,
    "PG": 8215,
    " CO": 8216,
    " Next": 8217,
    " respectively": 8218,
    "senal": 8219,
    "rator": 8220,
    " tail": 8221,
    " McCain": 8222,
    " Bernie": 8223,
    "ancouver": 8224,
    " overwhelming": 8225,
    " viewers": 8226,
    " Beach": 8227,
    "stract": 8228,
    " welfare": 8229,
    "arrass": 8230,
    " Further": 8231,
    " convinced": 8232,
    "UN": 8233,
    " smoke": 8234,
    "umes": 8235,
    " collapse": 8236,
    " involvement": 8237,
    " Lind": 8238,
    " thrown": 8239,
    "pload": 8240,
    " connections": 8241,
    "heast": 8242,
    " terrorists": 8243,
    " Battle": 8244,
    " strategic": 8245,
    " hook": 8246,
    " recover": 8247,
    " Latin": 8248,
    "omething": 8249,
    "igrant": 8250,
    " Ont": 8251,
    " wine": 8252,
    "Mc": 8253,
    "inois": 8254,
    " Music": 8255,
    "rolled": 8256,
    " minds": 8257,
    " vital": 8258,
    " settlement": 8259,
    " statistics": 8260,
    " lists": 8261,
    " vary": 8262,
    " featuring": 8263,
    " ESPN": 8264,
    "ecut": 8265,
    "achusetts": 8266,
    " Sir": 8267,
    " behaviour": 8268,
    " independence": 8269,
    " Dig": 8270,
    "worth": 8271,
    " fantasy": 8272,
    " devast": 8273,
    "ester": 8274,
    "nedy": 8275,
    "core": 8276,
    "uties": 8277,
    " invited": 8278,
    " complaints": 8279,
    " joining": 8280,
    " scores": 8281,
    " fiscal": 8282,
    " deeper": 8283,
    "dem": 8284,
    " Pennsylvania": 8285,
    "ifest": 8286,
    " steal": 8287,
    " anger": 8288,
    " deputy": 8289,
    " elig": 8290,
    " wars": 8291,
    " Square": 8292,
    " investigate": 8293,
    " Tenn": 8294,
    " Town": 8295,
    " sugar": 8296,
    " constitutional": 8297,
    " III": 8298,
    " scholars": 8299,
    " Pit": 8300,
    " iOS": 8301,
    " anybody": 8302,
    " subjects": 8303,
    " AND": 8304,
    " array": 8305,
    " alien": 8306,
    "bn": 8307,
    "FA": 8308,
    " Ult": 8309,
    " Gov": 8310,
    " lobby": 8311,
    " ownership": 8312,
    " framework": 8313,
    " unemployment": 8314,
    " Division": 8315,
    " transgender": 8316,
    " SS": 8317,
    " improvements": 8318,
    " menu": 8319,
    " peak": 8320,
    "Back": 8321,
    " screens": 8322,
    "ihad": 8323,
    " inject": 8324,
    " luck": 8325,
    "iversary": 8326,
    " define": 8327,
    " tasks": 8328,
    " Xbox": 8329,
    " democratic": 8330,
    " scandal": 8331,
    "icking": 8332,
    " jury": 8333,
    "acon": 8334,
    " Anton": 8335,
    " Ministry": 8336,
    "Che": 8337,
    " cos": 8338,
    " comprehens": 8339,
    "osit": 8340,
    " Kat": 8341,
    " Es": 8342,
    " discovery": 8343,
    "unior": 8344,
    " register": 8345,
    "agg": 8346,
    " casual": 8347,
    " remem": 8348,
    " citizen": 8349,
    " fab": 8350,
    "RI": 8351,
    "Sm": 8352,
    "Under": 8353,
    " roads": 8354,
    " disagree": 8355,
    " failing": 8356,
    " Never": 8357,
    " Little": 8358,
    " Jay": 8359,
    " dynamic": 8360,
    " serves": 8361,
    " Cameron": 8362,
    " Brother": 8363,
    " Mah": 8364,
    " testim": 8365,
    " gathered": 8366,
    " Stone": 8367,
    " Information": 8368,
    " soph": 8369,
    "oding": 8370,
    " implemented": 8371,
    " controversy": 8372,
    " collective": 8373,
    " trained": 8374,
    "anna": 8375,
    " NSA": 8376,
    " neighbour": 8377,
    " fears": 8378,
    "leveland": 8379,
    " samples": 8380,
    " fiction": 8381,
    " prosec": 8382,
    " estimate": 8383,
    " Community": 8384,
    " Ice": 8385,
    " Medical": 8386,
    " 1997": 8387,
    " Philipp": 8388,
    " referring": 8389,
    " tip": 8390,
    " captain": 8391,
    "Will": 8392,
    " 1996": 8393,
    " spaces": 8394,
    "69": 8395,
    "cific": 8396,
    " trem": 8397,
    " Walker": 8398,
    " versus": 8399,
    " legs": 8400,
    " Santa": 8401,
    " temporary": 8402,
    "PC": 8403,
    " noise": 8404,
    "'.": 8405,
    " HD": 8406,
    " overt": 8407,
    " incorpor": 8408,
    " tone": 8409,
    " visitors": 8410,
    " reven": 8411,
    " civilians": 8412,
    " wages": 8413,
    " hypot": 8414,
    "aka": 8415,
    " sin": 8416,
    " remarks": 8417,
    " awareness": 8418,
    " ON": 8419,
    " Spring": 8420,
    " recommended": 8421,
    " stupid": 8422,
    " Allen": 8423,
    " heading": 8424,
    " handful": 8425,
    "umin": 8426,
    " regulation": 8427,
    "icket": 8428,
    " Action": 8429,
    " Core": 8430,
    " platforms": 8431,
    " accus": 8432,
    " Anthony": 8433,
    "mad": 8434,
    " affairs": 8435,
    "gener": 8436,
    " touchdown": 8437,
    " rural": 8438,
    " attacking": 8439,
    " extend": 8440,
    " ultimate": 8441,
    " attached": 8442,
    " Vegas": 8443,
    " discussions": 8444,
    " Ren": 8445,
    " horse": 8446,
    " Brew": 8447,
    " reprodu": 8448,
    " genetic": 8449,
    " expanded": 8450,
    " attempting": 8451,
    "phones": 8452,
    " Matthew": 8453,
    " races": 8454,
    "including": 8455,
    "iry": 8456,
    " Queen": 8457,
    " raw": 8458,
    " ignore": 8459,
    " Columbia": 8460,
    "serv": 8461,
    " Pent": 8462,
    " Guardian": 8463,
    "hour": 8464,
    " Cook": 8465,
    " iP": 8466,
    "itionally": 8467,
    " gear": 8468,
    " symptoms": 8469,
    " Patrick": 8470,
    " suffer": 8471,
    " settings": 8472,
    " Make": 8473,
    "alling": 8474,
    " salary": 8475,
    "case": 8476,
    " licens": 8477,
    "mary": 8478,
    "GO": 8479,
    " tweeted": 8480,
    "angel": 8481,
    " publication": 8482,
    " brill": 8483,
    " factory": 8484,
    " suspected": 8485,
    " purchased": 8486,
    "aret": 8487,
    " intervention": 8488,
    " eastern": 8489,
    " holiday": 8490,
    "type": 8491,
    "2014": 8492,
    " theat": 8493,
    "About": 8494,
    " displ": 8495,
    "esh": 8496,
    " ranked": 8497,
    " neck": 8498,
    " Conservative": 8499,
    " Austin": 8500,
    " Museum": 8501,
    "ective": 8502,
    " Roy": 8503,
    "\")": 8504,
    " cro": 8505,
    " Budd": 8506,
    "Sen": 8507,
    " enormous": 8508,
    "intendo": 8510,
    " cogn": 8511,
    " logic": 8512,
    "ultural": 8513,
    "ictions": 8514,
    " improvement": 8515,
    " API": 8516,
    " viewed": 8517,
    " ingred": 8518,
    " entertainment": 8519,
    "Ass": 8520,
    " legitimate": 8521,
    " Professor": 8522,
    "ommod": 8523,
    " presum": 8524,
    " Albert": 8525,
    " Massachusetts": 8526,
    " Ball": 8527,
    " 2019": 8528,
    " www": 8529,
    "News": 8530,
    " actors": 8531,
    " substantial": 8532,
    " humanity": 8533,
    " involves": 8534,
    " resource": 8535,
    "arms": 8536,
    " brothers": 8537,
    " liquid": 8538,
    " rational": 8539,
    " seemingly": 8540,
    " sorry": 8541,
    " layer": 8542,
    " loans": 8543,
    " rook": 8544,
    " investigating": 8545,
    " absence": 8546,
    " providers": 8547,
    " tomorrow": 8548,
    " fallen": 8549,
    " bureau": 8550,
    " grounds": 8551,
    " coaches": 8552,
    " stake": 8553,
    " resign": 8554,
    " outs": 8555,
    "rec": 8556,
    " advocates": 8557,
    " Ho": 8558,
    " €": 8559,
    "RC": 8560,
    " investigators": 8561,
    " conspiracy": 8562,
    "Where": 8563,
    " medicine": 8564,
    " dramatic": 8565,
    " fulf": 8566,
    " monitor": 8567,
    " Chair": 8568,
    "EST": 8569,
    "repre": 8570,
    " overs": 8571,
    " chapter": 8572,
    " Season": 8573,
    " coc": 8574,
    "oval": 8575,
    "GE": 8576,
    "lah": 8577,
    ".-": 8578,
    " activist": 8579,
    "plete": 8580,
    " boat": 8581,
    " Check": 8582,
    " Control": 8583,
    " gam": 8584,
    " jur": 8585,
    " suspended": 8586,
    " papers": 8587,
    "Script": 8588,
    " Greece": 8589,
    " opinions": 8590,
    " Such": 8591,
    " Ross": 8592,
    " missile": 8593,
    " Golden": 8594,
    " celeb": 8595,
    " Revolution": 8596,
    "ped": 8597,
    "2016": 8598,
    " Ra": 8599,
    " Head": 8600,
    " stayed": 8601,
    " covers": 8602,
    "iverpool": 8603,
    " diversity": 8604,
    "otype": 8605,
    " bars": 8606,
    "Part": 8607,
    "Russ": 8608,
    " embarrass": 8609,
    "xit": 8610,
    " offices": 8611,
    " Acc": 8612,
    "rets": 8613,
    "ourse": 8614,
    "claim": 8615,
    " Pot": 8616,
    " Iranian": 8617,
    " disrupt": 8618,
    "cover": 8619,
    " WW": 8620,
    " preced": 8621,
    " poly": 8622,
    " forest": 8623,
    "wered": 8624,
    " careful": 8625,
    "reprene": 8626,
    "vard": 8627,
    "ila": 8628,
    " amid": 8629,
    " History": 8630,
    " mad": 8631,
    "hot": 8632,
    "quest": 8633,
    " Hospital": 8634,
    "isting": 8635,
    "ammed": 8636,
    " Ale": 8637,
    " authent": 8638,
    " Illinois": 8639,
    " CBS": 8640,
    " Sony": 8641,
    "uction": 8642,
    "79": 8643,
    "geon": 8644,
    "Related": 8645,
    "rine": 8646,
    " transportation": 8647,
    " Vancouver": 8648,
    "bi": 8649,
    " Gaza": 8650,
    " handed": 8651,
    " protocol": 8652,
    " consistently": 8653,
    " mountain": 8654,
    " 52": 8655,
    " Ap": 8656,
    " reads": 8657,
    " Stat": 8658,
    " pref": 8659,
    " clothes": 8660,
    " attitude": 8661,
    "iability": 8662,
    " Share": 8663,
    " Kennedy": 8664,
    " porn": 8665,
    " princip": 8666,
    " Freedom": 8667,
    "ses": 8668,
    " depends": 8669,
    " mining": 8670,
    "des": 8671,
    " petition": 8672,
    " noting": 8673,
    " warrant": 8674,
    " conce": 8675,
    " colors": 8676,
    " lowest": 8677,
    " Anderson": 8678,
    " Tri": 8679,
    " addressed": 8680,
    " Family": 8681,
    "72": 8682,
    "unes": 8683,
    "Ste": 8684,
    " entr": 8685,
    " Stadium": 8686,
    "xx": 8687,
    " throwing": 8688,
    " je": 8689,
    "74": 8690,
    " fruit": 8691,
    " virtually": 8692,
    "!)": 8693,
    " stone": 8694,
    " foss": 8695,
    " guarantee": 8696,
    " referend": 8697,
    "inch": 8698,
    "Both": 8699,
    "??": 8700,
    " speaks": 8701,
    " Baltimore": 8702,
    " steel": 8703,
    " closing": 8704,
    "itting": 8705,
    " reader": 8706,
    "dri": 8707,
    "FF": 8708,
    " buff": 8709,
    " personality": 8710,
    " Cre": 8711,
    " appreciate": 8712,
    " Iraqi": 8713,
    " surf": 8714,
    " Environment": 8715,
    " nerv": 8716,
    "iences": 8717,
    "maker": 8718,
    "keep": 8719,
    " handling": 8720,
    " profits": 8721,
    "ordon": 8722,
    " grav": 8723,
    " km": 8724,
    " marks": 8725,
    "low": 8726,
    " tries": 8727,
    " Broad": 8728,
    " contributions": 8729,
    " Engine": 8730,
    "ropri": 8731,
    " spiritual": 8732,
    " conversations": 8733,
    " fantastic": 8734,
    " Tro": 8735,
    "zed": 8736,
    " lands": 8737,
    " console": 8738,
    " horror": 8739,
    "ppers": 8740,
    "\".[": 8741,
    "icity": 8742,
    " gains": 8743,
    " covering": 8744,
    " tea": 8745,
    "ivals": 8746,
    " Harris": 8747,
    "Her": 8748,
    " hint": 8749,
    " astron": 8750,
    "aval": 8751,
    " shoulder": 8752,
    "scale": 8753,
    " wrest": 8754,
    " guest": 8755,
    " Ext": 8756,
    " accommod": 8757,
    "uted": 8758,
    "uits": 8759,
    " depression": 8760,
    " CA": 8761,
    " _": 8762,
    " Lewis": 8763,
    " lucky": 8764,
    " Bang": 8765,
    " encouraged": 8766,
    "flix": 8767,
    "amac": 8768,
    " judges": 8769,
    " incidents": 8770,
    " Cleveland": 8771,
    " drew": 8772,
    " subsequent": 8773,
    " spoken": 8774,
    "ira": 8775,
    " Howard": 8776,
    "annels": 8777,
    " Bad": 8778,
    " brown": 8779,
    " bacter": 8780,
    "Please": 8781,
    "ixed": 8782,
    " rhet": 8783,
    " ranks": 8784,
    " Getty": 8785,
    " photograp": 8786,
    " inflation": 8787,
    " inner": 8788,
    " Intelligence": 8789,
    " Po": 8790,
    "mat": 8791,
    " Ba": 8792,
    " maps": 8793,
    "abeth": 8794,
    " Patri": 8795,
    "ported": 8796,
    "ijing": 8797,
    "plate": 8798,
    " divided": 8799,
    " 1995": 8800,
    " NATO": 8801,
    " paralle": 8802,
    " drama": 8803,
    " Mexican": 8804,
    " distributed": 8805,
    " gal": 8806,
    " innovation": 8807,
    "unicip": 8808,
    " cust": 8809,
    " Unfortunately": 8810,
    " premium": 8811,
    " voter": 8812,
    " permit": 8813,
    " revel": 8814,
    " Kong": 8815,
    " dance": 8816,
    "pled": 8817,
    " Las": 8818,
    " swing": 8819,
    " efficiency": 8820,
    " promises": 8821,
    " Indeed": 8822,
    "Note": 8823,
    " CH": 8824,
    " Which": 8825,
    " ballot": 8826,
    " 51": 8827,
    "eding": 8828,
    "pie": 8829,
    " Adv": 8830,
    " temperatures": 8831,
    " Samsung": 8832,
    " portray": 8833,
    " spokesperson": 8834,
    " locked": 8835,
    " lying": 8836,
    " improving": 8837,
    "800": 8838,
    " threw": 8839,
    " joy": 8840,
    " dump": 8841,
    "Art": 8842,
    " musical": 8843,
    "PP": 8844,
    " mistakes": 8845,
    "dated": 8846,
    " shout": 8847,
    " Start": 8848,
    " homeless": 8849,
    "conf": 8850,
    " replacement": 8851,
    "eries": 8852,
    " comedy": 8853,
    " checks": 8854,
    " Without": 8855,
    " Moon": 8856,
    " instrument": 8857,
    "ounce": 8858,
    " Connect": 8859,
    " acknowledged": 8860,
    " barrel": 8861,
    " responses": 8862,
    " protecting": 8863,
    "backs": 8864,
    " Det": 8865,
    "": 8866,
    "heim": 8867,
    " silver": 8868,
    " copies": 8869,
    " les": 8870,
    " AC": 8871,
    " dad": 8872,
    " breaks": 8873,
    " Plus": 8874,
    " Buff": 8875,
    " commonly": 8876,
    " lets": 8877,
    " legacy": 8878,
    "itage": 8879,
    " mathem": 8880,
    " protein": 8881,
    " joke": 8882,
    "amacare": 8883,
    "erted": 8884,
    "arre": 8885,
    " passengers": 8886,
    "2015": 8887,
    " yellow": 8888,
    " Marvel": 8889,
    "hop": 8890,
    " naturally": 8891,
    "Your": 8892,
    " Scient": 8893,
    " nomination": 8894,
    "Source": 8895,
    " measured": 8896,
    "aping": 8897,
    "alia": 8898,
    " Use": 8899,
    " abandoned": 8900,
    "oded": 8901,
    " Prince": 8902,
    " studied": 8903,
    " Football": 8904,
    "helsea": 8905,
    " diverse": 8906,
    "argo": 8907,
    " acquired": 8908,
    "ieties": 8909,
    " Lyn": 8910,
    "Cons": 8911,
    "esty": 8912,
    " soil": 8913,
    " Marsh": 8914,
    " demonstrated": 8915,
    " blast": 8916,
    " rear": 8917,
    " funded": 8918,
    " headquarters": 8919,
    "hesis": 8920,
    " stolen": 8921,
    "inians": 8922,
    " scan": 8923,
    " counts": 8924,
    " tape": 8925,
    " partnership": 8926,
    " midfield": 8927,
    " NOT": 8928,
    "yo": 8929,
    " (“": 8930,
    " upgrade": 8931,
    " Cost": 8932,
    " Atlantic": 8933,
    " march": 8934,
    " grid": 8935,
    " ordinary": 8936,
    " Aud": 8937,
    " Nev": 8938,
    " rom": 8939,
    "aware": 8940,
    " literature": 8941,
    " plain": 8942,
    " stages": 8943,
    " •": 8944,
    "high": 8945,
    " assert": 8946,
    " 1994": 8947,
    " AI": 8948,
    " helpful": 8949,
    " arrive": 8950,
    " exit": 8951,
    " scope": 8952,
    " falls": 8953,
    "dog": 8954,
    "yer": 8955,
    " ignored": 8956,
    "BM": 8957,
    " twenty": 8958,
    "eters": 8959,
    " Master": 8960,
    " clock": 8961,
    " compe": 8962,
    "inction": 8963,
    " virus": 8964,
    " Trib": 8965,
    " referendum": 8966,
    " inequ": 8967,
    " unions": 8968,
    " Does": 8969,
    "erg": 8970,
    "assador": 8971,
    " Gun": 8972,
    " conservatives": 8973,
    " rif": 8974,
    " symp": 8975,
    " festival": 8976,
    " shopping": 8977,
    " fro": 8978,
    " waters": 8979,
    " Pop": 8980,
    " capabilities": 8981,
    " Bron": 8982,
    " ax": 8983,
    "zing": 8984,
    "lahoma": 8985,
    " usage": 8986,
    " Hind": 8987,
    "iate": 8988,
    " Empire": 8989,
    "aeda": 8990,
    " Indiana": 8991,
    "iley": 8992,
    " transactions": 8993,
    " hoped": 8994,
    "VE": 8995,
    " distract": 8996,
    " Ast": 8997,
    " guitar": 8998,
    " Eag": 8999,
    " Abb": 9000,
    " sty": 9001,
    " ramp": 9002,
    " assessment": 9003,
    "ctic": 9004,
    " universities": 9005,
    " Dave": 9006,
    " moon": 9007,
    " monitoring": 9008,
    "ormal": 9009,
    "acket": 9010,
    "bridge": 9011,
    "Facebook": 9012,
    " representing": 9013,
    " ratio": 9014,
    " Death": 9015,
    "encing": 9016,
    "ught": 9017,
    " Prov": 9018,
    " conventional": 9019,
    "comes": 9020,
    "UST": 9021,
    "orge": 9022,
    " trave": 9023,
    "ington": 9024,
    " Set": 9025,
    " tracking": 9026,
    "door": 9027,
    "ntil": 9028,
    " Sometimes": 9029,
    "only": 9030,
    "shire": 9031,
    " Sus": 9032,
    " hung": 9033,
    " reliable": 9034,
    " tie": 9035,
    " proposals": 9036,
    " skept": 9037,
    " Hell": 9038,
    " replied": 9039,
    " Ros": 9040,
    "fund": 9041,
    " criticized": 9042,
    "uh": 9043,
    " appearances": 9044,
    "62": 9045,
    "ecutive": 9046,
    " Ha": 9047,
    " racism": 9048,
    "ela": 9049,
    " Lim": 9050,
    " insisted": 9051,
    "organ": 9052,
    "rimin": 9053,
    " introduction": 9054,
    " 2020": 9055,
    " appointed": 9056,
    "dney": 9057,
    " Bureau": 9058,
    "olph": 9059,
    "agic": 9060,
    " Pass": 9061,
    "cut": 9062,
    "Ke": 9063,
    " Line": 9064,
    " beauty": 9065,
    " concrete": 9066,
    " receiver": 9067,
    " supplies": 9068,
    " performing": 9069,
    "made": 9070,
    " bub": 9071,
    " exch": 9072,
    "rite": 9073,
    " visiting": 9074,
    " Technology": 9075,
    "63": 9076,
    " Denver": 9077,
    "ocument": 9078,
    "EE": 9079,
    " Jam": 9080,
    "omes": 9081,
    " Capt": 9082,
    "theless": 9083,
    "RL": 9084,
    " letting": 9085,
    " swim": 9086,
    "AND": 9087,
    " deficit": 9088,
    " classified": 9089,
    " Galaxy": 9090,
    "aga": 9091,
    " auto": 9092,
    " render": 9093,
    " absor": 9094,
    " Orig": 9095,
    " accomplish": 9096,
    " programme": 9097,
    " presidency": 9098,
    "HT": 9099,
    "crib": 9100,
    "61": 9101,
    " blocked": 9102,
    " Sweden": 9103,
    "archy": 9104,
    " dust": 9105,
    " Utah": 9106,
    " drove": 9107,
    " landscape": 9108,
    " cance": 9109,
    " Portland": 9110,
    "plus": 9111,
    " dismissed": 9112,
    " LA": 9113,
    " hyper": 9114,
    " abroad": 9115,
    " bonus": 9116,
    " Tour": 9117,
    "har": 9118,
    " sequence": 9119,
    " predicted": 9120,
    " senator": 9121,
    "°": 9122,
    " Age": 9123,
    " domain": 9124,
    " Code": 9125,
    " ec": 9126,
    " museum": 9127,
    " Associated": 9128,
    "acco": 9129,
    " warn": 9130,
    " persons": 9131,
    "NS": 9132,
    "ji": 9133,
    " dub": 9134,
    " requested": 9135,
    " trigger": 9136,
    " Ontario": 9137,
    " hockey": 9138,
    " Corpor": 9139,
    "iano": 9140,
    " artific": 9141,
    " dates": 9142,
    " testimony": 9143,
    " centers": 9144,
    "л": 9145,
    " rocket": 9146,
    "irts": 9147,
    " ves": 9148,
    " transit": 9149,
    " congressional": 9150,
    " entitled": 9151,
    "ultane": 9152,
    " spokeswoman": 9153,
    " Front": 9154,
    " Nintendo": 9155,
    " Alexander": 9156,
    " rescue": 9157,
    " Cooper": 9158,
    "mony": 9159,
    " assign": 9160,
    " Bon": 9161,
    " equality": 9162,
    " patch": 9163,
    " urged": 9164,
    " bread": 9165,
    " Olympic": 9166,
    " documentary": 9167,
    " veterans": 9168,
    " clar": 9169,
    "fol": 9170,
    " Wik": 9171,
    " ”": 9172,
    "king": 9173,
    "pton": 9174,
    " recall": 9175,
    " populations": 9176,
    " Low": 9177,
    " breath": 9178,
    "Still": 9179,
    "600": 9180,
    "rooms": 9181,
    " whenever": 9182,
    " violation": 9183,
    " tactics": 9184,
    " wider": 9185,
    "ounding": 9186,
    "93": 9187,
    " targeting": 9188,
    "Yet": 9189,
    "through": 9190,
    " pursue": 9191,
    "92": 9192,
    " salt": 9193,
    "\">": 9194,
    " lean": 9195,
    "Are": 9196,
    "izabeth": 9197,
    " firing": 9198,
    "94": 9199,
    " Kar": 9200,
    " Mill": 9201,
    " acid": 9202,
    "inating": 9203,
    " mole": 9204,
    "isons": 9205,
    " restaurants": 9206,
    " compare": 9207,
    "fare": 9208,
    "Comp": 9209,
    "dy": 9210,
    "orous": 9211,
    "ennis": 9212,
    " employed": 9213,
    " Roberts": 9214,
    " contrad": 9215,
    " Bible": 9216,
    " politically": 9217,
    "aver": 9218,
    " phrase": 9219,
    " satellite": 9220,
    " Cro": 9221,
    " survival": 9222,
    " retirement": 9223,
    " banking": 9224,
    " Form": 9225,
    " brilliant": 9226,
    " Girl": 9227,
    "atar": 9228,
    " channels": 9229,
    "71": 9230,
    " servers": 9231,
    "73": 9232,
    " Beijing": 9233,
    " soccer": 9234,
    "trans": 9235,
    " Mach": 9236,
    "they": 9237,
    " burden": 9238,
    " introduce": 9239,
    " experiments": 9240,
    "enez": 9241,
    " prisoners": 9242,
    "rapped": 9243,
    " cig": 9244,
    " WH": 9245,
    "afe": 9246,
    "jud": 9247,
    " fighter": 9248,
    " scientist": 9249,
    "OK": 9250,
    " YOU": 9251,
    "usalem": 9252,
    " List": 9253,
    " submit": 9254,
    " approached": 9255,
    " Award": 9256,
    " monthly": 9257,
    " Liverpool": 9258,
    " designs": 9259,
    " representatives": 9260,
    " titled": 9261,
    "ordinary": 9262,
    " quote": 9263,
    " popularity": 9264,
    "olves": 9265,
    " abilities": 9266,
    "oenix": 9267,
    " cul": 9268,
    " PD": 9269,
    " membership": 9270,
    " investigations": 9271,
    " focusing": 9272,
    " bab": 9273,
    "mans": 9274,
    " hosp": 9275,
    " Bridge": 9276,
    "Though": 9277,
    " Maryland": 9278,
    " saving": 9279,
    "bow": 9280,
    " rush": 9281,
    " Governor": 9282,
    " shadow": 9283,
    "ouri": 9284,
    " Hur": 9285,
    " Base": 9286,
    " objective": 9287,
    "berry": 9288,
    " Ted": 9289,
    "erts": 9290,
    "ederation": 9291,
    " mit": 9292,
    " prepar": 9293,
    " tips": 9294,
    " Was": 9295,
    "ele": 9296,
    "emed": 9297,
    " pipeline": 9298,
    "David": 9299,
    " childhood": 9300,
    " ratings": 9301,
    " thorough": 9302,
    " entreprene": 9303,
    "enter": 9304,
    "ais": 9305,
    " Vill": 9306,
    " Dutch": 9307,
    "was": 9308,
    "break": 9309,
    " actively": 9310,
    " Harvard": 9311,
    " pig": 9312,
    " demanding": 9313,
    " loose": 9314,
    "asty": 9315,
    " unexpected": 9316,
    " smoking": 9317,
    " smell": 9318,
    " deny": 9319,
    "CO": 9320,
    "don": 9321,
    " universal": 9322,
    "ika": 9323,
    " forecast": 9324,
    " argues": 9325,
    " phenomenon": 9326,
    " overseas": 9327,
    " settled": 9328,
    "olds": 9329,
    "walk": 9330,
    " Beck": 9331,
    " generations": 9332,
    " weekly": 9333,
    " chicken": 9334,
    " preparing": 9335,
    " 95": 9336,
    " smartphone": 9337,
    " producers": 9338,
    " butt": 9339,
    " PA": 9340,
    " legislative": 9341,
    " anxiety": 9342,
    " Have": 9343,
    " innocent": 9344,
    "minute": 9345,
    " Click": 9346,
    " mortg": 9347,
    " celebrate": 9348,
    " Ur": 9349,
    " provision": 9350,
    "Dem": 9351,
    " DO": 9352,
    " keys": 9353,
    " mini": 9354,
    " shame": 9355,
    " arguing": 9356,
    " Justin": 9357,
    " Design": 9358,
    "held": 9359,
    " questioned": 9360,
    " forcing": 9361,
    " Cow": 9362,
    " Hop": 9363,
    "ompson": 9364,
    "agh": 9365,
    " broader": 9367,
    " encounter": 9368,
    "mers": 9369,
    "SL": 9370,
    " flags": 9371,
    " fool": 9372,
    "Sim": 9373,
    " fur": 9374,
    " mac": 9375,
    " 53": 9376,
    " deadly": 9377,
    " reverse": 9378,
    "oz": 9379,
    " weigh": 9380,
    " Edward": 9381,
    " Among": 9382,
    " tens": 9383,
    " ~": 9384,
    " mos": 9385,
    " wealthy": 9386,
    " Obamacare": 9387,
    " unpre": 9388,
    " tab": 9389,
    " maintained": 9390,
    "eals": 9391,
    " surely": 9392,
    " shield": 9393,
    " Prop": 9394,
    "ocolate": 9395,
    "oret": 9396,
    " secondary": 9397,
    " savings": 9398,
    "isa": 9399,
    "irlf": 9400,
    "aved": 9401,
    " roof": 9402,
    " stability": 9403,
    " civilian": 9404,
    "ă": 9405,
    "elson": 9406,
    " Carter": 9407,
    " reveals": 9408,
    "mind": 9409,
    " alarm": 9410,
    " anniversary": 9411,
    " sorts": 9412,
    " Bra": 9413,
    " Ak": 9414,
    "vernment": 9415,
    "El": 9416,
    " tonight": 9417,
    " releases": 9418,
    " Hon": 9419,
    " rooms": 9420,
    "irlfriend": 9421,
    " Gulf": 9422,
    " outrage": 9423,
    " prosecutors": 9424,
    " Left": 9425,
    "inals": 9426,
    " disorder": 9427,
    "84": 9428,
    " wedd": 9429,
    " exha": 9430,
    "orious": 9431,
    "isk": 9432,
    " shr": 9433,
    " relax": 9434,
    " windows": 9435,
    " threatening": 9436,
    " differently": 9437,
    " harassment": 9438,
    " quoted": 9439,
    " healthcare": 9440,
    " submitted": 9441,
    " arbit": 9442,
    " lunch": 9443,
    "step": 9444,
    "pa": 9445,
    " Run": 9446,
    " reforms": 9447,
    " torture": 9448,
    "rection": 9449,
    " fate": 9450,
    " stored": 9451,
    " Belg": 9452,
    " okay": 9453,
    " propaganda": 9454,
    " spots": 9455,
    " instructions": 9456,
    " Vietnam": 9457,
    " sevent": 9458,
    " rounds": 9459,
    " odds": 9460,
    "itter": 9461,
    " 1992": 9462,
    " aer": 9463,
    "html": 9464,
    "tenance": 9465,
    " errors": 9466,
    " Oklahoma": 9467,
    " hydro": 9468,
    "icism": 9469,
    "GA": 9470,
    " delic": 9471,
    "ailed": 9472,
    " Liberal": 9473,
    " silence": 9474,
    " Graham": 9475,
    " Sab": 9476,
    "ois": 9477,
    "acts": 9478,
    " Warren": 9479,
    " graduate": 9480,
    " affordable": 9481,
    " circle": 9482,
    "sect": 9483,
    " Bloom": 9484,
    " cooperation": 9485,
    " picks": 9486,
    " sear": 9487,
    "itary": 9488,
    " Sarah": 9489,
    "aa": 9490,
    " Fall": 9491,
    "ested": 9492,
    "orship": 9493,
    " Expl": 9494,
    " striking": 9495,
    " puzz": 9496,
    " persu": 9497,
    " streaming": 9498,
    " comprehensive": 9499,
    "race": 9500,
    " importantly": 9501,
    " cow": 9502,
    " possess": 9503,
    "Watch": 9504,
    " fing": 9505,
    " execution": 9506,
    " Ruby": 9507,
    "lined": 9508,
    " intim": 9509,
    " struggled": 9510,
    " Som": 9511,
    " Person": 9512,
    " assass": 9513,
    " Silver": 9514,
    " Leader": 9515,
    "uten": 9516,
    "ahu": 9517,
    " gent": 9518,
    " Price": 9519,
    "Reuters": 9520,
    "Ty": 9521,
    "ishop": 9522,
    " deserve": 9523,
    " Jerusalem": 9524,
    " landing": 9525,
    " calm": 9526,
    " alter": 9527,
    " ceremony": 9528,
    " assumed": 9529,
    " demonstrate": 9530,
    " difficulty": 9531,
    " ages": 9532,
    " pron": 9533,
    " dying": 9534,
    " hal": 9535,
    " distingu": 9536,
    "asury": 9537,
    " stepped": 9538,
    " borders": 9539,
    " chest": 9540,
    "ethe": 9541,
    " Wolf": 9542,
    " Lt": 9543,
    " Bud": 9544,
    " adventure": 9545,
    " pointing": 9546,
    "bury": 9547,
    "ova": 9548,
    " waves": 9549,
    " kilomet": 9550,
    "essee": 9551,
    "atern": 9552,
    "ierce": 9553,
    " Netflix": 9554,
    " autonom": 9555,
    " Ten": 9556,
    " precisely": 9557,
    " architecture": 9558,
    " greatly": 9559,
    " promising": 9560,
    " consent": 9561,
    " consideration": 9562,
    " Deb": 9563,
    " drives": 9564,
    " dialogue": 9565,
    " Main": 9566,
    " tremend": 9567,
    "asant": 9568,
    " newsletter": 9569,
    " rookie": 9570,
    " awarded": 9571,
    " Meanwhile": 9572,
    "after": 9573,
    " repeat": 9574,
    " Story": 9575,
    " contribution": 9576,
    " Tele": 9577,
    " burning": 9578,
    "83": 9579,
    "iev": 9580,
    "party": 9581,
    " simultane": 9582,
    " Scottish": 9583,
    " Vice": 9584,
    " donations": 9585,
    " Indust": 9586,
    "akh": 9587,
    " interf": 9588,
    "itol": 9589,
    " Magic": 9590,
    " voices": 9591,
    " analyst": 9592,
    " Bruce": 9593,
    " Tech": 9594,
    "ceptions": 9595,
    " gif": 9596,
    " frequency": 9597,
    " Common": 9598,
    " procedure": 9599,
    " wanting": 9600,
    " Pres": 9601,
    " executives": 9602,
    " playoffs": 9603,
    "oice": 9604,
    " staying": 9605,
    "apolis": 9606,
    " birds": 9607,
    " bias": 9608,
    "VD": 9609,
    " Hong": 9610,
    " Az": 9611,
    "izer": 9612,
    " inches": 9613,
    " trillion": 9614,
    "omy": 9615,
    "holders": 9616,
    "ds": 9617,
    " highlights": 9618,
    " semi": 9619,
    " remarkable": 9620,
    " whereas": 9621,
    "EX": 9622,
    "ributes": 9623,
    " Palestinians": 9624,
    " knee": 9625,
    "open": 9626,
    " Jonathan": 9627,
    "raig": 9628,
    " implications": 9629,
    "scribe": 9630,
    " formation": 9631,
    " superior": 9632,
    " strategies": 9633,
    " ans": 9634,
    "itual": 9635,
    " Berlin": 9636,
    "Step": 9637,
    "div": 9638,
    " Link": 9639,
    "stal": 9640,
    " Sydney": 9641,
    "lee": 9642,
    " MORE": 9643,
    " categories": 9644,
    " Ark": 9645,
    " fet": 9646,
    " followers": 9647,
    " cream": 9648,
    "Story": 9649,
    "portation": 9650,
    "FO": 9651,
    " contacted": 9652,
    "Ms": 9653,
    " judgment": 9654,
    "annon": 9655,
    " smile": 9656,
    "bered": 9657,
    " info": 9658,
    " emerging": 9659,
    "igious": 9660,
    "rif": 9661,
    "js": 9662,
    "onder": 9663,
    "vision": 9664,
    " Eff": 9665,
    "vertisements": 9666,
    "iffs": 9667,
    "hatt": 9668,
    " accessible": 9669,
    "yes": 9670,
    "TP": 9671,
    " physically": 9672,
    " assigned": 9673,
    " 54": 9674,
    " Andre": 9675,
    " guidelines": 9676,
    " defeated": 9677,
    " crimin": 9678,
    " wounded": 9679,
    " trials": 9680,
    " stem": 9681,
    " managing": 9682,
    " spell": 9683,
    " ministry": 9684,
    " grade": 9685,
    " coinc": 9686,
    " riding": 9687,
    " indicates": 9688,
    " centuries": 9689,
    "Christ": 9690,
    "cest": 9691,
    " Affairs": 9692,
    " opens": 9693,
    "aki": 9694,
    " pharm": 9695,
    "lla": 9696,
    " meaningful": 9697,
    "omed": 9698,
    " tiss": 9699,
    "erent": 9700,
    " Mrs": 9701,
    " ease": 9702,
    "child": 9703,
    " margin": 9704,
    " Store": 9705,
    " clothing": 9706,
    " Tes": 9707,
    " −": 9708,
    " Six": 9709,
    " Capital": 9710,
    " participation": 9711,
    "cedented": 9712,
    "Mus": 9713,
    " revers": 9714,
    "aria": 9715,
    " poison": 9716,
    " Brexit": 9717,
    " 120": 9718,
    " Yemen": 9719,
    " lapt": 9720,
    "iac": 9721,
    " competing": 9722,
    " memories": 9723,
    " CS": 9724,
    " theories": 9725,
    " recipe": 9726,
    " gross": 9727,
    "umble": 9728,
    "author": 9729,
    "hard": 9730,
    " passage": 9731,
    " aged": 9732,
    " Credit": 9733,
    " bin": 9734,
    " drone": 9735,
    " blank": 9736,
    " dispute": 9737,
    "van": 9738,
    " damaged": 9739,
    " 1993": 9740,
    " Hamilton": 9741,
    " Lam": 9742,
    "base": 9743,
    " substance": 9744,
    " hosted": 9745,
    "TER": 9746,
    "Google": 9747,
    " Chelsea": 9748,
    " promoting": 9749,
    " facilit": 9750,
    " openly": 9751,
    " Instagram": 9752,
    " 1950": 9753,
    " Vik": 9754,
    "View": 9755,
    " Children": 9756,
    " Crime": 9757,
    "sl": 9758,
    " clinical": 9759,
    "Out": 9760,
    " nic": 9761,
    "bits": 9762,
    "eremy": 9763,
    " Hold": 9764,
    "even": 9765,
    " investments": 9766,
    " consensus": 9767,
    "igate": 9768,
    " Leon": 9769,
    " Fal": 9770,
    " 99": 9771,
    " educational": 9772,
    "const": 9773,
    "->": 9774,
    " dish": 9775,
    " manifest": 9776,
    " custody": 9777,
    "ito": 9778,
    "week": 9779,
    " eligible": 9780,
    " Hawai": 9781,
    " legally": 9782,
    " missions": 9783,
    " endorse": 9784,
    "eria": 9785,
    " gate": 9786,
    " memo": 9787,
    " GT": 9788,
    " tables": 9789,
    " Pict": 9790,
    " nin": 9791,
    " studying": 9792,
    "Hz": 9793,
    " ?": 9794,
    " charity": 9795,
    "aration": 9796,
    " addresses": 9797,
    "adi": 9798,
    " inspect": 9799,
    " discount": 9800,
    "rix": 9801,
    "left": 9802,
    " battles": 9803,
    "ALL": 9804,
    " Der": 9805,
    " 250": 9806,
    " Assembly": 9807,
    " athletes": 9808,
    "Pre": 9809,
    " Trade": 9810,
    " fossil": 9811,
    " enthusi": 9812,
    " Management": 9813,
    " suspects": 9814,
    " tired": 9815,
    " helic": 9816,
    "Act": 9817,
    " counterpart": 9818,
    " na": 9819,
    "82": 9820,
    "achel": 9821,
    " dating": 9822,
    " Eth": 9823,
    " spectrum": 9824,
    " Metro": 9825,
    "ateral": 9826,
    " Station": 9827,
    " Bal": 9828,
    " presentation": 9829,
    " lux": 9830,
    "gered": 9831,
    " bottle": 9832,
    " tap": 9833,
    "arts": 9834,
    "riors": 9835,
    " vig": 9836,
    " fundra": 9837,
    " enhance": 9838,
    "assy": 9839,
    " Sean": 9840,
    " therapy": 9841,
    " Wales": 9842,
    " Exper": 9843,
    " perceived": 9844,
    "market": 9845,
    " Tok": 9846,
    " dominant": 9847,
    "Def": 9848,
    "math": 9849,
    " backing": 9850,
    " Festival": 9851,
    " underlying": 9852,
    " defending": 9853,
    " Through": 9854,
    " racing": 9855,
    " discussing": 9856,
    " expanding": 9857,
    " muscle": 9858,
    " stops": 9859,
    "uz": 9860,
    " beings": 9861,
    " Marx": 9862,
    " Equ": 9863,
    " transaction": 9864,
    "rows": 9865,
    " Uber": 9866,
    "Cal": 9867,
    " recruit": 9868,
    "itudes": 9869,
    "acher": 9870,
    " Gary": 9871,
    " mood": 9872,
    " picking": 9873,
    "lando": 9874,
    "ylum": 9875,
    "player": 9876,
    " managers": 9877,
    "orable": 9878,
    " gathering": 9879,
    " hopefully": 9880,
    "angle": 9881,
    " Son": 9882,
    "alysis": 9883,
    " Video": 9884,
    "section": 9885,
    " crus": 9886,
    " Libya": 9887,
    " impression": 9888,
    " hip": 9889,
    "olar": 9890,
    "â": 9891,
    " scrut": 9892,
    " roy": 9893,
    " Tai": 9894,
    "igenous": 9895,
    " institution": 9896,
    " Batman": 9897,
    "}}": 9898,
    " stere": 9899,
    " procedures": 9900,
    "ñ": 9901,
    " pocket": 9902,
    " creatures": 9903,
    " compat": 9904,
    " arrival": 9905,
    "ptions": 9906,
    "oln": 9907,
    "watch": 9908,
    " Boe": 9909,
    " eager": 9910,
    " pollution": 9911,
    "iture": 9912,
    " foods": 9913,
    " kitchen": 9914,
    "ocial": 9915,
    " recre": 9916,
    " surviv": 9917,
    "roph": 9918,
    " organic": 9919,
    " Pentagon": 9920,
    " Morgan": 9921,
    " shipping": 9922,
    " capitalism": 9923,
    " insult": 9924,
    " timing": 9925,
    "odox": 9926,
    " requirement": 9927,
    "sub": 9928,
    " unfair": 9929,
    "aders": 9930,
    " mice": 9931,
    " 56": 9932,
    " Assad": 9933,
    " Represent": 9934,
    " Mess": 9935,
    " MLS": 9936,
    "Mod": 9937,
    "Rem": 9938,
    "atively": 9939,
    " Elizabeth": 9940,
    " Op": 9941,
    " diseases": 9942,
    " industries": 9943,
    " Oakland": 9944,
    " bowl": 9945,
    " Murray": 9946,
    " Creat": 9947,
    " helicop": 9948,
    " divor": 9949,
    "agger": 9950,
    " beach": 9951,
    " punishment": 9952,
    "abet": 9953,
    " shell": 9954,
    " fled": 9955,
    " hospitals": 9956,
    "missions": 9957,
    " tons": 9958,
    " Kick": 9959,
    " seed": 9960,
    "ogy": 9961,
    "AF": 9962,
    "81": 9963,
    " Comey": 9964,
    "opyright": 9965,
    " statist": 9966,
    " engineers": 9967,
    " obsc": 9968,
    " hire": 9969,
    " module": 9970,
    "Reg": 9971,
    "AY": 9972,
    " coaching": 9973,
    "amous": 9974,
    " sed": 9975,
    "oca": 9976,
    " answered": 9977,
    "rac": 9978,
    "SC": 9979,
    "TR": 9980,
    " graphics": 9981,
    " regulatory": 9982,
    " sovere": 9983,
    " stance": 9984,
    "alties": 9985,
    " bow": 9986,
    " Keep": 9987,
    "Click": 9988,
    " explaining": 9989,
    " rhetoric": 9990,
    " beating": 9991,
    " tut": 9992,
    " Friend": 9993,
    " Email": 9994,
    "rior": 9995,
    " Yeah": 9996,
    "emic": 9997,
    " Mit": 9998,
    " acknowledge": 9999,
    " Michel": 10000,
    " principal": 10001,
    " pulling": 10002,
    "erves": 10003,
    " signature": 10004,
    "brid": 10005,
    "olving": 10006,
    " convince": 10007,
    " Roll": 10008,
    " variable": 10009,
    "cosystem": 10010,
    " pill": 10011,
    " searching": 10012,
    " Ox": 10013,
    " dies": 10014,
    " overcome": 10015,
    " preferred": 10016,
    "duction": 10017,
    " sixth": 10018,
    " adviser": 10019,
    " Tennessee": 10020,
    " !": 10021,
    " trends": 10022,
    " Russell": 10023,
    " (\"": 10024,
    " Thompson": 10025,
    " merch": 10026,
    " rebels": 10027,
    " interaction": 10028,
    " periods": 10029,
    "Ge": 10030,
    " psychological": 10031,
    "Mich": 10032,
    " Sure": 10033,
    " Using": 10034,
    " economics": 10035,
    " Charlie": 10036,
    " Bi": 10037,
    " outlets": 10038,
    " Gil": 10039,
    " Intel": 10040,
    " signals": 10041,
    "pg": 10042,
    " echo": 10043,
    " Executive": 10044,
    " Kentucky": 10045,
    " tempor": 10046,
    " billions": 10047,
    " lineup": 10048,
    " math": 10049,
    " Yan": 10050,
    "urg": 10051,
    "2013": 10052,
    " 1991": 10053,
    " setup": 10054,
    " rend": 10055,
    "Finally": 10056,
    "netic": 10057,
    " eggs": 10058,
    "Comm": 10059,
    " segment": 10060,
    " arr": 10061,
    "ui": 10062,
    "mic": 10063,
    " badly": 10064,
    "kee": 10065,
    " Li": 10066,
    " sentenced": 10067,
    " everyday": 10068,
    " Dragon": 10069,
    " commander": 10070,
    " Holl": 10071,
    " AN": 10072,
    " loves": 10073,
    "unicipal": 10074,
    " genes": 10075,
    "NBC": 10076,
    " bold": 10077,
    " requiring": 10078,
    " bullet": 10079,
    " invasion": 10080,
    "will": 10081,
    " partly": 10082,
    " escal": 10083,
    "91": 10084,
    " instant": 10085,
    " gig": 10086,
    " Jean": 10087,
    "check": 10088,
    "!!!": 17650,
    " arts": 10090,
    " gene": 10091,
    " removal": 10092,
    " undert": 10093,
    " upload": 10094,
    "liest": 10095,
    " Hart": 10096,
    " topics": 10097,
    " Iron": 10098,
    "enezuel": 10099,
    " inquiry": 10100,
    " amendment": 10101,
    " weakness": 10102,
    " Rather": 10103,
    " concepts": 10104,
    "news": 10105,
    " McK": 10106,
    "PL": 10107,
    " shoes": 10108,
    "arted": 10109,
    " Sound": 10110,
    "rer": 10111,
    " fabric": 10112,
    "izza": 10113,
    " Delhi": 10114,
    "Earlier": 10115,
    "tsburgh": 10116,
    " frequent": 10117,
    " sections": 10118,
    " occurs": 10119,
    " Ze": 10120,
    "oli": 10121,
    " migrants": 10122,
    " compensation": 10123,
    " engineer": 10124,
    "eness": 10125,
    " lad": 10126,
    "has": 10127,
    " Finally": 10128,
    " fo": 10129,
    " attractive": 10130,
    " Box": 10131,
    " unve": 10132,
    "cor": 10133,
    " ).": 10134,
    " citing": 10135,
    " tweets": 10136,
    " utility": 10137,
    "arency": 10138,
    "grade": 10139,
    " posting": 10140,
    " ridiculous": 10141,
    " blockchain": 10142,
    " cler": 10143,
    " Clark": 10144,
    " speaker": 10145,
    "─": 10146,
    " diam": 10147,
    "ا": 10148,
    " corrupt": 10149,
    " talented": 10150,
    " lect": 10151,
    " collaps": 10152,
    " mask": 10153,
    "‐": 10154,
    "necess": 10155,
    "screen": 10156,
    " notable": 10157,
    " Therefore": 10158,
    " elder": 10159,
    " genre": 10160,
    "instein": 10161,
    " deadline": 10162,
    " rolling": 10163,
    " carries": 10164,
    " BM": 10165,
    "Top": 10166,
    " Final": 10167,
    "via": 10168,
    " ET": 10169,
    "ental": 10170,
    " approaches": 10171,
    " eliminate": 10172,
    " Priv": 10173,
    " analysts": 10174,
    " sits": 10175,
    " cens": 10176,
    "State": 10177,
    " instances": 10178,
    " Simon": 10179,
    " publishing": 10180,
    " unprecedented": 10181,
    " colour": 10182,
    " roots": 10183,
    " Phoenix": 10184,
    "VP": 10185,
    " cock": 10186,
    " bene": 10187,
    " Dur": 10188,
    " Psych": 10189,
    " toxic": 10190,
    "gus": 10191,
    " collaboration": 10192,
    " arc": 10193,
    " inequality": 10194,
    " neighbors": 10195,
    " insight": 10196,
    " dramatically": 10197,
    " Harper": 10198,
    " homosexual": 10199,
    " towns": 10200,
    " prize": 10201,
    " extraordinary": 10202,
    " perception": 10203,
    " Gordon": 10204,
    " Whether": 10205,
    " Phill": 10206,
    " parad": 10207,
    "arget": 10208,
    " gest": 10209,
    " maintenance": 10210,
    "owski": 10211,
    " GO": 10212,
    " Gro": 10213,
    " cheaper": 10214,
    "isdom": 10215,
    " associate": 10216,
    "die": 10217,
    " coup": 10218,
    "Mark": 10219,
    " Event": 10220,
    " sheet": 10221,
    " Bow": 10222,
    " Below": 10223,
    " distur": 10224,
    " Sav": 10225,
    " Captain": 10226,
    "pack": 10227,
    " cognitive": 10228,
    " encouraging": 10229,
    " dreams": 10230,
    " Pers": 10231,
    " seized": 10232,
    " interviewed": 10233,
    " deployed": 10234,
    " violations": 10235,
    " camps": 10236,
    " comics": 10237,
    " constitu": 10238,
    " Reagan": 10239,
    " glad": 10240,
    " reserved": 10241,
    " buck": 10242,
    " employers": 10243,
    "atus": 10244,
    " aims": 10245,
    " functional": 10246,
    " Sa": 10247,
    " mystery": 10248,
    " displayed": 10249,
    "Paul": 10250,
    "iban": 10251,
    " span": 10252,
    " loop": 10253,
    "apore": 10254,
    " delight": 10255,
    "cre": 10256,
    " traged": 10257,
    " Economic": 10258,
    "ixture": 10259,
    " 57": 10260,
    "ricane": 10261,
    " occasionally": 10262,
    " vend": 10263,
    " Sud": 10264,
    " export": 10265,
    "TON": 10266,
    " birthday": 10267,
    " heroes": 10268,
    "wa": 10269,
    " fatal": 10270,
    "estyle": 10271,
    "oga": 10272,
    " correctly": 10273,
    " Stew": 10274,
    " prompted": 10275,
    " stamp": 10276,
    " Cole": 10277,
    "elle": 10278,
    " contemporary": 10279,
    " Access": 10280,
    " Jenn": 10281,
    " prospects": 10282,
    "oting": 10283,
    " Ve": 10284,
    " irre": 10285,
    "AB": 10286,
    " recommendations": 10287,
    " diplomatic": 10288,
    "throp": 10289,
    " pa": 10290,
    "ighth": 10291,
    "mir": 10292,
    " bell": 10293,
    " parallel": 10294,
    " exclud": 10295,
    "eling": 10296,
    " constitution": 10297,
    "onz": 10298,
    " disappointed": 10299,
    " manufacturers": 10300,
    " adequ": 10301,
    " intr": 10302,
    " Staff": 10303,
    " moderate": 10304,
    " Ever": 10305,
    " Dog": 10306,
    "ols": 10307,
    " ecosystem": 10308,
    " accompan": 10309,
    "Time": 10310,
    " demanded": 10311,
    "vi": 10312,
    " 85": 10313,
    " GDP": 10314,
    " Photos": 10315,
    " nose": 10316,
    " Montreal": 10317,
    " Dick": 10318,
    "ailable": 10319,
    " interpre": 10320,
    "endar": 10321,
    " pleased": 10322,
    "2017": 10323,
    "rowing": 10324,
    " labour": 10325,
    " lifetime": 10326,
    " Brooklyn": 10327,
    " Tax": 10328,
    " Est": 10329,
    " Reserve": 10330,
    "rock": 10331,
    " communicate": 10332,
    " fights": 10333,
    " modified": 10334,
    "non": 10335,
    " drunk": 10336,
    " Ocean": 10337,
    " sessions": 10338,
    " wedding": 10339,
    " knock": 10340,
    " explosion": 10341,
    " Library": 10342,
    " biological": 10343,
    " repair": 10344,
    " landed": 10345,
    " EPA": 10346,
    " 58": 10347,
    " Authority": 10348,
    " subsc": 10349,
    " representation": 10350,
    " Given": 10351,
    " artificial": 10352,
    "250": 10353,
    "leans": 10354,
    "fit": 10355,
    "Fi": 10356,
    " relation": 10357,
    " owns": 10358,
    "ixon": 10359,
    " Khan": 10360,
    " Antonio": 10361,
    " Digital": 10362,
    " lift": 10363,
[...]
